{
  "version": "1.0",
  "truncation": null,
  "padding": null,
  "added_tokens": [
    {
      "id": 0,
      "content": "[CLS]",
      "single_word": false,
      "lstrip": false,
      "rstrip": false,
      "normalized": false,
      "special": true
    },
    {
      "id": 1,
      "content": "[PAD]",
      "single_word": false,
      "lstrip": false,
      "rstrip": false,
      "normalized": false,
      "special": true
    },
    {
      "id": 2,
      "content": "[SEP]",
      "single_word": false,
      "lstrip": false,
      "rstrip": false,
      "normalized": false,
      "special": true
    },
    {
      "id": 3,
      "content": "[MASK]",
      "single_word": false,
      "lstrip": false,
      "rstrip": false,
      "normalized": false,
      "special": true
    },
    {
      "id": 4,
      "content": "[UNK]",
      "single_word": false,
      "lstrip": false,
      "rstrip": false,
      "normalized": false,
      "special": true
    }
  ],
  "normalizer": {
    "type": "BertNormalizer",
    "clean_text": true,
    "handle_chinese_chars": true,
    "strip_accents": null,
    "lowercase": true
  },
  "pre_tokenizer": {
    "type": "BertPreTokenizer"
  },
  "post_processor": {
    "type": "TemplateProcessing",
    "single": [
      {
        "SpecialToken": {
          "id": "[CLS]",
          "type_id": 0
        }
      },
      {
        "Sequence": {
          "id": "A",
          "type_id": 0
        }
      },
      {
        "SpecialToken": {
          "id": "[SEP]",
          "type_id": 0
        }
      }
    ],
    "pair": [
      {
        "SpecialToken": {
          "id": "[CLS]",
          "type_id": 0
        }
      },
      {
        "Sequence": {
          "id": "A",
          "type_id": 0
        }
      },
      {
        "SpecialToken": {
          "id": "[SEP]",
          "type_id": 0
        }
      },
      {
        "Sequence": {
          "id": "B",
          "type_id": 1
        }
      },
      {
        "SpecialToken": {
          "id": "[SEP]",
          "type_id": 1
        }
      }
    ],
    "special_tokens": {
      "[CLS]": {
        "id": "[CLS]",
        "ids": [
          0
        ],
        "tokens": [
          "[CLS]"
        ]
      },
      "[SEP]": {
        "id": "[SEP]",
        "ids": [
          2
        ],
        "tokens": [
          "[SEP]"
        ]
      }
    }
  },
  "decoder": {
    "type": "WordPiece",
    "prefix": "##",
    "cleanup": true
  },
  "model": {
    "type": "WordPiece",
    "unk_token": "[UNK]",
    "continuing_subword_prefix": "##",
    "max_input_chars_per_word": 100,
    "vocab": {
      "[CLS]": 0,
      "[PAD]": 1,
      "[SEP]": 2,
      "[MASK]": 3,
      "[UNK]": 4,
      "!": 5,
      "\"": 6,
      "#": 7,
      "$": 8,
      "%": 9,
      "&": 10,
      "'": 11,
      "(": 12,
      ")": 13,
      "*": 14,
      "+": 15,
      ",": 16,
      "-": 17,
      ".": 18,
      "0": 19,
      "1": 20,
      "2": 21,
      "3": 22,
      "4": 23,
      "5": 24,
      "6": 25,
      "7": 26,
      "8": 27,
      "9": 28,
      ":": 29,
      ";": 30,
      "<": 31,
      "=": 32,
      ">": 33,
      "?": 34,
      "@": 35,
      "A": 36,
      "C": 37,
      "D": 38,
      "E": 39,
      "F": 40,
      "H": 41,
      "I": 42,
      "L": 43,
      "M": 44,
      "N": 45,
      "O": 46,
      "P": 47,
      "R": 48,
      "S": 49,
      "T": 50,
      "U": 51,
      "V": 52,
      "Y": 53,
      "[": 54,
      "\\": 55,
      "]": 56,
      "^": 57,
      "_": 58,
      "`": 59,
      "a": 60,
      "b": 61,
      "c": 62,
      "d": 63,
      "e": 64,
      "f": 65,
      "g": 66,
      "h": 67,
      "i": 68,
      "k": 69,
      "l": 70,
      "m": 71,
      "n": 72,
      "o": 73,
      "r": 74,
      "s": 75,
      "t": 76,
      "u": 77,
      "w": 78,
      "x": 79,
      "y": 80,
      "{": 81,
      "|": 82,
      "}": 83,
      "~": 84,
      "¡": 85,
      "£": 86,
      "¤": 87,
      "¥": 88,
      "§": 89,
      "©": 90,
      "«": 91,
      "¬": 92,
      "®": 93,
      "°": 94,
      "±": 95,
      "·": 96,
      "»": 97,
      "¿": 98,
      "Ã": 99,
      "Å": 100,
      "Æ": 101,
      "Ç": 102,
      "È": 103,
      "É": 104,
      "Ë": 105,
      "Í": 106,
      "Ï": 107,
      "Ò": 108,
      "Ó": 109,
      "Ô": 110,
      "Õ": 111,
      "Ö": 112,
      "×": 113,
      "Ø": 114,
      "Ù": 115,
      "Ú": 116,
      "Û": 117,
      "Ü": 118,
      "Ý": 119,
      "Þ": 120,
      "à": 121,
      "á": 122,
      "â": 123,
      "ã": 124,
      "ä": 125,
      "å": 126,
      "æ": 127,
      "ç": 128,
      "è": 129,
      "é": 130,
      "ê": 131,
      "ë": 132,
      "ì": 133,
      "í": 134,
      "ð": 135,
      "ñ": 136,
      "ò": 137,
      "ó": 138,
      "ô": 139,
      "ö": 140,
      "÷": 141,
      "ø": 142,
      "ú": 143,
      "ü": 144,
      "ā": 145,
      "ć": 146,
      "ğ": 147,
      "İ": 148,
      "ı": 149,
      "ł": 150,
      "ō": 151,
      "Œ": 152,
      "œ": 153,
      "ś": 154,
      "ş": 155,
      "š": 156,
      "ƒ": 157,
      "ə": 158,
      "ɪ": 159,
      "ɴ": 160,
      "ʹ": 161,
      "ʻ": 162,
      "ʼ": 163,
      "ʽ": 164,
      "ʾ": 165,
      "ʿ": 166,
      "ˆ": 167,
      "ˈ": 168,
      "ː": 169,
      "˗": 170,
      "́": 171,
      "̃": 172,
      "̈": 173,
      "̊": 174,
      "̕": 175,
      "̥": 176,
      "̧": 177,
      "̨": 178,
      "̵": 179,
      "̶": 180,
      "Δ": 181,
      "Σ": 182,
      "α": 183,
      "β": 184,
      "μ": 185,
      "ο": 186,
      "π": 187,
      "А": 188,
      "Б": 189,
      "В": 190,
      "Д": 191,
      "З": 192,
      "И": 193,
      "К": 194,
      "Л": 195,
      "М": 196,
      "Н": 197,
      "О": 198,
      "П": 199,
      "Р": 200,
      "С": 201,
      "Т": 202,
      "У": 203,
      "Ц": 204,
      "Ч": 205,
      "Я": 206,
      "а": 207,
      "б": 208,
      "в": 209,
      "г": 210,
      "д": 211,
      "е": 212,
      "ж": 213,
      "з": 214,
      "и": 215,
      "й": 216,
      "к": 217,
      "л": 218,
      "м": 219,
      "н": 220,
      "о": 221,
      "п": 222,
      "р": 223,
      "с": 224,
      "т": 225,
      "у": 226,
      "ф": 227,
      "х": 228,
      "ц": 229,
      "ч": 230,
      "ш": 231,
      "щ": 232,
      "ы": 233,
      "ь": 234,
      "э": 235,
      "ю": 236,
      "я": 237,
      "ё": 238,
      "є": 239,
      "і": 240,
      "ї": 241,
      "҆": 242,
      "՛": 243,
      "ְ": 244,
      "ֲ": 245,
      "ֹ": 246,
      "א": 247,
      "ב": 248,
      "ג": 249,
      "ד": 250,
      "ה": 251,
      "ו": 252,
      "ח": 253,
      "ט": 254,
      "י": 255,
      "כ": 256,
      "ל": 257,
      "ם": 258,
      "מ": 259,
      "ן": 260,
      "נ": 261,
      "ע": 262,
      "פ": 263,
      "ר": 264,
      "ש": 265,
      "ת": 266,
      "،": 267,
      "ؘ": 268,
      "؟": 269,
      "ء": 270,
      "آ": 271,
      "أ": 272,
      "ؤ": 273,
      "إ": 274,
      "ئ": 275,
      "ا": 276,
      "ب": 277,
      "ة": 278,
      "ت": 279,
      "ث": 280,
      "ج": 281,
      "ح": 282,
      "خ": 283,
      "د": 284,
      "ذ": 285,
      "ر": 286,
      "ز": 287,
      "س": 288,
      "ش": 289,
      "ص": 290,
      "ض": 291,
      "ط": 292,
      "ظ": 293,
      "ع": 294,
      "غ": 295,
      "ـ": 296,
      "ف": 297,
      "ق": 298,
      "ك": 299,
      "ل": 300,
      "م": 301,
      "ن": 302,
      "ه": 303,
      "و": 304,
      "ى": 305,
      "ي": 306,
      "ً": 307,
      "َ": 308,
      "ُ": 309,
      "ِ": 310,
      "ْ": 311,
      "ٹ": 312,
      "ټ": 313,
      "پ": 314,
      "چ": 315,
      "ډ": 316,
      "ڑ": 317,
      "ړ": 318,
      "ژ": 319,
      "ښ": 320,
      "ک": 321,
      "گ": 322,
      "ں": 323,
      "ھ": 324,
      "ہ": 325,
      "ی": 326,
      "ې": 327,
      "ے": 328,
      "۔": 329,
      "ە": 330,
      "ँ": 331,
      "ं": 332,
      "ः": 333,
      "अ": 334,
      "आ": 335,
      "इ": 336,
      "ई": 337,
      "उ": 338,
      "ऊ": 339,
      "ऋ": 340,
      "ऍ": 341,
      "ऎ": 342,
      "ए": 343,
      "ऐ": 344,
      "ऑ": 345,
      "ऒ": 346,
      "ओ": 347,
      "औ": 348,
      "क": 349,
      "ख": 350,
      "ग": 351,
      "घ": 352,
      "ङ": 353,
      "च": 354,
      "छ": 355,
      "ज": 356,
      "झ": 357,
      "ञ": 358,
      "ट": 359,
      "ठ": 360,
      "ड": 361,
      "ढ": 362,
      "ण": 363,
      "त": 364,
      "थ": 365,
      "द": 366,
      "ध": 367,
      "न": 368,
      "प": 369,
      "फ": 370,
      "ब": 371,
      "भ": 372,
      "म": 373,
      "य": 374,
      "र": 375,
      "ऱ": 376,
      "ल": 377,
      "ळ": 378,
      "व": 379,
      "श": 380,
      "ष": 381,
      "स": 382,
      "ह": 383,
      "़": 384,
      "ऽ": 385,
      "ा": 386,
      "ि": 387,
      "ी": 388,
      "ु": 389,
      "ू": 390,
      "ृ": 391,
      "ॄ": 392,
      "ॅ": 393,
      "ॆ": 394,
      "े": 395,
      "ै": 396,
      "ॉ": 397,
      "ॊ": 398,
      "ो": 399,
      "ौ": 400,
      "्": 401,
      "ॐ": 402,
      "॑": 403,
      "॒": 404,
      "॔": 405,
      "ॠ": 406,
      "।": 407,
      "॥": 408,
      "०": 409,
      "१": 410,
      "२": 411,
      "३": 412,
      "४": 413,
      "५": 414,
      "६": 415,
      "७": 416,
      "८": 417,
      "९": 418,
      "॰": 419,
      "ॽ": 420,
      "ঁ": 421,
      "ং": 422,
      "অ": 423,
      "আ": 424,
      "ই": 425,
      "উ": 426,
      "ঋ": 427,
      "এ": 428,
      "ও": 429,
      "ক": 430,
      "খ": 431,
      "গ": 432,
      "ঙ": 433,
      "চ": 434,
      "ছ": 435,
      "জ": 436,
      "ঝ": 437,
      "ঞ": 438,
      "ট": 439,
      "ড": 440,
      "ত": 441,
      "থ": 442,
      "দ": 443,
      "ধ": 444,
      "ন": 445,
      "প": 446,
      "ফ": 447,
      "ব": 448,
      "ভ": 449,
      "ম": 450,
      "য": 451,
      "র": 452,
      "ল": 453,
      "শ": 454,
      "ষ": 455,
      "স": 456,
      "হ": 457,
      "়": 458,
      "া": 459,
      "ি": 460,
      "ী": 461,
      "ু": 462,
      "ূ": 463,
      "ৃ": 464,
      "ে": 465,
      "ো": 466,
      "্": 467,
      "১": 468,
      "ৰ": 469,
      "৷": 470,
      "ં": 471,
      "અ": 472,
      "આ": 473,
      "ક": 474,
      "ખ": 475,
      "ગ": 476,
      "ચ": 477,
      "છ": 478,
      "જ": 479,
      "ટ": 480,
      "ડ": 481,
      "ણ": 482,
      "ત": 483,
      "થ": 484,
      "દ": 485,
      "ધ": 486,
      "ન": 487,
      "પ": 488,
      "બ": 489,
      "ભ": 490,
      "મ": 491,
      "ય": 492,
      "ર": 493,
      "લ": 494,
      "ળ": 495,
      "વ": 496,
      "શ": 497,
      "ષ": 498,
      "સ": 499,
      "હ": 500,
      "ા": 501,
      "િ": 502,
      "ી": 503,
      "ુ": 504,
      "ૂ": 505,
      "ે": 506,
      "ો": 507,
      "્": 508,
      "૪": 509,
      "அ": 510,
      "க": 511,
      "ச": 512,
      "ட": 513,
      "ண": 514,
      "த": 515,
      "ந": 516,
      "ன": 517,
      "ப": 518,
      "ம": 519,
      "ய": 520,
      "ர": 521,
      "ற": 522,
      "ல": 523,
      "வ": 524,
      "ா": 525,
      "ி": 526,
      "ு": 527,
      "ே": 528,
      "ை": 529,
      "்": 530,
      "ం": 531,
      "అ": 532,
      "ఆ": 533,
      "క": 534,
      "గ": 535,
      "చ": 536,
      "జ": 537,
      "ట": 538,
      "డ": 539,
      "త": 540,
      "ద": 541,
      "న": 542,
      "ప": 543,
      "భ": 544,
      "మ": 545,
      "య": 546,
      "ర": 547,
      "ల": 548,
      "వ": 549,
      "ష": 550,
      "స": 551,
      "ా": 552,
      "ి": 553,
      "ు": 554,
      "ె": 555,
      "ే": 556,
      "ో": 557,
      "్": 558,
      "ಂ": 559,
      "ಅ": 560,
      "ಕ": 561,
      "ಗ": 562,
      "ಟ": 563,
      "ಡ": 564,
      "ತ": 565,
      "ದ": 566,
      "ನ": 567,
      "ಪ": 568,
      "ಮ": 569,
      "ಯ": 570,
      "ರ": 571,
      "ಲ": 572,
      "ಳ": 573,
      "ವ": 574,
      "ಷ": 575,
      "ಸ": 576,
      "ಹ": 577,
      "ಾ": 578,
      "ಿ": 579,
      "ು": 580,
      "ೆ": 581,
      "ೇ": 582,
      "್": 583,
      "ก": 584,
      "ข": 585,
      "ค": 586,
      "ง": 587,
      "ด": 588,
      "ต": 589,
      "ท": 590,
      "น": 591,
      "บ": 592,
      "ป": 593,
      "พ": 594,
      "ม": 595,
      "ย": 596,
      "ร": 597,
      "ล": 598,
      "ว": 599,
      "ศ": 600,
      "ส": 601,
      "ห": 602,
      "อ": 603,
      "ะ": 604,
      "ั": 605,
      "า": 606,
      "ิ": 607,
      "ี": 608,
      "ื": 609,
      "เ": 610,
      "ไ": 611,
      "่": 612,
      "้": 613,
      "์": 614,
      "က": 615,
      "င": 616,
      "စ": 617,
      "ဆ": 618,
      "ည": 619,
      "တ": 620,
      "ပ": 621,
      "မ": 622,
      "သ": 623,
      "အ": 624,
      "ာ": 625,
      "ု": 626,
      "ေ": 627,
      "ံ": 628,
      "့": 629,
      "း": 630,
      "်": 631,
      "ြ": 632,
      "ွ": 633,
      "ᅠ": 634,
      "ᴏ": 635,
      "‐": 636,
      "‒": 637,
      "–": 638,
      "—": 639,
      "―": 640,
      "‘": 641,
      "’": 642,
      "‚": 643,
      "‛": 644,
      "“": 645,
      "”": 646,
      "„": 647,
      "†": 648,
      "•": 649,
      "‰": 650,
      "′": 651,
      "‹": 652,
      "›": 653,
      "⁃": 654,
      "⁄": 655,
      "€": 656,
      "₹": 657,
      "⃣": 658,
      "→": 659,
      "⇨": 660,
      "−": 661,
      "∕": 662,
      "∙": 663,
      "∞": 664,
      "≈": 665,
      "≠": 666,
      "≤": 667,
      "≥": 668,
      "⋲": 669,
      "⎯": 670,
      "■": 671,
      "▪": 672,
      "▶": 673,
      "◊": 674,
      "○": 675,
      "●": 676,
      "◙": 677,
      "☀": 678,
      "☑": 679,
      "☘": 680,
      "☠": 681,
      "☭": 682,
      "☺": 683,
      "♀": 684,
      "♂": 685,
      "♡": 686,
      "♥": 687,
      "♦": 688,
      "♬": 689,
      "⚔": 690,
      "⚠": 691,
      "⚡": 692,
      "⚪": 693,
      "⚫": 694,
      "⚽": 695,
      "✅": 696,
      "✈": 697,
      "✊": 698,
      "✌": 699,
      "✍": 700,
      "✔": 701,
      "✨": 702,
      "✿": 703,
      "❄": 704,
      "❌": 705,
      "❍": 706,
      "❓": 707,
      "❖": 708,
      "❛": 709,
      "❝": 710,
      "❞": 711,
      "❣": 712,
      "❤": 713,
      "➡": 714,
      "⠀": 715,
      "⦁": 716,
      "⦿": 717,
      "⬆": 718,
      "⬇": 719,
      "⭐": 720,
      "、": 721,
      "。": 722,
      "【": 723,
      "】": 724,
      "い": 725,
      "う": 726,
      "か": 727,
      "が": 728,
      "し": 729,
      "す": 730,
      "た": 731,
      "て": 732,
      "で": 733,
      "と": 734,
      "に": 735,
      "の": 736,
      "は": 737,
      "ま": 738,
      "り": 739,
      "る": 740,
      "を": 741,
      "イ": 742,
      "ク": 743,
      "シ": 744,
      "ス": 745,
      "ツ": 746,
      "バ": 747,
      "ラ": 748,
      "ン": 749,
      "・": 750,
      "ー": 751,
      "上": 752,
      "不": 753,
      "专": 754,
      "中": 755,
      "之": 756,
      "了": 757,
      "亚": 758,
      "人": 759,
      "伟": 760,
      "作": 761,
      "健": 762,
      "公": 763,
      "前": 764,
      "医": 765,
      "友": 766,
      "发": 767,
      "台": 768,
      "同": 769,
      "在": 770,
      "坚": 771,
      "多": 772,
      "大": 773,
      "天": 774,
      "妹": 775,
      "家": 776,
      "就": 777,
      "年": 778,
      "康": 779,
      "恩": 780,
      "情": 781,
      "护": 782,
      "文": 783,
      "新": 784,
      "日": 785,
      "明": 786,
      "曾": 787,
      "月": 788,
      "東": 789,
      "正": 790,
      "武": 791,
      "汉": 792,
      "沈": 793,
      "洲": 794,
      "満": 795,
      "由": 796,
      "痛": 797,
      "着": 798,
      "立": 799,
      "老": 800,
      "自": 801,
      "讲": 802,
      "诗": 803,
      "赵": 804,
      "酒": 805,
      "金": 806,
      "錚": 807,
      "风": 808,
      "니": 809,
      "리": 810,
      "️": 811,
      "￼": 812,
      "🆚": 813,
      "🇦": 814,
      "🇧": 815,
      "🇨": 816,
      "🇩": 817,
      "🇪": 818,
      "🇫": 819,
      "🇬": 820,
      "🇭": 821,
      "🇮": 822,
      "🇯": 823,
      "🇰": 824,
      "🇱": 825,
      "🇲": 826,
      "🇳": 827,
      "🇴": 828,
      "🇵": 829,
      "🇶": 830,
      "🇷": 831,
      "🇸": 832,
      "🇹": 833,
      "🇺": 834,
      "🇻": 835,
      "🇽": 836,
      "🇾": 837,
      "🇿": 838,
      "🌈": 839,
      "🌍": 840,
      "🌎": 841,
      "🌏": 842,
      "🌞": 843,
      "🌟": 844,
      "🌧": 845,
      "🌳": 846,
      "🌸": 847,
      "🌹": 848,
      "🌺": 849,
      "🌻": 850,
      "🌼": 851,
      "🍀": 852,
      "🎀": 853,
      "🎂": 854,
      "🎄": 855,
      "🎉": 856,
      "🎞": 857,
      "🎤": 858,
      "🎥": 859,
      "🎬": 860,
      "🎲": 861,
      "🎶": 862,
      "🏅": 863,
      "🏆": 864,
      "🏏": 865,
      "🏟": 866,
      "🏠": 867,
      "🏴": 868,
      "🏻": 869,
      "🏼": 870,
      "🏽": 871,
      "🏾": 872,
      "🏿": 873,
      "🐅": 874,
      "🐐": 875,
      "🐯": 876,
      "🐰": 877,
      "👀": 878,
      "👇": 879,
      "👈": 880,
      "👉": 881,
      "👊": 882,
      "👋": 883,
      "👌": 884,
      "👍": 885,
      "👏": 886,
      "👑": 887,
      "👨": 888,
      "👩": 889,
      "👭": 890,
      "👶": 891,
      "👻": 892,
      "👼": 893,
      "💁": 894,
      "💃": 895,
      "💉": 896,
      "💋": 897,
      "💍": 898,
      "💐": 899,
      "💓": 900,
      "💔": 901,
      "💕": 902,
      "💖": 903,
      "💗": 904,
      "💘": 905,
      "💙": 906,
      "💚": 907,
      "💛": 908,
      "💜": 909,
      "💝": 910,
      "💞": 911,
      "💥": 912,
      "💪": 913,
      "💫": 914,
      "💯": 915,
      "💰": 916,
      "📍": 917,
      "📝": 918,
      "📷": 919,
      "📸": 920,
      "📹": 921,
      "📺": 922,
      "📽": 923,
      "🔙": 924,
      "🔛": 925,
      "🔝": 926,
      "🔥": 927,
      "🔴": 928,
      "🔵": 929,
      "🔷": 930,
      "🔹": 931,
      "🕺": 932,
      "🖤": 933,
      "🗣": 934,
      "😀": 935,
      "😁": 936,
      "😂": 937,
      "😃": 938,
      "😄": 939,
      "😅": 940,
      "😆": 941,
      "😇": 942,
      "😈": 943,
      "😉": 944,
      "😊": 945,
      "😋": 946,
      "😌": 947,
      "😍": 948,
      "😎": 949,
      "😏": 950,
      "😐": 951,
      "😔": 952,
      "😘": 953,
      "😚": 954,
      "😛": 955,
      "😜": 956,
      "😝": 957,
      "😞": 958,
      "😟": 959,
      "😡": 960,
      "😢": 961,
      "😪": 962,
      "😫": 963,
      "😭": 964,
      "😮": 965,
      "😱": 966,
      "😲": 967,
      "😳": 968,
      "😷": 969,
      "🙂": 970,
      "🙄": 971,
      "🙈": 972,
      "🙌": 973,
      "🙏": 974,
      "🚀": 975,
      "🚨": 976,
      "🛬": 977,
      "🤍": 978,
      "🤓": 979,
      "🤔": 980,
      "🤗": 981,
      "🤘": 982,
      "🤛": 983,
      "🤜": 984,
      "🤞": 985,
      "🤣": 986,
      "🤦": 987,
      "🤩": 988,
      "🤪": 989,
      "🤯": 990,
      "🤰": 991,
      "🤲": 992,
      "🤷": 993,
      "🥂": 994,
      "🥇": 995,
      "🥈": 996,
      "🥉": 997,
      "🥰": 998,
      "🥳": 999,
      "🥺": 1000,
      "🦋": 1001,
      "🦠": 1002,
      "🧡": 1003,
      "🧿": 1004,
      "##ा": 1005,
      "##ं": 1006,
      "##ग": 1007,
      "##ठ": 1008,
      "##न": 1009,
      "##ि": 1010,
      "##स": 1011,
      "##्": 1012,
      "##त": 1013,
      "##र": 1014,
      "##म": 1015,
      "##े": 1016,
      "##ज": 1017,
      "##ु": 1018,
      "##क": 1019,
      "##ो": 1020,
      "##ल": 1021,
      "##ह": 1022,
      "##प": 1023,
      "##द": 1024,
      "##थ": 1025,
      "##य": 1026,
      "##ख": 1027,
      "##फ": 1028,
      "##व": 1029,
      "##उ": 1030,
      "##ए": 1031,
      "##ी": 1032,
      "##इ": 1033,
      "##ँ": 1034,
      "##ई": 1035,
      "##ञ": 1036,
      "##ै": 1037,
      "##ट": 1038,
      "##ब": 1039,
      "##ू": 1040,
      "##घ": 1041,
      "##छ": 1042,
      "##ण": 1043,
      "##भ": 1044,
      "##ष": 1045,
      "##ौ": 1046,
      "##ड": 1047,
      "##श": 1048,
      "##च": 1049,
      "##ध": 1050,
      "##ङ": 1051,
      "##५": 1052,
      "##०": 1053,
      "##६": 1054,
      "##ृ": 1055,
      "##झ": 1056,
      "##अ": 1057,
      "##आ": 1058,
      "##ः": 1059,
      "##४": 1060,
      "##२": 1061,
      "##१": 1062,
      "##ऊ": 1063,
      "##÷": 1064,
      "##३": 1065,
      "##९": 1066,
      "##ढ": 1067,
      "##७": 1068,
      "##ओ": 1069,
      "##औ": 1070,
      "##८": 1071,
      "##़": 1072,
      "##ی": 1073,
      "##ئ": 1074,
      "##ر": 1075,
      "##ॅ": 1076,
      "##ک": 1077,
      "##ړ": 1078,
      "##🇬": 1079,
      "##🇳": 1080,
      "##🇪": 1081,
      "##6": 1082,
      "##8": 1083,
      "##0": 1084,
      "##3": 1085,
      "##1": 1086,
      "##4": 1087,
      "##7": 1088,
      "##9": 1089,
      "##️": 1090,
      "##т": 1091,
      "##к": 1092,
      "##р": 1093,
      "##ы": 1094,
      "##🙈": 1095,
      "##ॆ": 1096,
      "##¥": 1097,
      "##2": 1098,
      "##ط": 1099,
      "##ا": 1100,
      "##ف": 1101,
      "##5": 1102,
      "##ऋ": 1103,
      "##ऐ": 1104,
      "##¬": 1105,
      "##ل": 1106,
      "##ع": 1107,
      "##ه": 1108,
      "##Œ": 1109,
      "##❤": 1110,
      "##🤣": 1111,
      "##🏽": 1112,
      "##🙏": 1113,
      "##و": 1114,
      "##ऽ": 1115,
      "##💙": 1116,
      "##😔": 1117,
      "##ऎ": 1118,
      "##ہ": 1119,
      "##د": 1120,
      "##ے": 1121,
      "##্": 1122,
      "##ব": 1123,
      "##া": 1124,
      "##ম": 1125,
      "##ী": 1126,
      "##Þ": 1127,
      "##а": 1128,
      "##и": 1129,
      "##м": 1130,
      "##н": 1131,
      "##я": 1132,
      "##ں": 1133,
      "##U": 1134,
      "##T": 1135,
      "##A": 1136,
      "##∙": 1137,
      "##ऱ": 1138,
      "##⃣": 1139,
      "##ো": 1140,
      "##র": 1141,
      "##ش": 1142,
      "##م": 1143,
      "##య": 1144,
      "##్": 1145,
      "##ా": 1146,
      "##న": 1147,
      "##ు": 1148,
      "##ھ": 1149,
      "##ز": 1150,
      "##ي": 1151,
      "##ة": 1152,
      "##💋": 1153,
      "##🌈": 1154,
      "##ı": 1155,
      "##ğ": 1156,
      "##פ": 1157,
      "##י": 1158,
      "##ד": 1159,
      "##ॉ": 1160,
      "##Ï": 1161,
      "##о": 1162,
      "##с": 1163,
      "##в": 1164,
      "##🎶": 1165,
      "##ಲ": 1166,
      "##ಾ": 1167,
      "##ವ": 1168,
      "##ಿ": 1169,
      "##ದ": 1170,
      "##M": 1171,
      "##ಟ": 1172,
      "##್": 1173,
      "##🇩": 1174,
      "##œ": 1175,
      "##й": 1176,
      "##ુ": 1177,
      "##જ": 1178,
      "##ર": 1179,
      "##ા": 1180,
      "##ત": 1181,
      "##ت": 1182,
      "##х": 1183,
      "##ॊ": 1184,
      "##ি": 1185,
      "##য": 1186,
      "##়": 1187,
      "##ে": 1188,
      "##🏻": 1189,
      "##♂": 1190,
      "##ু": 1191,
      "##ড": 1192,
      "##😎": 1193,
      "##إ": 1194,
      "##ج": 1195,
      "##🇸": 1196,
      "##⁄": 1197,
      "##ð": 1198,
      "##ح": 1199,
      "##ن": 1200,
      "##新": 1201,
      "##♥": 1202,
      "##😇": 1203,
      "##🙌": 1204,
      "##ॐ": 1205,
      "##®": 1206,
      "##ث": 1207,
      "##ळ": 1208,
      "##ক": 1209,
      "##ট": 1210,
      "##✈": 1211,
      "##ο": 1212,
      "##⭐": 1213,
      "##∕": 1214,
      "##మ": 1215,
      "##ర": 1216,
      "##ం": 1217,
      "##ন": 1218,
      "##🔴": 1219,
      "##غ": 1220,
      "##ঁ": 1221,
      "##е": 1222,
      "##д": 1223,
      "##ض": 1224,
      "##😍": 1225,
      "##ূ": 1226,
      "##ত": 1227,
      "##س": 1228,
      "##×": 1229,
      "##ب": 1230,
      "##±": 1231,
      "##॑": 1232,
      "##॒": 1233,
      "##ન": 1234,
      "##વ": 1235,
      "##ી": 1236,
      "##ж": 1237,
      "##л": 1238,
      "##Ù": 1239,
      "##≈": 1240,
      "##ঞ": 1241,
      "##চ": 1242,
      "##ল": 1243,
      "##È": 1244,
      "##ق": 1245,
      "##🤞": 1246,
      "##💕": 1247,
      "##🏼": 1248,
      "##✨": 1249,
      "##ล": 1250,
      "##ก": 1251,
      "##ร": 1252,
      "##ะ": 1253,
      "##ห": 1254,
      "##ม": 1255,
      "##่": 1256,
      "##อ": 1257,
      "##ิ": 1258,
      "##ง": 1259,
      "##บ": 1260,
      "##ั": 1261,
      "##ต": 1262,
      "##น": 1263,
      "##👏": 1264,
      "##ˆ": 1265,
      "##🍀": 1266,
      "##ং": 1267,
      "##গ": 1268,
      "##ৰ": 1269,
      "##ছ": 1270,
      "##−": 1271,
      "##Ò": 1272,
      "##°": 1273,
      "##શ": 1274,
      "##ળ": 1275,
      "##🇺": 1276,
      "##у": 1277,
      "##⋲": 1278,
      "##🌺": 1279,
      "##🌎": 1280,
      "##স": 1281,
      "##ʾ": 1282,
      "##گ": 1283,
      "##پ": 1284,
      "##చ": 1285,
      "##ю": 1286,
      "##г": 1287,
      "##ь": 1288,
      "##💐": 1289,
      "##🇵": 1290,
      "##🇲": 1291,
      "##🇻": 1292,
      "##ॽ": 1293,
      "##i": 1294,
      "##g": 1295,
      "##d": 1296,
      "##e": 1297,
      "##l": 1298,
      "##∞": 1299,
      "##🥺": 1300,
      "##o": 1301,
      "##প": 1302,
      "##ভ": 1303,
      "##ø": 1304,
      "##ষ": 1305,
      "##ऒ": 1306,
      "##🎉": 1307,
      "##э": 1308,
      "##か": 1309,
      "##明": 1310,
      "##日": 1311,
      "##の": 1312,
      "##ラ": 1313,
      "##イ": 1314,
      "##に": 1315,
      "##て": 1316,
      "##で": 1317,
      "##す": 1318,
      "##😘": 1319,
      "##ʹ": 1320,
      "##భ": 1321,
      "##త": 1322,
      "##ి": 1323,
      "##أ": 1324,
      "##⠀": 1325,
      "##🤗": 1326,
      "##🏆": 1327,
      "##Ô": 1328,
      "##月": 1329,
      "##🇴": 1330,
      "##ע": 1331,
      "##ו": 1332,
      "##б": 1333,
      "##ء": 1334,
      "##ì": 1335,
      "##ː": 1336,
      "##ɪ": 1337,
      "##🥰": 1338,
      "##خ": 1339,
      "##آ": 1340,
      "##ك": 1341,
      "##a": 1342,
      "##n": 1343,
      "##c": 1344,
      "##h": 1345,
      "##ш": 1346,
      "##з": 1347,
      "##ʼ": 1348,
      "##ย": 1349,
      "##า": 1350,
      "##เ": 1351,
      "##ป": 1352,
      "##ท": 1353,
      "##ศ": 1354,
      "##ไ": 1355,
      "##ด": 1356,
      "##ข": 1357,
      "##้": 1358,
      "##ص": 1359,
      "##🔥": 1360,
      "##🐯": 1361,
      "##🏾": 1362,
      "##♀": 1363,
      "##💞": 1364,
      "##🧿": 1365,
      "##🌞": 1366,
      "##ظ": 1367,
      "##🇰": 1368,
      "##🏏": 1369,
      "##⚫": 1370,
      "##⚪": 1371,
      "##⚽": 1372,
      "##ى": 1373,
      "##⬇": 1374,
      "##ો": 1375,
      "##ગ": 1376,
      "##દ": 1377,
      "##🤦": 1378,
      "##জ": 1379,
      "##🔛": 1380,
      "##≠": 1381,
      "##🇹": 1382,
      "##◊": 1383,
      "##બ": 1384,
      "##ૂ": 1385,
      "##ભ": 1386,
      "##🎄": 1387,
      "##E": 1388,
      "##Y": 1389,
      "##📸": 1390,
      "##ડ": 1391,
      "##ã": 1392,
      "##є": 1393,
      "##😟": 1394,
      "##১": 1395,
      "##મ": 1396,
      "##m": 1397,
      "##ે": 1398,
      "##ॄ": 1399,
      "##א": 1400,
      "##ר": 1401,
      "##😂": 1402,
      "##😜": 1403,
      "##వ": 1404,
      "##ట": 1405,
      "##x": 1406,
      "##ô": 1407,
      "##শ": 1408,
      "##Å": 1409,
      "##上": 1410,
      "##医": 1411,
      "##̈": 1412,
      "##ş": 1413,
      "##ี": 1414,
      "##ؘ": 1415,
      "##ф": 1416,
      "##Ç": 1417,
      "##☺": 1418,
      "##ה": 1419,
      "##ם": 1420,
      "##৷": 1421,
      "##🌸": 1422,
      "##🇾": 1423,
      "##🇷": 1424,
      "##ת": 1425,
      "##પ": 1426,
      "##â": 1427,
      "##ч": 1428,
      "##ё": 1429,
      "##s": 1430,
      "##ە": 1431,
      "##💜": 1432,
      "##🇭": 1433,
      "##ಪ": 1434,
      "##ರ": 1435,
      "##ತ": 1436,
      "##ಯ": 1437,
      "##п": 1438,
      "##ว": 1439,
      "##์": 1440,
      "##🤔": 1441,
      "##H": 1442,
      "##I": 1443,
      "##L": 1444,
      "##🤯": 1445,
      "##🙄": 1446,
      "##✌": 1447,
      "##হ": 1448,
      "##≤": 1449,
      "##ç": 1450,
      "##מ": 1451,
      "##ש": 1452,
      "##😮": 1453,
      "##ও": 1454,
      "##Ý": 1455,
      "##В": 1456,
      "##💪": 1457,
      "##y": 1458,
      "##u": 1459,
      "##ખ": 1460,
      "##્": 1461,
      "##ય": 1462,
      "##ં": 1463,
      "##ॠ": 1464,
      "##▶": 1465,
      "##נ": 1466,
      "##©": 1467,
      "##🌳": 1468,
      "##💥": 1469,
      "##ט": 1470,
      "##ל": 1471,
      "##ً": 1472,
      "##🇽": 1473,
      "##ು": 1474,
      "##ü": 1475,
      "##ో": 1476,
      "##ష": 1477,
      "##😊": 1478,
      "##খ": 1479,
      "##ই": 1480,
      "##ᴏ": 1481,
      "##ɴ": 1482,
      "##🇱": 1483,
      "##🇨": 1484,
      "##ښ": 1485,
      "##➡": 1486,
      "##і": 1487,
      "##😄": 1488,
      "##b": 1489,
      "##r": 1490,
      "##t": 1491,
      "##👍": 1492,
      "##િ": 1493,
      "##Ú": 1494,
      "##ц": 1495,
      "##🎥": 1496,
      "##👇": 1497,
      "##থ": 1498,
      "##ধ": 1499,
      "##З": 1500,
      "##ಗ": 1501,
      "##ಳ": 1502,
      "##ನ": 1503,
      "##😢": 1504,
      "##友": 1505,
      "##作": 1506,
      "##দ": 1507,
      "##ِ": 1508,
      "##😳": 1509,
      "##щ": 1510,
      "##👌": 1511,
      "##ٹ": 1512,
      "##˗": 1513,
      "##€": 1514,
      "##✊": 1515,
      "##ऑ": 1516,
      "##😀": 1517,
      "##ే": 1518,
      "##ב": 1519,
      "##と": 1520,
      "##る": 1521,
      "##は": 1522,
      "##い": 1523,
      "##📍": 1524,
      "##μ": 1525,
      "##̃": 1526,
      "##ચ": 1527,
      "##છ": 1528,
      "##💖": 1529,
      "##ಕ": 1530,
      "##ಷ": 1531,
      "##🇮": 1532,
      "##π": 1533,
      "##α": 1534,
      "##●": 1535,
      "##😪": 1536,
      "##ـ": 1537,
      "##ֹ": 1538,
      "##چ": 1539,
      "##🖤": 1540,
      "##💃": 1541,
      "##❓": 1542,
      "##С": 1543,
      "##ွ": 1544,
      "##ေ": 1545,
      "##း": 1546,
      "##ု": 1547,
      "##ံ": 1548,
      "##့": 1549,
      "##ဆ": 1550,
      "##ာ": 1551,
      "##်": 1552,
      "##သ": 1553,
      "##ည": 1554,
      "##ಹ": 1555,
      "##ಸ": 1556,
      "##😋": 1557,
      "##😈": 1558,
      "##🤷": 1559,
      "##🏠": 1560,
      "##થ": 1561,
      "##ક": 1562,
      "##í": 1563,
      "##ঙ": 1564,
      "##🦋": 1565,
      "##康": 1566,
      "##专": 1567,
      "##家": 1568,
      "##在": 1569,
      "##台": 1570,
      "##天": 1571,
      "##ல": 1572,
      "##ை": 1573,
      "##ர": 1574,
      "##்": 1575,
      "##ス": 1576,
      "##バ": 1577,
      "##ー": 1578,
      "##ン": 1579,
      "##ې": 1580,
      "##ಂ": 1581,
      "##N": 1582,
      "##َ": 1583,
      "##ْ": 1584,
      "##東": 1585,
      "##を": 1586,
      "##た": 1587,
      "##כ": 1588,
      "##૪": 1589,
      "##🌟": 1590,
      "##🎀": 1591,
      "##జ": 1592,
      "##ೆ": 1593,
      "##ذ": 1594,
      "##ધ": 1595,
      "##લ": 1596,
      "##📺": 1597,
      "##ؤ": 1598,
      "##人": 1599,
      "##公": 1600,
      "##Ü": 1601,
      "##ె": 1602,
      "##ల": 1603,
      "##ட": 1604,
      "##ி": 1605,
      "##ய": 1606,
      "##ா": 1607,
      "##😲": 1608,
      "##த": 1609,
      "##ப": 1610,
      "##ு": 1611,
      "##⇨": 1612,
      "##🇦": 1613,
      "##ফ": 1614,
      "##😭": 1615,
      "##老": 1616,
      "##☠": 1617,
      "##❣": 1618,
      "##不": 1619,
      "##同": 1620,
      "##é": 1621,
      "##k": 1622,
      "##ژ": 1623,
      "##🌼": 1624,
      "##ڑ": 1625,
      "##ண": 1626,
      "##ன": 1627,
      "##அ": 1628,
      "##க": 1629,
      "##ம": 1630,
      "##ણ": 1631,
      "##👨": 1632,
      "##👩": 1633,
      "##က": 1634,
      "##စ": 1635,
      "##တ": 1636,
      "##မ": 1637,
      "##Ã": 1638,
      "##வ": 1639,
      "##👉": 1640,
      "##☀": 1641,
      "##ן": 1642,
      "##年": 1643,
      "##💫": 1644,
      "##🇯": 1645,
      "##🇶": 1646,
      "##҆": 1647,
      "##🥂": 1648,
      "##ே": 1649,
      "##🤩": 1650,
      "##✅": 1651,
      "##☘": 1652,
      "##就": 1653,
      "##😛": 1654,
      "##f": 1655,
      "##¤": 1656,
      "##గ": 1657,
      "##พ": 1658,
      "##ส": 1659,
      "##ค": 1660,
      "##ೇ": 1661,
      "##w": 1662,
      "##О": 1663,
      "##Н": 1664,
      "##Д": 1665,
      "##ऍ": 1666,
      "##ટ": 1667,
      "##ї": 1668,
      "##ற": 1669,
      "##👊": 1670,
      "##👼": 1671,
      "##Σ": 1672,
      "##🥳": 1673,
      "##🇧": 1674,
      "##🇿": 1675,
      "##🐰": 1676,
      "##🤛": 1677,
      "##🏿": 1678,
      "##Ë": 1679,
      "##š": 1680,
      "##ပ": 1681,
      "##ြ": 1682,
      "##Б": 1683,
      "##😁": 1684,
      "##😆": 1685,
      "##🐐": 1686,
      "##S": 1687,
      "##ʿ": 1688,
      "##ಡ": 1689,
      "##👀": 1690,
      "##🚀": 1691,
      "##○": 1692,
      "##￼": 1693,
      "##క": 1694,
      "##ُ": 1695,
      "##P": 1696,
      "##🌹": 1697,
      "##ְ": 1698,
      "##స": 1699,
      "##ಮ": 1700,
      "##💔": 1701,
      "##🙂": 1702,
      "##健": 1703,
      "##痛": 1704,
      "##风": 1705,
      "##酒": 1706,
      "##发": 1707,
      "##😅": 1708,
      "##ə": 1709,
      "##ג": 1710,
      "##立": 1711,
      "##坚": 1712,
      "##満": 1713,
      "##う": 1714,
      "##し": 1715,
      "##🤘": 1716,
      "##ま": 1717,
      "##R": 1718,
      "##🚨": 1719,
      "##ú": 1720,
      "##💘": 1721,
      "##😱": 1722,
      "##Ö": 1723,
      "##🇫": 1724,
      "##ˈ": 1725,
      "##ద": 1726,
      "##🤲": 1727,
      "##🔵": 1728,
      "##ö": 1729,
      "##હ": 1730,
      "##ષ": 1731,
      "##O": 1732,
      "##👶": 1733,
      "##💰": 1734,
      "##≥": 1735,
      "##အ": 1736,
      "##င": 1737,
      "##̊": 1738,
      "##之": 1739,
      "##ச": 1740,
      "##Л": 1741,
      "##Р": 1742,
      "##C": 1743,
      "##ప": 1744,
      "##ঝ": 1745,
      "##॔": 1746,
      "##👋": 1747,
      "##ډ": 1748,
      "##■": 1749,
      "##が": 1750,
      "##å": 1751,
      "##⚡": 1752,
      "##ח": 1753,
      "##ƒ": 1754,
      "##😡": 1755,
      "##中": 1756,
      "##ク": 1757,
      "##妹": 1758,
      "##了": 1759,
      "##🤓": 1760,
      "##り": 1761,
      "##Ó": 1762,
      "##ื": 1763,
      "##리": 1764,
      "##💯": 1765,
      "##✿": 1766,
      "##ৃ": 1767,
      "##大": 1768,
      "##🌻": 1769,
      "##文": 1770,
      "##উ": 1771,
      "##β": 1772,
      "##니": 1773,
      "##డ": 1774,
      "##è": 1775,
      "##🧡": 1776,
      "##🎞": 1777,
      "##😫": 1778,
      "##👻": 1779,
      "##💍": 1780,
      "##😏": 1781,
      "##ć": 1782,
      "##😝": 1783,
      "##😉": 1784,
      "##🔝": 1785,
      "##Û": 1786,
      "##🔹": 1787,
      "##Õ": 1788,
      "##V": 1789,
      "##̶": 1790,
      "##👑": 1791,
      "##🕺": 1792,
      "##̥": 1793,
      "##🎲": 1794,
      "##♦": 1795,
      "##ō": 1796,
      "##🏴": 1797,
      "##́": 1798,
      "##😐": 1799,
      "##亚": 1800,
      "##❄": 1801,
      "##🥇": 1802,
      "##🌏": 1803,
      "##સ": 1804,
      "##シ": 1805,
      "##金": 1806,
      "##💛": 1807,
      "##💚": 1808,
      "##正": 1809,
      "##恩": 1810,
      "##😃": 1811,
      "##⬆": 1812,
      "##ñ": 1813,
      "##❌": 1814,
      "##由": 1815,
      "##洲": 1816,
      "##🌍": 1817,
      "##😷": 1818,
      "##💓": 1819,
      "##ツ": 1820,
      "##🎤": 1821,
      "##ᅠ": 1822,
      "##💉": 1823,
      "##💝": 1824,
      "##💗": 1825,
      "##前": 1826,
      "##А": 1827,
      "##Я": 1828,
      "##多": 1829,
      "##汉": 1830,
      "##护": 1831,
      "##🤪": 1832,
      "##🌧": 1833,
      "##情": 1834,
      "##ä": 1835,
      "##🤍": 1836,
      "##ந": 1837,
      "##К": 1838,
      "##👈": 1839,
      "##💁": 1840,
      "##ā": 1841,
      "##🤰": 1842,
      "##讲": 1843,
      "##自": 1844,
      "##伟": 1845,
      "##🥈": 1846,
      "##🥉": 1847,
      "##😚": 1848,
      "##̨": 1849,
      "##诗": 1850,
      "##D": 1851,
      "##ʻ": 1852,
      "##F": 1853,
      "##錚": 1854,
      "##😞": 1855,
      "##着": 1856,
      "##Æ": 1857,
      "##को": 1858,
      "##्र": 1859,
      "##र्": 1860,
      "##मा": 1861,
      "##का": 1862,
      "##न्": 1863,
      "##ले": 1864,
      "##्य": 1865,
      "##ने": 1866,
      "##ार": 1867,
      "##ाल": 1868,
      "प्र": 1869,
      "##ला": 1870,
      "##ान": 1871,
      "##स्": 1872,
      "##एको": 1873,
      "##ना": 1874,
      "##क्": 1875,
      "##ता": 1876,
      "##ति": 1877,
      "गर": 1878,
      "वि": 1879,
      "##ेको": 1880,
      "##त्र": 1881,
      "##नि": 1882,
      "##म्": 1883,
      "गर्": 1884,
      "##री": 1885,
      "##िय": 1886,
      "का": 1887,
      "##वा": 1888,
      "##लाई": 1889,
      "##ाग": 1890,
      "##नु": 1891,
      "##ित": 1892,
      "##िक": 1893,
      "##्या": 1894,
      "हु": 1895,
      "##हर": 1896,
      "रा": 1897,
      "नि": 1898,
      "##न्द": 1899,
      "ने": 1900,
      "##क्ष": 1901,
      "##ुर": 1902,
      "##ल्": 1903,
      "##था": 1904,
      "##पाल": 1905,
      "सं": 1906,
      "स्": 1907,
      "##ाउ": 1908,
      "##ेश": 1909,
      "दि": 1910,
      "##त्": 1911,
      "##ाट": 1912,
      "पनि": 1913,
      "##ेर": 1914,
      "##ाँ": 1915,
      "##र्य": 1916,
      "##एका": 1917,
      "उन": 1918,
      "##ेका": 1919,
      "सम": 1920,
      "##ष्": 1921,
      "मा": 1922,
      "##यो": 1923,
      "##हि": 1924,
      "सा": 1925,
      "लाग": 1926,
      "छन्": 1927,
      "##िका": 1928,
      "भएको": 1929,
      "##ाम": 1930,
      "##दै": 1931,
      "##बाट": 1932,
      "##न्त्र": 1933,
      "नेपाल": 1934,
      "##दा": 1935,
      "भने": 1936,
      "##क्र": 1937,
      "##ाइ": 1938,
      "हो": 1939,
      "##कार": 1940,
      "##हरु": 1941,
      "##ेख": 1942,
      "##िएको": 1943,
      "##स्त": 1944,
      "##ीय": 1945,
      "##द्": 1946,
      "##रा": 1947,
      "##छि": 1948,
      "गरेको": 1949,
      "##ियो": 1950,
      "रह": 1951,
      "त्य": 1952,
      "निर्": 1953,
      "##पा": 1954,
      "को": 1955,
      "##ष्ट": 1956,
      "कार्य": 1957,
      "##ेल": 1958,
      "##िए": 1959,
      "##रो": 1960,
      "के": 1961,
      "##रि": 1962,
      "बता": 1963,
      "पु": 1964,
      "लागि": 1965,
      "##वि": 1966,
      "##ही": 1967,
      "##र्ष": 1968,
      "##देश": 1969,
      "##ारी": 1970,
      "सम्": 1971,
      "गर्ने": 1972,
      "##हा": 1973,
      "##लो": 1974,
      "एक": 1975,
      "##धान": 1976,
      "पा": 1977,
      "अध": 1978,
      "गर्न": 1979,
      "##नी": 1980,
      "##न्छ": 1981,
      "सर": 1982,
      "प्रति": 1983,
      "##पछि": 1984,
      "##ली": 1985,
      "सु": 1986,
      "##न्त": 1987,
      "##्च": 1988,
      "##ाय": 1989,
      "##्न": 1990,
      "##स्था": 1991,
      "##ालय": 1992,
      "##बार": 1993,
      "थियो": 1994,
      "##ँग": 1995,
      "##हरू": 1996,
      "जना": 1997,
      "व्य": 1998,
      "यस": 1999,
      "##भा": 2000,
      "यो": 2001,
      "क्": 2002,
      "##म्म": 2003,
      "##िस": 2004,
      "तथा": 2005,
      "##ण्": 2006,
      "अनु": 2007,
      "##स्थ": 2008,
      "##क्रम": 2009,
      "उप": 2010,
      "दु": 2011,
      "##रह": 2012,
      "उनले": 2013,
      "आफ": 2014,
      "वर्ष": 2015,
      "##टी": 2016,
      "##पर्": 2017,
      "सरकार": 2018,
      "बढ": 2019,
      "##सँग": 2020,
      "हुने": 2021,
      "##की": 2022,
      "##ंग": 2023,
      "##भि": 2024,
      "##न्त्री": 2025,
      "##िल्": 2026,
      "##जार": 2027,
      "##ुप": 2028,
      "सह": 2029,
      "##ेट": 2030,
      "##ेस": 2031,
      "राज": 2032,
      "##रण": 2033,
      "##द्ध": 2034,
      "##िन": 2035,
      "##ण्ड": 2036,
      "##योग": 2037,
      "##न्द्र": 2038,
      "##कारी": 2039,
      "##ङ्": 2040,
      "मु": 2041,
      "सि": 2042,
      "##टा": 2043,
      "##्रो": 2044,
      "##ेत": 2045,
      "##ेखि": 2046,
      "थिए": 2047,
      "##ाउँ": 2048,
      "##वस्था": 2049,
      "##ष्ट्र": 2050,
      "##क्त": 2051,
      "##नमा": 2052,
      "##सार": 2053,
      "स्थ": 2054,
      "बि": 2055,
      "क्ष": 2056,
      "##ाला": 2057,
      "##र्व": 2058,
      "भए": 2059,
      "लग": 2060,
      "रहेको": 2061,
      "##गर": 2062,
      "##िम": 2063,
      "##्व": 2064,
      "##र्थ": 2065,
      "##ुन": 2066,
      "नै": 2067,
      "कार": 2068,
      "##प्": 2069,
      "बै": 2070,
      "##सा": 2071,
      "गरेका": 2072,
      "त्यस": 2073,
      "##न्न": 2074,
      "तर": 2075,
      "##ौं": 2076,
      "काम": 2077,
      "प्रह": 2078,
      "बना": 2079,
      "##सी": 2080,
      "बताए": 2081,
      "##नुपर्": 2082,
      "##ानी": 2083,
      "##ाख": 2084,
      "हजार": 2085,
      "भएका": 2086,
      "##सम्म": 2087,
      "प्रहरी": 2088,
      "##याँ": 2089,
      "##ामी": 2090,
      "##मन्त्री": 2091,
      "##ास": 2092,
      "पार्": 2093,
      "##िने": 2094,
      "##मु": 2095,
      "##िया": 2096,
      "##द्य": 2097,
      "##धि": 2098,
      "##हिले": 2099,
      "##पालिका": 2100,
      "२०": 2101,
      "विश": 2102,
      "से": 2103,
      "स्थान": 2104,
      "##दी": 2105,
      "गरिएको": 2106,
      "##न्दा": 2107,
      "##ेत्र": 2108,
      "सो": 2109,
      "##न्य": 2110,
      "##ुरु": 2111,
      "##जना": 2112,
      "जन": 2113,
      "##ँदै": 2114,
      "उनी": 2115,
      "रुप": 2116,
      "##प्र": 2117,
      "##नको": 2118,
      "जान": 2119,
      "##न्ध": 2120,
      "##बै": 2121,
      "पू": 2122,
      "क्षेत्र": 2123,
      "##डा": 2124,
      "भन्": 2125,
      "परि": 2126,
      "##म्प": 2127,
      "##्यक्ष": 2128,
      "बा": 2129,
      "##ती": 2130,
      "राष्ट्र": 2131,
      "रो": 2132,
      "पर": 2133,
      "##िल्ला": 2134,
      "##ेला": 2135,
      "##वार": 2136,
      "प्रदेश": 2137,
      "##िति": 2138,
      "##्ने": 2139,
      "जिल्ला": 2140,
      "सबै": 2141,
      "गरे": 2142,
      "##ञ्च": 2143,
      "##र्म": 2144,
      "##माण": 2145,
      "मह": 2146,
      "##ृत": 2147,
      "##चार": 2148,
      "##क्षा": 2149,
      "वा": 2150,
      "##ैन": 2151,
      "##उने": 2152,
      "##रहेको": 2153,
      "##धार": 2154,
      "मात्र": 2155,
      "ती": 2156,
      "गत": 2157,
      "##ोल": 2158,
      "गर्दै": 2159,
      "बु": 2160,
      "##हाँ": 2161,
      "गरी": 2162,
      "भार": 2163,
      "समा": 2164,
      "##ालाई": 2165,
      "##टर": 2166,
      "##म्ब": 2167,
      "दिन": 2168,
      "दुई": 2169,
      "##जा": 2170,
      "पार्टी": 2171,
      "##ंक": 2172,
      "##ाउन": 2173,
      "##्रा": 2174,
      "सक": 2175,
      "प्रा": 2176,
      "राख": 2177,
      "##स्ता": 2178,
      "पुग": 2179,
      "भारत": 2180,
      "अहिले": 2181,
      "नेपाली": 2182,
      "अर्": 2183,
      "जो": 2184,
      "##ेद": 2185,
      "कम": 2186,
      "##्यु": 2187,
      "स्वा": 2188,
      "##ाउने": 2189,
      "महि": 2190,
      "##क्ति": 2191,
      "गरि": 2192,
      "छैन": 2193,
      "##एर": 2194,
      "##हु": 2195,
      "##गा": 2196,
      "समय": 2197,
      "##ुरा": 2198,
      "प्रधान": 2199,
      "कारण": 2200,
      "##र्ण": 2201,
      "##कै": 2202,
      "##भाव": 2203,
      "देख": 2204,
      "##नुपर्ने": 2205,
      "##उन": 2206,
      "##सक": 2207,
      "##मान": 2208,
      "जानकारी": 2209,
      "घर": 2210,
      "##ध्य": 2211,
      "##्रम": 2212,
      "##बी": 2213,
      "##डी": 2214,
      "लाख": 2215,
      "पहि": 2216,
      "##ग्र": 2217,
      "##ाली": 2218,
      "कोरो": 2219,
      "सय": 2220,
      "कोरोना": 2221,
      "खो": 2222,
      "##छन्": 2223,
      "##मुख": 2224,
      "##जी": 2225,
      "भन्ने": 2226,
      "उत्": 2227,
      "था": 2228,
      "##कु": 2229,
      "##घि": 2230,
      "केन्द्र": 2231,
      "महा": 2232,
      "##रु": 2233,
      "##देखि": 2234,
      "नगर": 2235,
      "आफ्न": 2236,
      "##ुट": 2237,
      "कार्यालय": 2238,
      "##िव": 2239,
      "##या": 2240,
      "##ोक": 2241,
      "निर्माण": 2242,
      "##ठमा": 2243,
      "अध्यक्ष": 2244,
      "व्यवस्था": 2245,
      "हुन्": 2246,
      "अस्": 2247,
      "केही": 2248,
      "##तिक": 2249,
      "##निक": 2250,
      "हुन": 2251,
      "##र्फ": 2252,
      "##टक": 2253,
      "##ाह": 2254,
      "##पुर": 2255,
      "लि": 2256,
      "##पत": 2257,
      "##्ञ": 2258,
      "सरकारले": 2259,
      "सद": 2260,
      "अव": 2261,
      "काठमा": 2262,
      "स्थानीय": 2263,
      "अनुसार": 2264,
      "##स्य": 2265,
      "##र्ता": 2266,
      "खेल": 2267,
      "##ेक": 2268,
      "##ेन्": 2269,
      "##ठक": 2270,
      "##जन": 2271,
      "हामी": 2272,
      "प्रधानमन्त्री": 2273,
      "मि": 2274,
      "गाउँ": 2275,
      "स्व": 2276,
      "##भन्दा": 2277,
      "मन्त्र": 2278,
      "पर्": 2279,
      "भइ": 2280,
      "निय": 2281,
      "##ँदा": 2282,
      "सञ्च": 2283,
      "##त्व": 2284,
      "##स्थ्य": 2285,
      "कि": 2286,
      "देश": 2287,
      "##कास": 2288,
      "अधिका": 2289,
      "##पी": 2290,
      "##गत": 2291,
      "##बन्ध": 2292,
      "##फल": 2293,
      "##स्तो": 2294,
      "काठमाड": 2295,
      "नेता": 2296,
      "बैठक": 2297,
      "##ोर": 2298,
      "प्रमुख": 2299,
      "##सि": 2300,
      "कार्यक्रम": 2301,
      "अवस्था": 2302,
      "हुन्छ": 2303,
      "##ामा": 2304,
      "##हित": 2305,
      "सक्": 2306,
      "अन्त": 2307,
      "##ष्ठ": 2308,
      "या": 2309,
      "##सम": 2310,
      "संक्रम": 2311,
      "##स्तै": 2312,
      "आफ्नो": 2313,
      "##भाग": 2314,
      "आयो": 2315,
      "स्वास्थ्य": 2316,
      "समिति": 2317,
      "##क्षण": 2318,
      "##सद": 2319,
      "प्रश": 2320,
      "कुन": 2321,
      "निर्वा": 2322,
      "विष": 2323,
      "##न्दै": 2324,
      "##ूल": 2325,
      "##रमा": 2326,
      "दिए": 2327,
      "हि": 2328,
      "##र्च": 2329,
      "अस्पत": 2330,
      "आइ": 2331,
      "तय": 2332,
      "अस्पताल": 2333,
      "श्र": 2334,
      "यु": 2335,
      "कुरा": 2336,
      "##रिक": 2337,
      "पो": 2338,
      "जा": 2339,
      "##नुभ": 2340,
      "मान": 2341,
      "समेत": 2342,
      "विकास": 2343,
      "बज": 2344,
      "##्यान": 2345,
      "रहेका": 2346,
      "##र्क": 2347,
      "##पू": 2348,
      "##ेरै": 2349,
      "##मै": 2350,
      "निर्ण": 2351,
      "##वास": 2352,
      "ल्या": 2353,
      "सदस्य": 2354,
      "##ुल": 2355,
      "आव": 2356,
      "##पति": 2357,
      "##दान": 2358,
      "##ायत": 2359,
      "बो": 2360,
      "देखि": 2361,
      "साथ": 2362,
      "गरेर": 2363,
      "आएको": 2364,
      "##बा": 2365,
      "##्रेस": 2366,
      "##डि": 2367,
      "##हरुले": 2368,
      "निर्वाच": 2369,
      "विषय": 2370,
      "गु": 2371,
      "##ब्": 2372,
      "१०": 2373,
      "तीन": 2374,
      "विश्व": 2375,
      "##्यो": 2376,
      "##दुर": 2377,
      "ओली": 2378,
      "##ीमा": 2379,
      "##ौँ": 2380,
      "##िल": 2381,
      "##सो": 2382,
      "निर्णय": 2383,
      "धेरै": 2384,
      "##ाँच": 2385,
      "आज": 2386,
      "मन्त्रालय": 2387,
      "दल": 2388,
      "कुनै": 2389,
      "##वन": 2390,
      "मृत": 2391,
      "भन्दै": 2392,
      "नयाँ": 2393,
      "##ज्ञ": 2394,
      "नभ": 2395,
      "##पमा": 2396,
      "##यन": 2397,
      "##च्च": 2398,
      "##उँ": 2399,
      "सञ्चाल": 2400,
      "##शत": 2401,
      "मो": 2402,
      "पहिलो": 2403,
      "बढी": 2404,
      "##मेर": 2405,
      "जनाएको": 2406,
      "राम": 2407,
      "रू": 2408,
      "घट": 2409,
      "##ुक": 2410,
      "##ैले": 2411,
      "काठमाडौं": 2412,
      "सङ्": 2413,
      "##इएको": 2414,
      "शि": 2415,
      "##लमा": 2416,
      "##स्ट": 2417,
      "##माले": 2418,
      "दो": 2419,
      "##राज": 2420,
      "##डक": 2421,
      "राष्ट्रिय": 2422,
      "सुरु": 2423,
      "##स्या": 2424,
      "खु": 2425,
      "सुर": 2426,
      "##श्य": 2427,
      "प्रतिशत": 2428,
      "आफू": 2429,
      "कम्प": 2430,
      "##िट": 2431,
      "##थि": 2432,
      "उनको": 2433,
      "##ेव": 2434,
      "##हादुर": 2435,
      "##प्त": 2436,
      "नगरपालिका": 2437,
      "##िर": 2438,
      "##वादी": 2439,
      "थप": 2440,
      "##ताको": 2441,
      "##ैयाँ": 2442,
      "##रोड": 2443,
      "##धन": 2444,
      "समस्या": 2445,
      "रुपमा": 2446,
      "करोड": 2447,
      "##िङ": 2448,
      "##ेन": 2449,
      "पार": 2450,
      "##ख्या": 2451,
      "विद्य": 2452,
      "##वस": 2453,
      "हा": 2454,
      "सडक": 2455,
      "सेवा": 2456,
      "##लग": 2457,
      "प्रव": 2458,
      "पछि": 2459,
      "##कृ": 2460,
      "कम्पनी": 2461,
      "##ेड": 2462,
      "##हरुको": 2463,
      "भू": 2464,
      "##यर": 2465,
      "सामा": 2466,
      "माग": 2467,
      "बस": 2468,
      "##भिन्न": 2469,
      "संघ": 2470,
      "रुपैयाँ": 2471,
      "##रहेका": 2472,
      "##ंग्रेस": 2473,
      "##बहादुर": 2474,
      "##णा": 2475,
      "मृत्यु": 2476,
      "अन्य": 2477,
      "##ोग": 2478,
      "कांग्रेस": 2479,
      "##श्यक": 2480,
      "##नामा": 2481,
      "##ुक्त": 2482,
      "##अघि": 2483,
      "बैंक": 2484,
      "##मि": 2485,
      "##चिव": 2486,
      "शु": 2487,
      "##रको": 2488,
      "विभिन्न": 2489,
      "##सहित": 2490,
      "परी": 2491,
      "दिएको": 2492,
      "##जिक": 2493,
      "##ट्": 2494,
      "बस्": 2495,
      "गते": 2496,
      "व्यक्ति": 2497,
      "चि": 2498,
      "##ाएको": 2499,
      "##ग्": 2500,
      "राजनी": 2501,
      "महिला": 2502,
      "##धा": 2503,
      "उक्त": 2504,
      "##पन": 2505,
      "प्रयोग": 2506,
      "डा": 2507,
      "##र्ग": 2508,
      "गर्दा": 2509,
      "##स्थित": 2510,
      "अब": 2511,
      "गाउँपालिका": 2512,
      "##ोली": 2513,
      "##ोट": 2514,
      "खा": 2515,
      "##िप": 2516,
      "##सँगै": 2517,
      "##भित्र": 2518,
      "##इन": 2519,
      "भि": 2520,
      "##त्त": 2521,
      "पर्य": 2522,
      "आयोजना": 2523,
      "दा": 2524,
      "१९": 2525,
      "नाग": 2526,
      "##ूह": 2527,
      "सम्बन्ध": 2528,
      "अप": 2529,
      "क्रम": 2530,
      "रु": 2531,
      "##ञ्": 2532,
      "दिने": 2533,
      "##बीच": 2534,
      "##न्स": 2535,
      "##त्य": 2536,
      "##र्श": 2537,
      "मत": 2538,
      "सहयोग": 2539,
      "हुँदै": 2540,
      "##न्ति": 2541,
      "##वाद": 2542,
      "कस": 2543,
      "##हान": 2544,
      "##ीले": 2545,
      "पूर्व": 2546,
      "##करण": 2547,
      "हाल": 2548,
      "##र्थिक": 2549,
      "सू": 2550,
      "मुख": 2551,
      "आर्थिक": 2552,
      "##न्ड": 2553,
      "##श्च": 2554,
      "उल्": 2555,
      "पुन": 2556,
      "##लि": 2557,
      "नेक": 2558,
      "बाल": 2559,
      "##ाना": 2560,
      "कृ": 2561,
      "अमेर": 2562,
      "कु": 2563,
      "बाँ": 2564,
      "उपचार": 2565,
      "##चना": 2566,
      "##तृ": 2567,
      "##हरूले": 2568,
      "नेकपा": 2569,
      "##र्त": 2570,
      "बेला": 2571,
      "नाम": 2572,
      "##लेख": 2573,
      "एमाले": 2574,
      "##लेको": 2575,
      "##काल": 2576,
      "आवश्यक": 2577,
      "पत्र": 2578,
      "##ीको": 2579,
      "नागरिक": 2580,
      "##वसाय": 2581,
      "तह": 2582,
      "##सं": 2583,
      "निर्देश": 2584,
      "एउ": 2585,
      "त्यो": 2586,
      "##पाद": 2587,
      "##विधान": 2588,
      "ना": 2589,
      "सार्व": 2590,
      "##ड्": 2591,
      "क्षेत्रमा": 2592,
      "संविधान": 2593,
      "सभा": 2594,
      "अधिकारी": 2595,
      "##रुद्ध": 2596,
      "पक्ष": 2597,
      "आधार": 2598,
      "##ित्": 2599,
      "समूह": 2600,
      "##सकेको": 2601,
      "##नाइ": 2602,
      "##ेन्द्र": 2603,
      "ठू": 2604,
      "व्या": 2605,
      "##नका": 2606,
      "##ङ्ग": 2607,
      "##नुपर्छ": 2608,
      "##पूर्ण": 2609,
      "##र्ड": 2610,
      "पाँच": 2611,
      "जि": 2612,
      "भा": 2613,
      "##कम": 2614,
      "छल": 2615,
      "##ेन्ट": 2616,
      "मन्त्री": 2617,
      "##ध्ये": 2618,
      "सार्वज": 2619,
      "संक्रमण": 2620,
      "##धिक": 2621,
      "छलफल": 2622,
      "##क्षक": 2623,
      "मूल": 2624,
      "##ीर": 2625,
      "##्छ": 2626,
      "सार्वजनिक": 2627,
      "##नुभयो": 2628,
      "##गरी": 2629,
      "मात्रै": 2630,
      "##मार": 2631,
      "आएका": 2632,
      "अस": 2633,
      "##तामा": 2634,
      "##वै": 2635,
      "##समेत": 2636,
      "चौ": 2637,
      "जारी": 2638,
      "##बारे": 2639,
      "जी": 2640,
      "मन": 2641,
      "##द्या": 2642,
      "##हरुलाई": 2643,
      "बने": 2644,
      "##अनु": 2645,
      "टोली": 2646,
      "उहाँ": 2647,
      "##दि": 2648,
      "सां": 2649,
      "भयो": 2650,
      "नेतृ": 2651,
      "चार": 2652,
      "##ेष्ठ": 2653,
      "मुख्य": 2654,
      "बे": 2655,
      "निका": 2656,
      "प्रहरीले": 2657,
      "##तमा": 2658,
      "स्था": 2659,
      "##ुवा": 2660,
      "मुल": 2661,
      "##नले": 2662,
      "##ोष": 2663,
      "पोख": 2664,
      "अभ": 2665,
      "##रस": 2666,
      "सर्व": 2667,
      "रूपमा": 2668,
      "##भर": 2669,
      "##ञ्ज": 2670,
      "##िज": 2671,
      "##मति": 2672,
      "चु": 2673,
      "##न्व": 2674,
      "भनेर": 2675,
      "##तन्त्र": 2676,
      "जित": 2677,
      "नेतृत्व": 2678,
      "कर्म": 2679,
      "##त्म": 2680,
      "भइरहेको": 2681,
      "##ृद्ध": 2682,
      "गर्नु": 2683,
      "प्रभाव": 2684,
      "छो": 2685,
      "##स्रो": 2686,
      "हे": 2687,
      "बताएका": 2688,
      "भेट": 2689,
      "##ारा": 2690,
      "##पत्र": 2691,
      "वै": 2692,
      "अघि": 2693,
      "##र्ट": 2694,
      "१५": 2695,
      "उद्य": 2696,
      "पटक": 2697,
      "उल्लेख": 2698,
      "##चारी": 2699,
      "गो": 2700,
      "वडा": 2701,
      "##क्ता": 2702,
      "##क्स": 2703,
      "##धी": 2704,
      "##हरूको": 2705,
      "योजना": 2706,
      "##ेपछि": 2707,
      "जस": 2708,
      "##ेष": 2709,
      "कान": 2710,
      "प्रतिनि": 2711,
      "वर्षीय": 2712,
      "क्रममा": 2713,
      "भनि": 2714,
      "१२": 2715,
      "सम्प": 2716,
      "बजार": 2717,
      "११": 2718,
      "व्यवसाय": 2719,
      "गा": 2720,
      "लेख": 2721,
      "अद": 2722,
      "##अनुसार": 2723,
      "उत्पाद": 2724,
      "##सक्": 2725,
      "निर्वाचन": 2726,
      "शा": 2727,
      "हाम": 2728,
      "##िएका": 2729,
      "क्र": 2730,
      "कर्मचारी": 2731,
      "सुरक्षा": 2732,
      "##जु": 2733,
      "दोस्रो": 2734,
      "विषयमा": 2735,
      "एउटा": 2736,
      "##िएर": 2737,
      "ची": 2738,
      "पर्ने": 2739,
      "महिना": 2740,
      "आयोग": 2741,
      "##शी": 2742,
      "२०७": 2743,
      "वटा": 2744,
      "##कल": 2745,
      "श्रेष्ठ": 2746,
      "##र्न": 2747,
      "पाइ": 2748,
      "दश": 2749,
      "बुझ": 2750,
      "भाइ": 2751,
      "विक": 2752,
      "समाज": 2753,
      "गोल": 2754,
      "अवस्थामा": 2755,
      "पठ": 2756,
      "पक्र": 2757,
      "संस्था": 2758,
      "अन्तर": 2759,
      "##त्या": 2760,
      "राजनीतिक": 2761,
      "अदाल": 2762,
      "निक": 2763,
      "##ल्लो": 2764,
      "##क्रिया": 2765,
      "तयारी": 2766,
      "आग": 2767,
      "शर्": 2768,
      "मुलुक": 2769,
      "##तर्फ": 2770,
      "बन्द": 2771,
      "सचिव": 2772,
      "विद्या": 2773,
      "संसद": 2774,
      "पक्राउ": 2775,
      "##स्क": 2776,
      "ले": 2777,
      "##वी": 2778,
      "सम्झ": 2779,
      "##चा": 2780,
      "##पना": 2781,
      "सञ्चालन": 2782,
      "सांसद": 2783,
      "##उँदै": 2784,
      "##माथि": 2785,
      "तत्": 2786,
      "भएपछि": 2787,
      "गठ": 2788,
      "सन्": 2789,
      "लागेको": 2790,
      "चा": 2791,
      "पुगेको": 2792,
      "छा": 2793,
      "##ग्रह": 2794,
      "सहभाग": 2795,
      "##ओवादी": 2796,
      "जोड": 2797,
      "##्वास": 2798,
      "उद्योग": 2799,
      "##रोध": 2800,
      "सम्म": 2801,
      "##वेद": 2802,
      "अनुस": 2803,
      "भएकाले": 2804,
      "लगानी": 2805,
      "नेपालमा": 2806,
      "विदेश": 2807,
      "##हो": 2808,
      "खे": 2809,
      "##प्रति": 2810,
      "##स्तु": 2811,
      "परेको": 2812,
      "थापा": 2813,
      "##स्ताव": 2814,
      "सक्ने": 2815,
      "मे": 2816,
      "##एपछि": 2817,
      "बाट": 2818,
      "५०": 2819,
      "पौ": 2820,
      "हामीले": 2821,
      "अनि": 2822,
      "नहु": 2823,
      "ला": 2824,
      "संक्रमित": 2825,
      "हुँदा": 2826,
      "आरो": 2827,
      "##त्ता": 2828,
      "परीक्षण": 2829,
      "बजेट": 2830,
      "गर्नुपर्ने": 2831,
      "अगा": 2832,
      "##दाय": 2833,
      "साम": 2834,
      "##इन्": 2835,
      "देखिएको": 2836,
      "##ष्टि": 2837,
      "रकम": 2838,
      "संख्या": 2839,
      "नेपालको": 2840,
      "##न्धान": 2841,
      "##वारी": 2842,
      "##डेल": 2843,
      "##साद": 2844,
      "##काश": 2845,
      "##र्ने": 2846,
      "##म्भ": 2847,
      "##्दै": 2848,
      "ठाउँ": 2849,
      "नियन्त्र": 2850,
      "विभाग": 2851,
      "केन्द्रीय": 2852,
      "##ेज": 2853,
      "अनुसन्धान": 2854,
      "ठूलो": 2855,
      "इन्": 2856,
      "राष्ट्रपति": 2857,
      "विज्ञ": 2858,
      "भनाइ": 2859,
      "पद": 2860,
      "##लगायत": 2861,
      "ट्र": 2862,
      "##हार": 2863,
      "महान": 2864,
      "खर्च": 2865,
      "##कि": 2866,
      "##ेउ": 2867,
      "यस्तो": 2868,
      "बनाउन": 2869,
      "घटना": 2870,
      "उपा": 2871,
      "लगा": 2872,
      "प्रस्ताव": 2873,
      "होइन": 2874,
      "दिएका": 2875,
      "गएको": 2876,
      "विद्यालय": 2877,
      "लोक": 2878,
      "अभि": 2879,
      "भन्दा": 2880,
      "##मी": 2881,
      "##तको": 2882,
      "माओवादी": 2883,
      "##तले": 2884,
      "##टन": 2885,
      "परिवार": 2886,
      "##ोधन": 2887,
      "करि": 2888,
      "आउने": 2889,
      "नियन्त्रण": 2890,
      "##खा": 2891,
      "अर्को": 2892,
      "कति": 2893,
      "##मध्ये": 2894,
      "लक्ष": 2895,
      "##पु": 2896,
      "##सभा": 2897,
      "##लको": 2898,
      "त्र": 2899,
      "##र्स": 2900,
      "##न्छन्": 2901,
      "अफ": 2902,
      "विशेष": 2903,
      "खोज": 2904,
      "घोष": 2905,
      "##र्वा": 2906,
      "##्री": 2907,
      "##ष्ण": 2908,
      "अर्थ": 2909,
      "पानी": 2910,
      "##मो": 2911,
      "##र्फत": 2912,
      "##वरण": 2913,
      "सामाजिक": 2914,
      "##ट्ट": 2915,
      "अर्ब": 2916,
      "पछिल्लो": 2917,
      "##युक्त": 2918,
      "नी": 2919,
      "भएर": 2920,
      "##जग": 2921,
      "##दर्श": 2922,
      "फर्क": 2923,
      "प्राप्त": 2924,
      "##वेश": 2925,
      "##्यू": 2926,
      "भारतीय": 2927,
      "संर": 2928,
      "पुर": 2929,
      "पी": 2930,
      "##ेमा": 2931,
      "उठ": 2932,
      "यहाँ": 2933,
      "मूल्य": 2934,
      "##यक": 2935,
      "##म्बर": 2936,
      "अगाडि": 2937,
      "खेला": 2938,
      "##ैं": 2939,
      "खेलमा": 2940,
      "##पर": 2941,
      "नग": 2942,
      "उपल": 2943,
      "न्या": 2944,
      "किन": 2945,
      "##ंह": 2946,
      "बनाउने": 2947,
      "##ालले": 2948,
      "##त्ति": 2949,
      "त्यस्तै": 2950,
      "लाम": 2951,
      "अध्य": 2952,
      "मौ": 2953,
      "##लब": 2954,
      "हर": 2955,
      "मानिस": 2956,
      "##टमा": 2957,
      "हाम्रो": 2958,
      "##ालिका": 2959,
      "##मित": 2960,
      "अझ": 2961,
      "भाइरस": 2962,
      "जाने": 2963,
      "स्थानमा": 2964,
      "विद्यार्थ": 2965,
      "बाहि": 2966,
      "##क्रमण": 2967,
      "१४": 2968,
      "##कुमार": 2969,
      "गरिने": 2970,
      "बस्ने": 2971,
      "##िसक": 2972,
      "सोम": 2973,
      "यस्तै": 2974,
      "२५": 2975,
      "ति": 2976,
      "##भिड": 2977,
      "जनाको": 2978,
      "सरकारको": 2979,
      "प्रच": 2980,
      "##नाव": 2981,
      "स्प": 2982,
      "##ेरो": 2983,
      "राज्य": 2984,
      "कृष": 2985,
      "##न्ट": 2986,
      "##यी": 2987,
      "मुद्": 2988,
      "##बर": 2989,
      "अमेरिका": 2990,
      "समयमा": 2991,
      "उच्च": 2992,
      "पौडेल": 2993,
      "बिहान": 2994,
      "उपलब्": 2995,
      "##ाइन": 2996,
      "##ष्ट्रिय": 2997,
      "लगायत": 2998,
      "##विधि": 2999,
      "तयार": 3000,
      "जे": 3001,
      "साथै": 3002,
      "खेलाडी": 3003,
      "##फा": 3004,
      "घोषणा": 3005,
      "##पनि": 3006,
      "##धिका": 3007,
      "##मारी": 3008,
      "१३": 3009,
      "क्या": 3010,
      "कोभिड": 3011,
      "बार": 3012,
      "देउ": 3013,
      "##तिमा": 3014,
      "##प्रसाद": 3015,
      "बी": 3016,
      "आग्रह": 3017,
      "##ृद्धि": 3018,
      "राम्रो": 3019,
      "एव": 3020,
      "ओलीले": 3021,
      "##िता": 3022,
      "##झा": 3023,
      "किस": 3024,
      "##टै": 3025,
      "उत्पादन": 3026,
      "##सु": 3027,
      "व्याप": 3028,
      "##विरुद्ध": 3029,
      "##गम": 3030,
      "##ल्या": 3031,
      "##चि": 3032,
      "##न्दोल": 3033,
      "व्यवस्थापन": 3034,
      "३०": 3035,
      "यसअघि": 3036,
      "##पक्ष": 3037,
      "##ैनिक": 3038,
      "##िन्छ": 3039,
      "##ाल्": 3040,
      "नभएको": 3041,
      "शर्मा": 3042,
      "शुक्र": 3043,
      "परेका": 3044,
      "सी": 3045,
      "##त्मक": 3046,
      "अभिय": 3047,
      "अन": 3048,
      "हुनु": 3049,
      "स्ट": 3050,
      "मुद्दा": 3051,
      "##काली": 3052,
      "यात्र": 3053,
      "सम्पन्न": 3054,
      "##ध्यक्ष": 3055,
      "##तम": 3056,
      "सहमति": 3057,
      "##राई": 3058,
      "##कर्ता": 3059,
      "##ल्ला": 3060,
      "कार्यक्रममा": 3061,
      "पै": 3062,
      "प्रशास": 3063,
      "##ल्ने": 3064,
      "##र्गत": 3065,
      "उम्म": 3066,
      "##रत": 3067,
      "##बल": 3068,
      "बुध": 3069,
      "##हरूलाई": 3070,
      "आइत": 3071,
      "पत्रकार": 3072,
      "##ाको": 3073,
      "दुवै": 3074,
      "##र्ज": 3075,
      "##ंगल": 3076,
      "##व्य": 3077,
      "नीति": 3078,
      "गौ": 3079,
      "यी": 3080,
      "फै": 3081,
      "आन्दोल": 3082,
      "चाह": 3083,
      "भाग": 3084,
      "##शाख": 3085,
      "##दैन": 3086,
      "##उँछन्": 3087,
      "सम्झौ": 3088,
      "सफल": 3089,
      "डि": 3090,
      "करिब": 3091,
      "##ङ्क": 3092,
      "चाल": 3093,
      "सरकारी": 3094,
      "शिक्षा": 3095,
      "कार्या": 3096,
      "खोप": 3097,
      "हुनेछ": 3098,
      "संग": 3099,
      "बल": 3100,
      "##दो": 3101,
      "दुर्": 3102,
      "चल": 3103,
      "भट्ट": 3104,
      "त्यहाँ": 3105,
      "##ंश": 3106,
      "##ीत": 3107,
      "##समा": 3108,
      "##ाइएको": 3109,
      "नेपालले": 3110,
      "##ृह": 3111,
      "आधारमा": 3112,
      "##डान": 3113,
      "१६": 3114,
      "अध्ययन": 3115,
      "##जि": 3116,
      "एस": 3117,
      "##रू": 3118,
      "##कर्म": 3119,
      "##लव": 3120,
      "फिल्": 3121,
      "गर्छ": 3122,
      "उनलाई": 3123,
      "##ेकी": 3124,
      "##न्ने": 3125,
      "प्रक्रिया": 3126,
      "सबैभन्दा": 3127,
      "##धारण": 3128,
      "##मिक": 3129,
      "बैठकमा": 3130,
      "##जक": 3131,
      "आश": 3132,
      "बढेको": 3133,
      "##पाई": 3134,
      "२४": 3135,
      "जनता": 3136,
      "##तरण": 3137,
      "कार्यान्व": 3138,
      "##सले": 3139,
      "उम्मेद": 3140,
      "यही": 3141,
      "##रामी": 3142,
      "##ाले": 3143,
      "रोक": 3144,
      "प्रचण्ड": 3145,
      "सात": 3146,
      "##ढी": 3147,
      "##श्चिम": 3148,
      "##थ्यो": 3149,
      "पढ": 3150,
      "१८": 3151,
      "भित्र": 3152,
      "मैले": 3153,
      "अवस": 3154,
      "##बु": 3155,
      "विज": 3156,
      "फि": 3157,
      "##ारमा": 3158,
      "ब्या": 3159,
      "##िभ": 3160,
      "निर्देशन": 3161,
      "चरण": 3162,
      "उपलब्ध": 3163,
      "विद्यु": 3164,
      "लिएर": 3165,
      "सहभागी": 3166,
      "##रले": 3167,
      "छुट": 3168,
      "समु": 3169,
      "##िटी": 3170,
      "याद": 3171,
      "##कृति": 3172,
      "सूचना": 3173,
      "सोमबार": 3174,
      "ता": 3175,
      "श्री": 3176,
      "यसै": 3177,
      "विवाद": 3178,
      "##लेका": 3179,
      "##दार": 3180,
      "सीमा": 3181,
      "##दू": 3182,
      "आइतबार": 3183,
      "##ग्गा": 3184,
      "सम्भाव": 3185,
      "##लाइ": 3186,
      "##वल": 3187,
      "##नुभएको": 3188,
      "बाँकी": 3189,
      "##पटक": 3190,
      "दर्ता": 3191,
      "दाह": 3192,
      "मध": 3193,
      "उद्": 3194,
      "##कर्ष": 3195,
      "२०१": 3196,
      "दाबी": 3197,
      "अन्तर्रा": 3198,
      "##ुरुष": 3199,
      "निर": 3200,
      "लामो": 3201,
      "शनि": 3202,
      "##कमा": 3203,
      "युवा": 3204,
      "उनका": 3205,
      "##दर": 3206,
      "आरोप": 3207,
      "केपी": 3208,
      "तपाई": 3209,
      "##वेदन": 3210,
      "##सको": 3211,
      "मन्त्रालयले": 3212,
      "##घट": 3213,
      "##वाह": 3214,
      "प्रकाश": 3215,
      "फर": 3216,
      "विश्वास": 3217,
      "प्रतियोग": 3218,
      "गुरु": 3219,
      "शुक्रबार": 3220,
      "विद्यार्थी": 3221,
      "यसको": 3222,
      "पूर्ण": 3223,
      "सवारी": 3224,
      "पुरुष": 3225,
      "बाहिर": 3226,
      "मंगल": 3227,
      "अभियान": 3228,
      "बुधबार": 3229,
      "अधिक": 3230,
      "ग्र": 3231,
      "अन्तर्राष्ट्रिय": 3232,
      "निकै": 3233,
      "##ते": 3234,
      "ध्यान": 3235,
      "अन्ति": 3236,
      "##यात": 3237,
      "##ाटन": 3238,
      "डे": 3239,
      "बिही": 3240,
      "##तिर": 3241,
      "##हरुमा": 3242,
      "आगामी": 3243,
      "फिल्म": 3244,
      "गरिरहेको": 3245,
      "अन्तिम": 3246,
      "सभापति": 3247,
      "साल": 3248,
      "ज्ञ": 3249,
      "भण्ड": 3250,
      "##यम": 3251,
      "जग्गा": 3252,
      "प्रदर्श": 3253,
      "योग": 3254,
      "वितरण": 3255,
      "प्रतिनिध": 3256,
      "पुर्य": 3257,
      "भ्रम": 3258,
      "##से": 3259,
      "बनेको": 3260,
      "पाउने": 3261,
      "##र्ति": 3262,
      "रे": 3263,
      "कै": 3264,
      "कृषि": 3265,
      "एवं": 3266,
      "##वर्त": 3267,
      "वर्षको": 3268,
      "फो": 3269,
      "अस्पतालमा": 3270,
      "##ीका": 3271,
      "निकाय": 3272,
      "यादव": 3273,
      "रोजग": 3274,
      "##र्जा": 3275,
      "विमान": 3276,
      "##िकी": 3277,
      "बिरामी": 3278,
      "पूरा": 3279,
      "दू": 3280,
      "विस्त": 3281,
      "##ल्क": 3282,
      "सम्झौता": 3283,
      "पदा": 3284,
      "विध": 3285,
      "प्रवक्ता": 3286,
      "##सन": 3287,
      "लिन": 3288,
      "त्यही": 3289,
      "प्रय": 3290,
      "##ल्न": 3291,
      "प्रश्न": 3292,
      "मेरो": 3293,
      "##तर": 3294,
      "सामान्य": 3295,
      "तत्काल": 3296,
      "१७": 3297,
      "संघीय": 3298,
      "अझै": 3299,
      "आउ": 3300,
      "चला": 3301,
      "सन्द": 3302,
      "मिने": 3303,
      "नम्बर": 3304,
      "##लेर": 3305,
      "मै": 3306,
      "##्ना": 3307,
      "##सक्ने": 3308,
      "##कालीन": 3309,
      "फुट": 3310,
      "बताउँछन्": 3311,
      "देउवा": 3312,
      "##कको": 3313,
      "##छा": 3314,
      "शे": 3315,
      "##ीक": 3316,
      "दक्ष": 3317,
      "जीवन": 3318,
      "सेना": 3319,
      "जोख": 3320,
      "नद": 3321,
      "##तो": 3322,
      "सिंह": 3323,
      "##तार": 3324,
      "बाटो": 3325,
      "सकिने": 3326,
      "जिम्म": 3327,
      "लु": 3328,
      "बिक": 3329,
      "चुनाव": 3330,
      "##न्धी": 3331,
      "स्रो": 3332,
      "##षद्": 3333,
      "##ैँ": 3334,
      "प्रवेश": 3335,
      "शुरु": 3336,
      "रहने": 3337,
      "कर": 3338,
      "जु": 3339,
      "कारो": 3340,
      "##ोरी": 3341,
      "##ायण": 3342,
      "पुष्टि": 3343,
      "कार्": 3344,
      "जिल्लामा": 3345,
      "##ानको": 3346,
      "##मिका": 3347,
      "त्यसैले": 3348,
      "##भव": 3349,
      "गरेपछि": 3350,
      "##ारायण": 3351,
      "##चाल": 3352,
      "##च्छ": 3353,
      "सक्छ": 3354,
      "नहुने": 3355,
      "जोखिम": 3356,
      "##ियन": 3357,
      "पर्यटक": 3358,
      "अधिकार": 3359,
      "बताउ": 3360,
      "बैठकले": 3361,
      "त्यसको": 3362,
      "तथ": 3363,
      "घण्": 3364,
      "भनेको": 3365,
      "##लले": 3366,
      "बिहीबार": 3367,
      "परिवर्त": 3368,
      "##्दा": 3369,
      "##ुंग": 3370,
      "लिएको": 3371,
      "##क्का": 3372,
      "जुन": 3373,
      "रोग": 3374,
      "सोही": 3375,
      "दी": 3376,
      "##िण": 3377,
      "कसरी": 3378,
      "##देव": 3379,
      "अहिलेसम्म": 3380,
      "पराज": 3381,
      "##्युनि": 3382,
      "महानगर": 3383,
      "छन": 3384,
      "##आर": 3385,
      "गरा": 3386,
      "दैनिक": 3387,
      "छैनन्": 3388,
      "##चित्र": 3389,
      "##न्तर": 3390,
      "##ल्प": 3391,
      "फेर": 3392,
      "शनिबार": 3393,
      "खरि": 3394,
      "##िन्": 3395,
      "सहज": 3396,
      "सर्वो": 3397,
      "क्लब": 3398,
      "पैसा": 3399,
      "गण": 3400,
      "##पानी": 3401,
      "२१": 3402,
      "स्थापना": 3403,
      "मंगलबार": 3404,
      "##ग्री": 3405,
      "##ाउँदै": 3406,
      "त्यसपछि": 3407,
      "अंक": 3408,
      "##राब": 3409,
      "##लु": 3410,
      "अमेरिकी": 3411,
      "##सिक": 3412,
      "रन": 3413,
      "आफ्ना": 3414,
      "शक्ति": 3415,
      "##वासी": 3416,
      "##्नु": 3417,
      "##कड": 3418,
      "भण्डारी": 3419,
      "गृह": 3420,
      "प्रयास": 3421,
      "##रेल": 3422,
      "##म्मा": 3423,
      "भ्रमण": 3424,
      "महत्व": 3425,
      "बजे": 3426,
      "सुन": 3427,
      "४०": 3428,
      "तेस": 3429,
      "छौं": 3430,
      "##ध्यम": 3431,
      "संश": 3432,
      "घाइ": 3433,
      "##विद्य": 3434,
      "उहाँले": 3435,
      "खरिद": 3436,
      "महाधि": 3437,
      "ठाउँमा": 3438,
      "बनाएको": 3439,
      "##ेले": 3440,
      "##िएपछि": 3441,
      "म्या": 3442,
      "गति": 3443,
      "##पक": 3444,
      "कम्युनि": 3445,
      "##सचिव": 3446,
      "थिएन": 3447,
      "##म्बन्धी": 3448,
      "सम्ब": 3449,
      "कमिटी": 3450,
      "दुर्घट": 3451,
      "तेस्रो": 3452,
      "कानुन": 3453,
      "अरु": 3454,
      "##ेता": 3455,
      "##्वर": 3456,
      "##शु": 3457,
      "महामारी": 3458,
      "मलाई": 3459,
      "##पद": 3460,
      "देव": 3461,
      "##ानो": 3462,
      "गरिरहेका": 3463,
      "तोक": 3464,
      "रि": 3465,
      "##बाही": 3466,
      "महाधिवेश": 3467,
      "घण्टा": 3468,
      "##ेयक": 3469,
      "##जित": 3470,
      "##र्जन": 3471,
      "प्रदान": 3472,
      "##रीक्षक": 3473,
      "थि": 3474,
      "क्षति": 3475,
      "##मती": 3476,
      "२२": 3477,
      "##िकेट": 3478,
      "सकिन्छ": 3479,
      "चीन": 3480,
      "##नाथ": 3481,
      "कायम": 3482,
      "चलचित्र": 3483,
      "##स्त्र": 3484,
      "खाने": 3485,
      "पुनः": 3486,
      "सम्भावना": 3487,
      "त्यसै": 3488,
      "##क्टर": 3489,
      "ताल": 3490,
      "केसी": 3491,
      "भूमिका": 3492,
      "सर्वोच्च": 3493,
      "साँ": 3494,
      "विधेयक": 3495,
      "प्रण": 3496,
      "##रुप": 3497,
      "##धीश": 3498,
      "##ामु": 3499,
      "निजी": 3500,
      "लक्ष्य": 3501,
      "न्यू": 3502,
      "##डित": 3503,
      "##शील": 3504,
      "##ाका": 3505,
      "पर्यटन": 3506,
      "लिग": 3507,
      "##कलन": 3508,
      "अधिकृत": 3509,
      "चिक": 3510,
      "दक्षिण": 3511,
      "विकेट": 3512,
      "##स्व": 3513,
      "गठन": 3514,
      "घाइते": 3515,
      "समुदाय": 3516,
      "##ोज": 3517,
      "संस्": 3518,
      "टे": 3519,
      "नं": 3520,
      "##स्थल": 3521,
      "टिम": 3522,
      "##ताका": 3523,
      "##ोर्ट": 3524,
      "पार्टीको": 3525,
      "अवधि": 3526,
      "##तालाई": 3527,
      "##संघ": 3528,
      "गुरुङ": 3529,
      "##क्क": 3530,
      "##ालो": 3531,
      "चिकित्": 3532,
      "छु": 3533,
      "यसले": 3534,
      "कार्यान्वयन": 3535,
      "##्ले": 3536,
      "उम्मेदवार": 3537,
      "भट्टराई": 3538,
      "मानव": 3539,
      "ज्यान": 3540,
      "जस्तो": 3541,
      "कारोबार": 3542,
      "कर्ण": 3543,
      "हत्या": 3544,
      "पोखरा": 3545,
      "राई": 3546,
      "रहे": 3547,
      "हरेक": 3548,
      "##कर्मी": 3549,
      "हुँदैन": 3550,
      "न्याय": 3551,
      "दर": 3552,
      "सुवि": 3553,
      "संयो": 3554,
      "विरोध": 3555,
      "समितिले": 3556,
      "##थे": 3557,
      "विस्तार": 3558,
      "देखिन्छ": 3559,
      "आँ": 3560,
      "सम्मेल": 3561,
      "व्यव": 3562,
      "##ोप": 3563,
      "क्षम": 3564,
      "मुख्यमन्त्री": 3565,
      "##क्रिय": 3566,
      "##लामा": 3567,
      "तुल": 3568,
      "जल": 3569,
      "बसेको": 3570,
      "राति": 3571,
      "वरि": 3572,
      "##ेसम्म": 3573,
      "##एस": 3574,
      "नसक": 3575,
      "पुल": 3576,
      "##हल": 3577,
      "व्यवसायी": 3578,
      "प्रणाली": 3579,
      "औष": 3580,
      "व्यक्त": 3581,
      "##मार्ग": 3582,
      "नदी": 3583,
      "##धिकरण": 3584,
      "आठ": 3585,
      "जन्": 3586,
      "चर्च": 3587,
      "##ेवारी": 3588,
      "आफ्नै": 3589,
      "संयुक्त": 3590,
      "##ेम": 3591,
      "उपत्य": 3592,
      "धा": 3593,
      "प्रतिनिधि": 3594,
      "भु": 3595,
      "गम्भ": 3596,
      "थाल": 3597,
      "##मार्फत": 3598,
      "गम्भीर": 3599,
      "लकड": 3600,
      "##द्र": 3601,
      "प्रस्तु": 3602,
      "चित": 3603,
      "कम्पनीले": 3604,
      "घरमा": 3605,
      "पहिले": 3606,
      "किसान": 3607,
      "कोष": 3608,
      "प्राधिकरण": 3609,
      "संक": 3610,
      "##स्थिति": 3611,
      "राजधान": 3612,
      "अग्र": 3613,
      "##एन": 3614,
      "##क्षित": 3615,
      "अभाव": 3616,
      "संगठ": 3617,
      "मना": 3618,
      "##शा": 3619,
      "हात": 3620,
      "थाहा": 3621,
      "होट": 3622,
      "##ंका": 3623,
      "भिड": 3624,
      "जिम्मेवारी": 3625,
      "बहु": 3626,
      "थालेको": 3627,
      "चिनि": 3628,
      "उपत्यका": 3629,
      "##पको": 3630,
      "भर्": 3631,
      "कोइ": 3632,
      "औं": 3633,
      "##तिहा": 3634,
      "एन": 3635,
      "गाडी": 3636,
      "भी": 3637,
      "नजिक": 3638,
      "दशम": 3639,
      "##बद्ध": 3640,
      "##सद्": 3641,
      "##हन": 3642,
      "व्यापार": 3643,
      "गुमा": 3644,
      "सुधार": 3645,
      "##रीको": 3646,
      "स्पष्ट": 3647,
      "लिने": 3648,
      "##चित": 3649,
      "हस्ता": 3650,
      "प्रतिनिधिस": 3651,
      "२३": 3652,
      "सुझा": 3653,
      "समाधान": 3654,
      "##कले": 3655,
      "फेरि": 3656,
      "गरिसक": 3657,
      "पूर्वा": 3658,
      "कुल": 3659,
      "##राम": 3660,
      "काठमाडौँ": 3661,
      "भइसकेको": 3662,
      "कारबाही": 3663,
      "##सम्बन्धी": 3664,
      "##ाउनु": 3665,
      "बिक्री": 3666,
      "क्रिकेट": 3667,
      "किलो": 3668,
      "कार्की": 3669,
      "खड्": 3670,
      "##दिन": 3671,
      "##तावरण": 3672,
      "नेपालका": 3673,
      "##तका": 3674,
      "बजारमा": 3675,
      "विगत": 3676,
      "भई": 3677,
      "श्रेष्ठले": 3678,
      "समाचार": 3679,
      "##स्ती": 3680,
      "##बन्द": 3681,
      "पोखरेल": 3682,
      "##तिय": 3683,
      "##ानमा": 3684,
      "यति": 3685,
      "##दछ": 3686,
      "धन": 3687,
      "वातावरण": 3688,
      "अधिव": 3689,
      "च्या": 3690,
      "परिवर्तन": 3691,
      "अल": 3692,
      "बालब": 3693,
      "भन्छन्": 3694,
      "सिफ": 3695,
      "सन्त": 3696,
      "तर्फ": 3697,
      "##िसा": 3698,
      "बारेमा": 3699,
      "##वर": 3700,
      "दिइ": 3701,
      "##बेला": 3702,
      "वृद्धि": 3703,
      "मध्य": 3704,
      "##के": 3705,
      "थापाले": 3706,
      "##पि": 3707,
      "प्रशि": 3708,
      "निरन्तर": 3709,
      "हेर": 3710,
      "प्रतिनिधिसभा": 3711,
      "##ची": 3712,
      "कृष्ण": 3713,
      "प्रभावित": 3714,
      "हट": 3715,
      "##पय": 3716,
      "वन": 3717,
      "पुगेका": 3718,
      "संयोजक": 3719,
      "##हुन्छ": 3720,
      "श्रम": 3721,
      "खान": 3722,
      "खुला": 3723,
      "कतिपय": 3724,
      "दशमलव": 3725,
      "बताइएको": 3726,
      "##बि": 3727,
      "सभ": 3728,
      "सकेको": 3729,
      "वीर": 3730,
      "##भू": 3731,
      "नाममा": 3732,
      "सम्बन्धित": 3733,
      "आदेश": 3734,
      "निर्देशक": 3735,
      "गराउने": 3736,
      "##धानिक": 3737,
      "##हुँ": 3738,
      "संरक्षण": 3739,
      "##अन्त": 3740,
      "कोइर": 3741,
      "२७": 3742,
      "२८": 3743,
      "आउन": 3744,
      "सोच": 3745,
      "मान्छ": 3746,
      "##न्ज": 3747,
      "आई": 3748,
      "मन्त्रिप": 3749,
      "##साइ": 3750,
      "अति": 3751,
      "मन्त्रिपरि": 3752,
      "##ीकृत": 3753,
      "तथ्या": 3754,
      "संशोधन": 3755,
      "फिर्ता": 3756,
      "प्रदर्शन": 3757,
      "पराजित": 3758,
      "६०": 3759,
      "##त्री": 3760,
      "गि": 3761,
      "कला": 3762,
      "##िल्लो": 3763,
      "सिफार": 3764,
      "कोर": 3765,
      "आन्त": 3766,
      "दाहाल": 3767,
      "वरिष्ठ": 3768,
      "##विक": 3769,
      "##ामुख": 3770,
      "छोरा": 3771,
      "बालबालिका": 3772,
      "झा": 3773,
      "राख्ने": 3774,
      "शान्ति": 3775,
      "##रीले": 3776,
      "##वान": 3777,
      "खेत": 3778,
      "आन्तरिक": 3779,
      "भाष": 3780,
      "सुविधा": 3781,
      "##स्पर्": 3782,
      "##रीमा": 3783,
      "##निर्": 3784,
      "लाग्ने": 3785,
      "बराब": 3786,
      "हालसम्म": 3787,
      "२६": 3788,
      "##मन": 3789,
      "##ेलु": 3790,
      "##ेप": 3791,
      "##कम्प": 3792,
      "मन्द": 3793,
      "धार": 3794,
      "होला": 3795,
      "चौध": 3796,
      "याता": 3797,
      "सङ्क्रमण": 3798,
      "फरक": 3799,
      "दाय": 3800,
      "##द्वार": 3801,
      "##कोट": 3802,
      "शेयर": 3803,
      "युव": 3804,
      "शी": 3805,
      "##नाले": 3806,
      "राह": 3807,
      "भौ": 3808,
      "यस्ता": 3809,
      "##हरूमा": 3810,
      "##जो": 3811,
      "गराउन": 3812,
      "परीक्षा": 3813,
      "##कार्य": 3814,
      "प्राथ": 3815,
      "आफूले": 3816,
      "संसद्": 3817,
      "##लित": 3818,
      "प्रतिस्पर्": 3819,
      "असार": 3820,
      "##वे": 3821,
      "समन्व": 3822,
      "कमज": 3823,
      "शै": 3824,
      "नसकेको": 3825,
      "उडान": 3826,
      "##सँगको": 3827,
      "पुग्ने": 3828,
      "गौतम": 3829,
      "अख": 3830,
      "##ाई": 3831,
      "##योजन": 3832,
      "आन्दोलन": 3833,
      "##अन्तर्गत": 3834,
      "जाँ": 3835,
      "##र्भ": 3836,
      "अन्त्य": 3837,
      "कर्णाली": 3838,
      "##बाह": 3839,
      "प्राथमिक": 3840,
      "आमा": 3841,
      "बीच": 3842,
      "##दल": 3843,
      "उपाध्यक्ष": 3844,
      "वर्षमा": 3845,
      "पूर्वाधार": 3846,
      "बनाएर": 3847,
      "कोइराला": 3848,
      "चै": 3849,
      "हिमा": 3850,
      "गीत": 3851,
      "एम": 3852,
      "सम्बोधन": 3853,
      "बच": 3854,
      "प्या": 3855,
      "ऐन": 3856,
      "नाका": 3857,
      "संसदीय": 3858,
      "##प्प": 3859,
      "प्रमाण": 3860,
      "##डो": 3861,
      "स्वी": 3862,
      "##शाला": 3863,
      "रोजगारी": 3864,
      "विदेशी": 3865,
      "तामा": 3866,
      "राखेर": 3867,
      "राखिएको": 3868,
      "भारतको": 3869,
      "##ौती": 3870,
      "समन्वय": 3871,
      "##ँदैन": 3872,
      "##ीकरण": 3873,
      "अपरा": 3874,
      "त्यति": 3875,
      "साता": 3876,
      "थिइन्": 3877,
      "तपाईं": 3878,
      "उपभ": 3879,
      "##तियार": 3880,
      "शाख": 3881,
      "सुझाव": 3882,
      "स्थायी": 3883,
      "दृ": 3884,
      "##यु": 3885,
      "पक्षमा": 3886,
      "सामग्री": 3887,
      "##ात": 3888,
      "माध": 3889,
      "सश": 3890,
      "लगायतका": 3891,
      "प्रस्तुत": 3892,
      "टोलीले": 3893,
      "जब": 3894,
      "ब्र": 3895,
      "##ोड": 3896,
      "मधेस": 3897,
      "नाय": 3898,
      "अर्का": 3899,
      "जनताको": 3900,
      "दिनमा": 3901,
      "भूकम्प": 3902,
      "पार्टीका": 3903,
      "##लग्न": 3904,
      "सच": 3905,
      "कले": 3906,
      "भवन": 3907,
      "मन्त्रालयका": 3908,
      "##ेशन": 3909,
      "अघ": 3910,
      "सरकारलाई": 3911,
      "##खु": 3912,
      "एकता": 3913,
      "कप": 3914,
      "##णी": 3915,
      "प्रशासन": 3916,
      "पाएको": 3917,
      "सक्रिय": 3918,
      "लै": 3919,
      "बाध्य": 3920,
      "सिफारिस": 3921,
      "##क्ट": 3922,
      "समितिको": 3923,
      "बाह": 3924,
      "हेर्": 3925,
      "क्षेत्रको": 3926,
      "खड्का": 3927,
      "चिनियाँ": 3928,
      "##द्धा": 3929,
      "##चार्य": 3930,
      "प्रविधि": 3931,
      "चाहि": 3932,
      "सचिवालय": 3933,
      "##ल्दै": 3934,
      "उत्तर": 3935,
      "वैशाख": 3936,
      "विवरण": 3937,
      "क्वार": 3938,
      "मिला": 3939,
      "##उनु": 3940,
      "भनिएको": 3941,
      "##लाग": 3942,
      "उनीहरु": 3943,
      "बताउनुभयो": 3944,
      "पीडित": 3945,
      "##वाफ": 3946,
      "आम": 3947,
      "गर्छन्": 3948,
      "उद्ध": 3949,
      "प्रत्य": 3950,
      "नप": 3951,
      "दिइएको": 3952,
      "३५": 3953,
      "##ैर": 3954,
      "विज्ञप्": 3955,
      "पाण्ड": 3956,
      "हुनुपर्ने": 3957,
      "##क्न": 3958,
      "२९": 3959,
      "गुना": 3960,
      "आत्म": 3961,
      "भक्त": 3962,
      "आए": 3963,
      "##बाटै": 3964,
      "##ात्मक": 3965,
      "पहिरो": 3966,
      "उमेर": 3967,
      "घु": 3968,
      "##श्चित": 3969,
      "खट": 3970,
      "##सकेका": 3971,
      "आफूलाई": 3972,
      "##काम": 3973,
      "फाइ": 3974,
      "शीर्ष": 3975,
      "ग्रा": 3976,
      "पश्चिम": 3977,
      "पौडेलले": 3978,
      "बोला": 3979,
      "सङ्घ": 3980,
      "##मत": 3981,
      "##उँछ": 3982,
      "संलग्न": 3983,
      "जेठ": 3984,
      "मैदान": 3985,
      "मिनेटमा": 3986,
      "यसरी": 3987,
      "बताउँदै": 3988,
      "नियन्त्रणमा": 3989,
      "छौँ": 3990,
      "समितिका": 3991,
      "नारायण": 3992,
      "रिप": 3993,
      "छाड": 3994,
      "चिकित्सक": 3995,
      "जवाफ": 3996,
      "हिँ": 3997,
      "आयोगले": 3998,
      "सञ्ज": 3999,
      "विप": 4000,
      "लकडाउन": 4001,
      "विर": 4002,
      "शेर": 4003,
      "टि": 4004,
      "##यता": 4005,
      "अधिकांश": 4006,
      "शव": 4007,
      "पाल": 4008,
      "समर्थ": 4009,
      "प्रतिष्ठ": 4010,
      "यसलाई": 4011,
      "##्वा": 4012,
      "मेड": 4013,
      "बाग": 4014,
      "##िकल": 4015,
      "राख्न": 4016,
      "##ाया": 4017,
      "##देशिक": 4018,
      "ट्रा": 4019,
      "निष्": 4020,
      "पि": 4021,
      "यातायात": 4022,
      "##कृतिक": 4023,
      "कार्यालयले": 4024,
      "सञ्चालनमा": 4025,
      "तत्कालीन": 4026,
      "##ुले": 4027,
      "##कुल": 4028,
      "बह": 4029,
      "##र्का": 4030,
      "##ेलि": 4031,
      "नव": 4032,
      "गठबन्ध": 4033,
      "##स्तान": 4034,
      "##ोन": 4035,
      "थाले": 4036,
      "महानगरपालिका": 4037,
      "##शन": 4038,
      "प्रावि": 4039,
      "माधव": 4040,
      "पर्व": 4041,
      "##देश्य": 4042,
      "##ङको": 4043,
      "दर्श": 4044,
      "प्रदेशसभा": 4045,
      "प्रतिवेदन": 4046,
      "अन्तर्गत": 4047,
      "लागू": 4048,
      "##ण्डकी": 4049,
      "अर्था": 4050,
      "साँझ": 4051,
      "##कृष्ट": 4052,
      "प्रदेशमा": 4053,
      "औषधि": 4054,
      "असर": 4055,
      "##न्त्रिक": 4056,
      "देशको": 4057,
      "क्वारेन्ट": 4058,
      "बैंकले": 4059,
      "मिल्": 4060,
      "##न्तरण": 4061,
      "चरणमा": 4062,
      "##वैधानिक": 4063,
      "##ाचार": 4064,
      "##ध्या": 4065,
      "गर्नुपर्छ": 4066,
      "महत्वपूर्ण": 4067,
      "##पुरमा": 4068,
      "##ेदेखि": 4069,
      "पुष्": 4070,
      "राखेको": 4071,
      "टा": 4072,
      "सुना": 4073,
      "अवसर": 4074,
      "कार्यकर्ता": 4075,
      "वित्त": 4076,
      "##र्द": 4077,
      "##राष्ट्र": 4078,
      "##ुव": 4079,
      "##पित": 4080,
      "##वटा": 4081,
      "क्षेत्रका": 4082,
      "##बाहेक": 4083,
      "पेश": 4084,
      "भनिन्": 4085,
      "जन्म": 4086,
      "इज": 4087,
      "कलेज": 4088,
      "जस्ता": 4089,
      "ल्याउन": 4090,
      "मापद": 4091,
      "सहित": 4092,
      "##ल्ट": 4093,
      "निर्वाचित": 4094,
      "विद्युत्": 4095,
      "कार्यकारी": 4096,
      "गुनासो": 4097,
      "ऋण": 4098,
      "मापदण्ड": 4099,
      "एकै": 4100,
      "##रप": 4101,
      "वार्ता": 4102,
      "##लेस": 4103,
      "प्रतियोगि": 4104,
      "छान": 4105,
      "भनेका": 4106,
      "नियमित": 4107,
      "##िनी": 4108,
      "प्रेम": 4109,
      "पदाधिका": 4110,
      "नौ": 4111,
      "यसमा": 4112,
      "बताएको": 4113,
      "##सका": 4114,
      "विश्वक": 4115,
      "प्राविधिक": 4116,
      "बोर्ड": 4117,
      "सभामुख": 4118,
      "##सल": 4119,
      "गएका": 4120,
      "पर्छ": 4121,
      "##ढा": 4122,
      "कमा": 4123,
      "सम्मान": 4124,
      "##गमन": 4125,
      "##ित्व": 4126,
      "कानू": 4127,
      "स्त": 4128,
      "संरचना": 4129,
      "कम्पनीको": 4130,
      "जनामा": 4131,
      "७०": 4132,
      "निम्": 4133,
      "विचार": 4134,
      "ल्याएको": 4135,
      "हार": 4136,
      "आक्रमण": 4137,
      "राजी": 4138,
      "मिटर": 4139,
      "##तान्त्रिक": 4140,
      "शिक्षक": 4141,
      "भारतमा": 4142,
      "##घाट": 4143,
      "कहिले": 4144,
      "राजनीति": 4145,
      "##िरहेको": 4146,
      "अधिकारीले": 4147,
      "सुनि": 4148,
      "##जर": 4149,
      "जनालाई": 4150,
      "##ोका": 4151,
      "कट": 4152,
      "##ालको": 4153,
      "पुनर्": 4154,
      "सकेन": 4155,
      "भ्र": 4156,
      "चुन": 4157,
      "##क्रमित": 4158,
      "३१": 4159,
      "गरेकी": 4160,
      "##चान": 4161,
      "छिन्": 4162,
      "जति": 4163,
      "##तह": 4164,
      "मोटर": 4165,
      "##विद्यालय": 4166,
      "छनोट": 4167,
      "ठूला": 4168,
      "समाजवादी": 4169,
      "दिउँ": 4170,
      "ललित": 4171,
      "स्वतन्त्र": 4172,
      "##पर्ने": 4173,
      "लगाउने": 4174,
      "##ाउँदा": 4175,
      "अनुमति": 4176,
      "साह": 4177,
      "##थो": 4178,
      "##लाइन": 4179,
      "अनुमान": 4180,
      "देशमा": 4181,
      "धर्म": 4182,
      "ढि": 4183,
      "भिडियो": 4184,
      "##दौ": 4185,
      "निर्वाचनमा": 4186,
      "बन्न": 4187,
      "माघ": 4188,
      "उनीहरुले": 4189,
      "फाग": 4190,
      "##लाको": 4191,
      "##एम": 4192,
      "##मिटर": 4193,
      "संकलन": 4194,
      "उनीहरू": 4195,
      "त्रि": 4196,
      "सहा": 4197,
      "##ाएका": 4198,
      "##लाका": 4199,
      "तर्फबाट": 4200,
      "मौसम": 4201,
      "##द्वारा": 4202,
      "त्यसलाई": 4203,
      "##ल्य": 4204,
      "क्षमता": 4205,
      "देशका": 4206,
      "मतदान": 4207,
      "##स्कार": 4208,
      "दुर्घटना": 4209,
      "गरिएका": 4210,
      "विश्वविद्यालय": 4211,
      "सम्पूर्ण": 4212,
      "##चालन": 4213,
      "की": 4214,
      "उत्कृष्ट": 4215,
      "##षण": 4216,
      "##कारात्मक": 4217,
      "राजधानी": 4218,
      "##पूर्ति": 4219,
      "न्याया": 4220,
      "भौतिक": 4221,
      "खन": 4222,
      "कक्षा": 4223,
      "वर्षीया": 4224,
      "अवसरमा": 4225,
      "मन्त्रिपरिषद्": 4226,
      "##टको": 4227,
      "पाकि": 4228,
      "तिम": 4229,
      "गुण": 4230,
      "##लर": 4231,
      "नब": 4232,
      "उद्देश्य": 4233,
      "ठा": 4234,
      "##रीय": 4235,
      "##मात्र": 4236,
      "बन्ने": 4237,
      "उपम": 4238,
      "सञ्चार": 4239,
      "लाइ": 4240,
      "##्यार": 4241,
      "छिट": 4242,
      "दिउँसो": 4243,
      "माथि": 4244,
      "##छिन्": 4245,
      "राहत": 4246,
      "रिपोर्ट": 4247,
      "भदौ": 4248,
      "##्यास": 4249,
      "##क्सि": 4250,
      "पारित": 4251,
      "२००": 4252,
      "##ीलाई": 4253,
      "३२": 4254,
      "साइ": 4255,
      "बताइन्": 4256,
      "ल्याउने": 4257,
      "महाधिवेशन": 4258,
      "कार्यालयमा": 4259,
      "##दे": 4260,
      "नसक्ने": 4261,
      "बनाइ": 4262,
      "जिल्लाका": 4263,
      "##ानु": 4264,
      "##दानी": 4265,
      "विरुद्ध": 4266,
      "बेलाय": 4267,
      "माध्यम": 4268,
      "##ंसा": 4269,
      "तहमा": 4270,
      "नेतृत्वको": 4271,
      "##ेरा": 4272,
      "##ालि": 4273,
      "मज": 4274,
      "अवधिमा": 4275,
      "भर्ना": 4276,
      "सङ्क्रमित": 4277,
      "दिँदै": 4278,
      "##पो": 4279,
      "टु": 4280,
      "आप": 4281,
      "भएन": 4282,
      "##्वी": 4283,
      "मान्छे": 4284,
      "##क्षर": 4285,
      "फैल": 4286,
      "##क्य": 4287,
      "महासंघ": 4288,
      "तामाङ": 4289,
      "एका": 4290,
      "##गो": 4291,
      "##सोज": 4292,
      "एज": 4293,
      "वित्तीय": 4294,
      "४५": 4295,
      "कांग्रेसका": 4296,
      "असोज": 4297,
      "८०": 4298,
      "सम्पर्": 4299,
      "##पक्षी": 4300,
      "##निर्माण": 4301,
      "भ्रष्ट": 4302,
      "पहा": 4303,
      "उपचारका": 4304,
      "आचार्य": 4305,
      "यसका": 4306,
      "##चारिक": 4307,
      "##मेन्ट": 4308,
      "हुन्छन्": 4309,
      "शरी": 4310,
      "कम्": 4311,
      "परिस": 4312,
      "अदालत": 4313,
      "बर्ष": 4314,
      "##ज्ञा": 4315,
      "##ल्ली": 4316,
      "फेला": 4317,
      "पुष्प": 4318,
      "प्रहार": 4319,
      "त्यसैगरी": 4320,
      "साउ": 4321,
      "जम्मा": 4322,
      "यात्रु": 4323,
      "फुटबल": 4324,
      "प्रजा": 4325,
      "मन्दिर": 4326,
      "सज": 4327,
      "सामु": 4328,
      "धारणा": 4329,
      "##ल्लाह": 4330,
      "##धु": 4331,
      "संस्थ": 4332,
      "बद": 4333,
      "युर": 4334,
      "कमजोर": 4335,
      "बनेका": 4336,
      "जम": 4337,
      "##पुग": 4338,
      "##न्ता": 4339,
      "प्रभावकारी": 4340,
      "##ाइड": 4341,
      "सुरक्षित": 4342,
      "##ँजी": 4343,
      "##तीमा": 4344,
      "भे": 4345,
      "पाएका": 4346,
      "विद्युत": 4347,
      "सूच": 4348,
      "##आई": 4349,
      "जिल्लाको": 4350,
      "##सिय": 4351,
      "पुस्त": 4352,
      "चितवन": 4353,
      "एयर": 4354,
      "आवश्यकता": 4355,
      "मान्य": 4356,
      "उपभो": 4357,
      "भुक्त": 4358,
      "सचेत": 4359,
      "शाही": 4360,
      "बढ्दै": 4361,
      "२०२": 4362,
      "कठ": 4363,
      "##ाटनगर": 4364,
      "##्ला": 4365,
      "संवैधानिक": 4366,
      "जीव": 4367,
      "निस्क": 4368,
      "खास": 4369,
      "नर": 4370,
      "न्यायाधीश": 4371,
      "सिर्": 4372,
      "##न्दु": 4373,
      "##जिम": 4374,
      "##लगायतका": 4375,
      "दलका": 4376,
      "##ियाको": 4377,
      "प्रहरीको": 4378,
      "##्ट": 4379,
      "त्यसमा": 4380,
      "लगाएको": 4381,
      "महाशाख": 4382,
      "शुल्क": 4383,
      "##क्ने": 4384,
      "प्रत्येक": 4385,
      "मेडिकल": 4386,
      "प्रदेशका": 4387,
      "##णिज": 4388,
      "##ङमा": 4389,
      "##पूर्व": 4390,
      "##बन्दी": 4391,
      "##ागत": 4392,
      "कसै": 4393,
      "##सला": 4394,
      "ग्राह": 4395,
      "नहुँदा": 4396,
      "अदालतले": 4397,
      "##ियामा": 4398,
      "##णिज्य": 4399,
      "##तै": 4400,
      "##ासन": 4401,
      "##कलाई": 4402,
      "##न्तु": 4403,
      "शेरबहादुर": 4404,
      "खण्ड": 4405,
      "लाग्छ": 4406,
      "गर्यो": 4407,
      "सिर्जना": 4408,
      "चाँ": 4409,
      "बढ्ने": 4410,
      "राजीनामा": 4411,
      "सशस्त्र": 4412,
      "लिएका": 4413,
      "##संग": 4414,
      "अहिलेको": 4415,
      "पेट": 4416,
      "##पुरको": 4417,
      "इन्टर": 4418,
      "निगम": 4419,
      "##दाता": 4420,
      "##ेदार": 4421,
      "##ोत्": 4422,
      "अवि": 4423,
      "भारतले": 4424,
      "गराएको": 4425,
      "होटल": 4426,
      "##ेश्वर": 4427,
      "साथी": 4428,
      "##दम": 4429,
      "किलोमिटर": 4430,
      "##्टै": 4431,
      "लामा": 4432,
      "##मोजिम": 4433,
      "इतिहा": 4434,
      "त्यस्तो": 4435,
      "शाह": 4436,
      "पहल": 4437,
      "अनुदान": 4438,
      "फे": 4439,
      "झापा": 4440,
      "##र्ख": 4441,
      "आर": 4442,
      "प्रतिस्पर्धा": 4443,
      "चैत": 4444,
      "नभए": 4445,
      "आयोजित": 4446,
      "कांग्रेसले": 4447,
      "काँग": 4448,
      "जस्तै": 4449,
      "शिव": 4450,
      "##डे": 4451,
      "उद्धार": 4452,
      "यात्रा": 4453,
      "अघिल्लो": 4454,
      "प्रतियोगिता": 4455,
      "वे": 4456,
      "भाइरसको": 4457,
      "नेतृत्वमा": 4458,
      "साउन": 4459,
      "विवाह": 4460,
      "##ेसन": 4461,
      "डिज": 4462,
      "बंग": 4463,
      "##सव": 4464,
      "देशभर": 4465,
      "बढाउन": 4466,
      "पारेको": 4467,
      "साधन": 4468,
      "योगदान": 4469,
      "स्रोत": 4470,
      "कार्यालयका": 4471,
      "##साधारण": 4472,
      "नियुक्त": 4473,
      "दबा": 4474,
      "लागेका": 4475,
      "फु": 4476,
      "प्रेस": 4477,
      "सत्ता": 4478,
      "झण्ड": 4479,
      "##परि": 4480,
      "यू": 4481,
      "नियम": 4482,
      "गए": 4483,
      "संक्रमितको": 4484,
      "चुनौती": 4485,
      "##बिन": 4486,
      "कालो": 4487,
      "##सिर": 4488,
      "भै": 4489,
      "##गान": 4490,
      "पहिचान": 4491,
      "शुभ": 4492,
      "स्थिति": 4493,
      "काममा": 4494,
      "नपा": 4495,
      "जोग": 4496,
      "सुदू": 4497,
      "काँग्रेस": 4498,
      "##ौला": 4499,
      "विराटनगर": 4500,
      "हप्": 4501,
      "गतिविधि": 4502,
      "चन्द्र": 4503,
      "आयात": 4504,
      "०७": 4505,
      "परियो": 4506,
      "संस्कृति": 4507,
      "##ाउँछ": 4508,
      "लाई": 4509,
      "##ोटो": 4510,
      "डो": 4511,
      "विभागले": 4512,
      "३३": 4513,
      "बच्च": 4514,
      "##कर्षण": 4515,
      "सहकार्य": 4516,
      "डु": 4517,
      "##लादेश": 4518,
      "##सम्मको": 4519,
      "##ारु": 4520,
      "जनक": 4521,
      "परिण": 4522,
      "##त्यक्ष": 4523,
      "कम्युनिष्ट": 4524,
      "जसले": 4525,
      "सङ्ख्या": 4526,
      "पृ": 4527,
      "##भिजन": 4528,
      "जनाएका": 4529,
      "दिवस": 4530,
      "उनीहरुको": 4531,
      "उपरीक्षक": 4532,
      "शर्माले": 4533,
      "सम्बन्धमा": 4534,
      "थालेका": 4535,
      "##फिक": 4536,
      "##लका": 4537,
      "वस्तु": 4538,
      "##दय": 4539,
      "अध्या": 4540,
      "##कुद": 4541,
      "##नै": 4542,
      "आइसो": 4543,
      "सडकमा": 4544,
      "हामीलाई": 4545,
      "दलको": 4546,
      "भूमि": 4547,
      "मं": 4548,
      "जानु": 4549,
      "##परेको": 4550,
      "सञ्जाल": 4551,
      "##्रै": 4552,
      "तहको": 4553,
      "##्रि": 4554,
      "कोही": 4555,
      "७५": 4556,
      "ढकाल": 4557,
      "##ाएर": 4558,
      "##होर": 4559,
      "##ाउनुपर्ने": 4560,
      "सर्": 4561,
      "छोरी": 4562,
      "खेलकुद": 4563,
      "आजको": 4564,
      "समावेश": 4565,
      "##त्तै": 4566,
      "##ामन्त्री": 4567,
      "अनुगमन": 4568,
      "भुक्तानी": 4569,
      "स्या": 4570,
      "##त्कार": 4571,
      "##वली": 4572,
      "##बाइ": 4573,
      "तरकारी": 4574,
      "##ित्त": 4575,
      "##ियाली": 4576,
      "कलाकार": 4577,
      "कप्त": 4578,
      "जुट": 4579,
      "##ियाले": 4580,
      "विनि": 4581,
      "गण्डकी": 4582,
      "न्यून": 4583,
      "अम": 4584,
      "##षे": 4585,
      "##वधान": 4586,
      "गल": 4587,
      "खबर": 4588,
      "मिड": 4589,
      "खोजी": 4590,
      "आलो": 4591,
      "पदाधिकारी": 4592,
      "लगाउन": 4593,
      "ट्रम्प": 4594,
      "सरो": 4595,
      "##लाम": 4596,
      "गैर": 4597,
      "भर": 4598,
      "२०६": 4599,
      "विधि": 4600,
      "फागुन": 4601,
      "निर्माणको": 4602,
      "##िमिर": 4603,
      "ब्य": 4604,
      "स्थग": 4605,
      "##जुरी": 4606,
      "##चन्द्र": 4607,
      "कसैले": 4608,
      "सोध": 4609,
      "ब्रा": 4610,
      "बालुवा": 4611,
      "अख्": 4612,
      "##डमा": 4613,
      "हरि": 4614,
      "देउवाले": 4615,
      "माइ": 4616,
      "##गढी": 4617,
      "##व्र": 4618,
      "अपना": 4619,
      "सामान": 4620,
      "विमानस्थल": 4621,
      "भोल": 4622,
      "यसैगरी": 4623,
      "##पथ": 4624,
      "बुद्ध": 4625,
      "तथ्यांक": 4626,
      "खाना": 4627,
      "परियोजना": 4628,
      "निषे": 4629,
      "जनाइएको": 4630,
      "सूर्य": 4631,
      "##ब्द": 4632,
      "##ढे": 4633,
      "##ियोग": 4634,
      "प्रदेशको": 4635,
      "आम्": 4636,
      "यता": 4637,
      "##वाही": 4638,
      "##नगर": 4639,
      "##नाको": 4640,
      "काठमाडौंमा": 4641,
      "तिन": 4642,
      "बोक": 4643,
      "क्रिया": 4644,
      "अत्य": 4645,
      "स्वदेश": 4646,
      "बास": 4647,
      "##सिंह": 4648,
      "सुदूरप": 4649,
      "रण": 4650,
      "नआ": 4651,
      "अरू": 4652,
      "कार्यरत": 4653,
      "सँग": 4654,
      "##न्याया": 4655,
      "##ुली": 4656,
      "रंग": 4657,
      "बलियो": 4658,
      "##गञ्ज": 4659,
      "उसले": 4660,
      "मोटरसाइ": 4661,
      "##पचारिक": 4662,
      "कामदार": 4663,
      "भ्रष्टाचार": 4664,
      "वाणिज्य": 4665,
      "##त्ती": 4666,
      "युनि": 4667,
      "##िसाब": 4668,
      "उनीहरूले": 4669,
      "पदार्थ": 4670,
      "##र्सि": 4671,
      "##बीचको": 4672,
      "नम": 4673,
      "साना": 4674,
      "बला": 4675,
      "##देवी": 4676,
      "वर्ग": 4677,
      "भन्न": 4678,
      "खानेपानी": 4679,
      "ठे": 4680,
      "##ाइने": 4681,
      "सर्वसाधारण": 4682,
      "नो": 4683,
      "##उँदा": 4684,
      "पूजा": 4685,
      "##मिला": 4686,
      "उद्घ": 4687,
      "##भाइ": 4688,
      "##श्व": 4689,
      "##चन": 4690,
      "घिमिर": 4691,
      "प्रतिबद्ध": 4692,
      "अनुभव": 4693,
      "सदर": 4694,
      "पुस": 4695,
      "व्यवहार": 4696,
      "उपप्र": 4697,
      "##एकाले": 4698,
      "गर्नेछ": 4699,
      "परम्प": 4700,
      "सल्लाह": 4701,
      "##ाग्": 4702,
      "सिट": 4703,
      "भरत": 4704,
      "बसेका": 4705,
      "विघ": 4706,
      "बढ्न": 4707,
      "डाक्टर": 4708,
      "गोर": 4709,
      "##सित": 4710,
      "दिएर": 4711,
      "##वाई": 4712,
      "बसेर": 4713,
      "##न्थ": 4714,
      "जाँदा": 4715,
      "पास": 4716,
      "जाग": 4717,
      "कम्युनिस्ट": 4718,
      "##ारम्भ": 4719,
      "सुदूरपश्चिम": 4720,
      "कर्जा": 4721,
      "समान": 4722,
      "##हाज": 4723,
      "गरिन्छ": 4724,
      "##ृत्ति": 4725,
      "बस्न": 4726,
      "सहकारी": 4727,
      "प्रत्यक्ष": 4728,
      "मनो": 4729,
      "जनसं": 4730,
      "टुंग": 4731,
      "धर": 4732,
      "##स्तरीय": 4733,
      "निर्माणका": 4734,
      "##हीन": 4735,
      "प्रकार": 4736,
      "सार": 4737,
      "भनी": 4738,
      "##्यौ": 4739,
      "नति": 4740,
      "महासचिव": 4741,
      "आम्दानी": 4742,
      "गरिसकेको": 4743,
      "##चाइ": 4744,
      "मिति": 4745,
      "##ठा": 4746,
      "सालमा": 4747,
      "घरेलु": 4748,
      "बाढी": 4749,
      "कारणले": 4750,
      "##औं": 4751,
      "गर्दछ": 4752,
      "काग": 4753,
      "##ःख": 4754,
      "##्रे": 4755,
      "विधान": 4756,
      "##पान": 4757,
      "##ल्ल": 4758,
      "आय": 4759,
      "##शक्ति": 4760,
      "##नो": 4761,
      "मोबाइ": 4762,
      "एउटै": 4763,
      "अपराध": 4764,
      "पुरस्कार": 4765,
      "##ष्य": 4766,
      "वार्ष": 4767,
      "भाडा": 4768,
      "##न्टर": 4769,
      "##जस्ता": 4770,
      "मार": 4771,
      "ट्या": 4772,
      "सरकारका": 4773,
      "बैंकको": 4774,
      "दबाब": 4775,
      "##श्वर": 4776,
      "##नाई": 4777,
      "हिँड": 4778,
      "९०": 4779,
      "प्रशिक्षक": 4780,
      "संगठन": 4781,
      "डी": 4782,
      "विजयी": 4783,
      "विकल्प": 4784,
      "आफैं": 4785,
      "एक्": 4786,
      "##्याम": 4787,
      "रूप": 4788,
      "##कन": 4789,
      "ओलीको": 4790,
      "लड": 4791,
      "बेच": 4792,
      "भत्": 4793,
      "##कर": 4794,
      "विघटन": 4795,
      "##त्रा": 4796,
      "बैङ्क": 4797,
      "रहेछ": 4798,
      "लोकतन्त्र": 4799,
      "नगर्ने": 4800,
      "##टिङ": 4801,
      "##लाल": 4802,
      "शाखा": 4803,
      "यादवले": 4804,
      "##टाले": 4805,
      "गलत": 4806,
      "चर्चा": 4807,
      "##हरण": 4808,
      "##मण": 4809,
      "दुःख": 4810,
      "भट्टराईले": 4811,
      "अनलाइन": 4812,
      "पेस": 4813,
      "##वाइ": 4814,
      "मर्म": 4815,
      "अर्थात्": 4816,
      "भाव": 4817,
      "क्याम्प": 4818,
      "प्रतिशतले": 4819,
      "बढाउने": 4820,
      "ओभ": 4821,
      "खेती": 4822,
      "जनसंख्या": 4823,
      "कथा": 4824,
      "अर्थतन्त्र": 4825,
      "कदम": 4826,
      "हस्ताक्षर": 4827,
      "परिषद्": 4828,
      "लक्ष्": 4829,
      "कवि": 4830,
      "##दायिक": 4831,
      "##होस्": 4832,
      "बुट": 4833,
      "उपमहान": 4834,
      "##र्ती": 4835,
      "नम्ब": 4836,
      "सेयर": 4837,
      "हिमाल": 4838,
      "साढे": 4839,
      "त्यसका": 4840,
      "कस्तो": 4841,
      "प्रचार": 4842,
      "लोकतान्त्रिक": 4843,
      "वैदेशिक": 4844,
      "लुम्ब": 4845,
      "अपे": 4846,
      "आएपछि": 4847,
      "समेट": 4848,
      "पार्टीले": 4849,
      "##श्": 4850,
      "##सहितको": 4851,
      "##िरहेका": 4852,
      "भण्डारीले": 4853,
      "राजमार्ग": 4854,
      "अत्या": 4855,
      "द्व": 4856,
      "तार": 4857,
      "आह": 4858,
      "सहभागिता": 4859,
      "##वाला": 4860,
      "##तः": 4861,
      "##दारी": 4862,
      "रेल": 4863,
      "फैसला": 4864,
      "कहाँ": 4865,
      "भएपनि": 4866,
      "##ाप्त": 4867,
      "भन्नुभयो": 4868,
      "विज्ञान": 4869,
      "जनप्रति": 4870,
      "हुनुपर्छ": 4871,
      "##समिति": 4872,
      "वर्षदेखि": 4873,
      "हिजो": 4874,
      "##ियम": 4875,
      "जनाले": 4876,
      "##षद": 4877,
      "लुम्बिनी": 4878,
      "उद्घाटन": 4879,
      "अधिवेशन": 4880,
      "##रुपमा": 4881,
      "सकारात्मक": 4882,
      "##िमा": 4883,
      "विभा": 4884,
      "हास": 4885,
      "छिम": 4886,
      "संविधानको": 4887,
      "##त्तिक": 4888,
      "डलर": 4889,
      "व्यक्तिको": 4890,
      "##पुरका": 4891,
      "खेलको": 4892,
      "##हण": 4893,
      "##कमल": 4894,
      "उजुरी": 4895,
      "आदि": 4896,
      "कुमार": 4897,
      "##ासो": 4898,
      "परराष्ट्र": 4899,
      "जनप्रतिनि": 4900,
      "##ताले": 4901,
      "गी": 4902,
      "आवा": 4903,
      "मध्ये": 4904,
      "३६": 4905,
      "धु": 4906,
      "गाउँमा": 4907,
      "महिनामा": 4908,
      "मेल": 4909,
      "कल": 4910,
      "खेल्ने": 4911,
      "समूहले": 4912,
      "राजदू": 4913,
      "उपाधि": 4914,
      "पाइएको": 4915,
      "##सीसी": 4916,
      "काट": 4917,
      "##ोला": 4918,
      "कात्तिक": 4919,
      "इजला": 4920,
      "##सक्दा": 4921,
      "पाए": 4922,
      "दिल्ली": 4923,
      "कैल": 4924,
      "हिसाब": 4925,
      "बन्": 4926,
      "##ेन्स": 4927,
      "नगरपालिकाले": 4928,
      "##साथ": 4929,
      "अख्तियार": 4930,
      "सन्देश": 4931,
      "##ायक": 4932,
      "##ञ्चन": 4933,
      "##जस्तो": 4934,
      "##शुल्क": 4935,
      "##ेली": 4936,
      "राखेका": 4937,
      "सामुदायिक": 4938,
      "वर्षा": 4939,
      "प्रसार": 4940,
      "चौधरी": 4941,
      "##ट्र": 4942,
      "५५": 4943,
      "समर्थन": 4944,
      "गर्नका": 4945,
      "##स्तर": 4946,
      "तीव्र": 4947,
      "सक्दैन": 4948,
      "तराई": 4949,
      "##लिक": 4950,
      "##ल्यान्ड": 4951,
      "लिए": 4952,
      "भन्सार": 4953,
      "##ंगा": 4954,
      "पुष्पकमल": 4955,
      "##वाल": 4956,
      "गएर": 4957,
      "##ेटिभ": 4958,
      "तोकिएको": 4959,
      "विष्ण": 4960,
      "##ोमा": 4961,
      "जाँच": 4962,
      "अदालतमा": 4963,
      "वर्त": 4964,
      "भीम": 4965,
      "उनीहरुलाई": 4966,
      "##नेर": 4967,
      "मोर": 4968,
      "उपमहानगर": 4969,
      "कुर": 4970,
      "दिनु": 4971,
      "##ियर": 4972,
      "नतिजा": 4973,
      "सम्भव": 4974,
      "सुनु": 4975,
      "##नन्": 4976,
      "##दन": 4977,
      "गराएका": 4978,
      "स्म": 4979,
      "फोन": 4980,
      "##हित्य": 4981,
      "##मुकाम": 4982,
      "##क्षेप": 4983,
      "##श्वास": 4984,
      "उपभोक्ता": 4985,
      "##द्द": 4986,
      "बनाएका": 4987,
      "##ोध": 4988,
      "ज्ञा": 4989,
      "है": 4990,
      "कैलाली": 4991,
      "केन्द्रका": 4992,
      "चे": 4993,
      "दिला": 4994,
      "सबैलाई": 4995,
      "कानु": 4996,
      "##ुपयोग": 4997,
      "पश": 4998,
      "कडा": 4999,
      "भवि": 5000,
      "च्याम्प": 5001,
      "##तरा": 5002,
      "##र्यो": 5003,
      "किसिम": 5004,
      "##वाली": 5005,
      "सदरमुकाम": 5006,
      "तुलनामा": 5007,
      "##एफ": 5008,
      "##ज्ञान": 5009,
      "लगाएका": 5010,
      "##ल्याण्ड": 5011,
      "कोरोनाको": 5012,
      "##ङ्गा": 5013,
      "३४": 5014,
      "कप्तान": 5015,
      "##खर": 5016,
      "स्थगित": 5017,
      "माल": 5018,
      "सानो": 5019,
      "##मेश": 5020,
      "सैनिक": 5021,
      "निर्धारण": 5022,
      "पशुप": 5023,
      "##टो": 5024,
      "दिनुभयो": 5025,
      "चालक": 5026,
      "पारि": 5027,
      "मैदानमा": 5028,
      "फाइन": 5029,
      "अग": 5030,
      "प्रतिष्ठान": 5031,
      "कांग्रेसको": 5032,
      "##टे": 5033,
      "सत्य": 5034,
      "##्नुपर्ने": 5035,
      "हरा": 5036,
      "सम्मेलन": 5037,
      "म्यान": 5038,
      "पुगेर": 5039,
      "##र्मिक": 5040,
      "यदि": 5041,
      "पोखरेलले": 5042,
      "साहित्य": 5043,
      "ट्राफिक": 5044,
      "मन्त्रालयको": 5045,
      "फोर": 5046,
      "आएर": 5047,
      "यद्य": 5048,
      "रोजगार": 5049,
      "सञ्चालक": 5050,
      "मेस": 5051,
      "सहर": 5052,
      "##कुर": 5053,
      "##न्छु": 5054,
      "##र्ब": 5055,
      "वार्षिक": 5056,
      "##फाइ": 5057,
      "जहाज": 5058,
      "##मले": 5059,
      "बीमा": 5060,
      "अनुरोध": 5061,
      "आफन्त": 5062,
      "इन्टरने": 5063,
      "देखिएका": 5064,
      "पार्ने": 5065,
      "रेड": 5066,
      "सम्बन्धी": 5067,
      "जरु": 5068,
      "जिम्मा": 5069,
      "अक्सि": 5070,
      "श्रीमती": 5071,
      "पाउन": 5072,
      "##गी": 5073,
      "##र्मा": 5074,
      "झण्डै": 5075,
      "चीनको": 5076,
      "जरुरी": 5077,
      "मोटरसाइकल": 5078,
      "##क्षिक": 5079,
      "अग्रता": 5080,
      "सिन्ध": 5081,
      "चासो": 5082,
      "##म्बा": 5083,
      "##ङका": 5084,
      "हस्तान्तरण": 5085,
      "धारा": 5086,
      "निको": 5087,
      "सुन्द": 5088,
      "नेपाललाई": 5089,
      "मान्यता": 5090,
      "नगरपालिकाका": 5091,
      "मुलुकमा": 5092,
      "##कीय": 5093,
      "अंग": 5094,
      "##कानी": 5095,
      "##सलाई": 5096,
      "छानबिन": 5097,
      "दिनको": 5098,
      "प्रकाशित": 5099,
      "वर्तमान": 5100,
      "##सङ्": 5101,
      "##यनमा": 5102,
      "बंगलादेश": 5103,
      "जग": 5104,
      "सत्त": 5105,
      "##डर": 5106,
      "##बास": 5107,
      "माथ": 5108,
      "प्रधानमन्त्रीले": 5109,
      "नियु": 5110,
      "पुरानो": 5111,
      "पुग्न": 5112,
      "सिद्धा": 5113,
      "व्यावसाय": 5114,
      "कारवाही": 5115,
      "##वार्य": 5116,
      "लगातार": 5117,
      "##भित्रै": 5118,
      "प्रचण्डले": 5119,
      "अनिवार्य": 5120,
      "##िएस": 5121,
      "##तावास": 5122,
      "##उनुपर्ने": 5123,
      "आयोजनाको": 5124,
      "उनीहरूको": 5125,
      "शब्द": 5126,
      "६५": 5127,
      "चयन": 5128,
      "निवास": 5129,
      "कञ्चन": 5130,
      "नियुक्ति": 5131,
      "शैक्षिक": 5132,
      "छिमेकी": 5133,
      "नरहेको": 5134,
      "टिक": 5135,
      "सध": 5136,
      "प्रारम्भ": 5137,
      "##स्थलमा": 5138,
      "सन्दर्भ": 5139,
      "तर्क": 5140,
      "एकीकृत": 5141,
      "मोदी": 5142,
      "जनप्रतिनिधि": 5143,
      "नभई": 5144,
      "दाहालले": 5145,
      "##विध": 5146,
      "धार्मिक": 5147,
      "##लन": 5148,
      "सबैको": 5149,
      "महिलाको": 5150,
      "नगरी": 5151,
      "हिंसा": 5152,
      "पुरा": 5153,
      "संघर्ष": 5154,
      "फेस": 5155,
      "लगाएर": 5156,
      "प्रतियोगितामा": 5157,
      "दलित": 5158,
      "घण्टामा": 5159,
      "##र्चु": 5160,
      "केन्द्रित": 5161,
      "सम्पत्ति": 5162,
      "केन्द्रमा": 5163,
      "तहका": 5164,
      "चौथो": 5165,
      "##ङले": 5166,
      "अफगान": 5167,
      "मार्ग": 5168,
      "बलात्कार": 5169,
      "टी": 5170,
      "तालिम": 5171,
      "भविष्य": 5172,
      "ढंग": 5173,
      "##यमा": 5174,
      "सै": 5175,
      "७६": 5176,
      "##ेलले": 5177,
      "आयोजक": 5178,
      "ज्ञवाली": 5179,
      "सिका": 5180,
      "राउ": 5181,
      "रक्षा": 5182,
      "४२": 5183,
      "अपेक्षा": 5184,
      "##विद्यु": 5185,
      "##न्यायाधीश": 5186,
      "आह्व": 5187,
      "##सीको": 5188,
      "##पिट": 5189,
      "दुर्घटनामा": 5190,
      "##रीका": 5191,
      "३७": 5192,
      "##लम्ब": 5193,
      "सरोकार": 5194,
      "रोक्न": 5195,
      "गतेदेखि": 5196,
      "##चक": 5197,
      "बाहेक": 5198,
      "##न्थ्यो": 5199,
      "ठेक्का": 5200,
      "##हरुका": 5201,
      "टेलि": 5202,
      "##द्व": 5203,
      "##चौ": 5204,
      "इट": 5205,
      "विजय": 5206,
      "बराबरको": 5207,
      "सौ": 5208,
      "हेर्दा": 5209,
      "##ियल": 5210,
      "किश": 5211,
      "चिन्ता": 5212,
      "सिर": 5213,
      "नगद": 5214,
      "प्रतिबन्ध": 5215,
      "निधन": 5216,
      "छोड": 5217,
      "हुँ": 5218,
      "परिस्थिति": 5219,
      "एमालेका": 5220,
      "होम": 5221,
      "भोग": 5222,
      "प्रतिवेद": 5223,
      "मुलुकको": 5224,
      "##ाटो": 5225,
      "##लै": 5226,
      "स्थापित": 5227,
      "##गायत": 5228,
      "##त्न": 5229,
      "३८": 5230,
      "रणनी": 5231,
      "वाम": 5232,
      "स्थित": 5233,
      "संसार": 5234,
      "भ्या": 5235,
      "मंसिर": 5236,
      "गतेसम्म": 5237,
      "पत्ता": 5238,
      "सापको": 5239,
      "दृष्टि": 5240,
      "##्रोल": 5241,
      "हित": 5242,
      "##ल्यै": 5243,
      "सम्मेलनमा": 5244,
      "रोप": 5245,
      "##ल्ड": 5246,
      "जनताले": 5247,
      "##मूल": 5248,
      "##मला": 5249,
      "कुट": 5250,
      "पाकिस्तान": 5251,
      "हेर्न": 5252,
      "जलविद्यु": 5253,
      "कानून": 5254,
      "थालेपछि": 5255,
      "अध्यादेश": 5256,
      "विभागका": 5257,
      "सकिएको": 5258,
      "रिट": 5259,
      "हाम्रा": 5260,
      "विज्ञप्तिमा": 5261,
      "आपूर्ति": 5262,
      "उपस्थित": 5263,
      "##राख": 5264,
      "##जिल": 5265,
      "पसल": 5266,
      "जमिन": 5267,
      "पहुँ": 5268,
      "##शि": 5269,
      "सम्पर्क": 5270,
      "बनाए": 5271,
      "आलोचना": 5272,
      "हासिल": 5273,
      "राजा": 5274,
      "धान": 5275,
      "पहुँच": 5276,
      "##नेको": 5277,
      "##गति": 5278,
      "पे": 5279,
      "अर्ज": 5280,
      "##स्टर": 5281,
      "खार": 5282,
      "##वनी": 5283,
      "सर्वा": 5284,
      "##प्पणी": 5285,
      "दोष": 5286,
      "लाभ": 5287,
      "आँखा": 5288,
      "मिनेट": 5289,
      "गर्नुभएको": 5290,
      "लाल": 5291,
      "उम्मेदवारी": 5292,
      "रस": 5293,
      "##वार्ड": 5294,
      "भेला": 5295,
      "प्रतिबद्धता": 5296,
      "##बारी": 5297,
      "२०७५": 5298,
      "जसमा": 5299,
      "रनको": 5300,
      "मोबाइल": 5301,
      "कुराकानी": 5302,
      "परिचालन": 5303,
      "##्याउने": 5304,
      "##सीले": 5305,
      "लिम": 5306,
      "उदा": 5307,
      "##भी": 5308,
      "आह्वान": 5309,
      "साग": 5310,
      "##तिकै": 5311,
      "##ेलिक": 5312,
      "औपचारिक": 5313,
      "##ठी": 5314,
      "चरणको": 5315,
      "##व्या": 5316,
      "सरकारमा": 5317,
      "बहस": 5318,
      "##्ल": 5319,
      "##क्सा": 5320,
      "साझ": 5321,
      "##फी": 5322,
      "रहेकाले": 5323,
      "पुनर्निर्माण": 5324,
      "कमी": 5325,
      "##र्खेत": 5326,
      "दुबै": 5327,
      "##खेल": 5328,
      "थिएँ": 5329,
      "##लालाई": 5330,
      "पक्षले": 5331,
      "दुर": 5332,
      "##चार्ज": 5333,
      "##ोले": 5334,
      "महेन्द्र": 5335,
      "विद्यालयमा": 5336,
      "अर": 5337,
      "सुख": 5338,
      "प्रतिक्रिया": 5339,
      "##तिव": 5340,
      "घटेको": 5341,
      "वडाध्यक्ष": 5342,
      "जहाँ": 5343,
      "ढु": 5344,
      "व्यवस्थाप": 5345,
      "दिनुपर्ने": 5346,
      "##दु": 5347,
      "भनाई": 5348,
      "##ाटा": 5349,
      "##नियर": 5350,
      "समूहका": 5351,
      "प्रावधान": 5352,
      "कानुनी": 5353,
      "##जनको": 5354,
      "##ुवन": 5355,
      "परिणाम": 5356,
      "##जाने": 5357,
      "##ब्र": 5358,
      "शहर": 5359,
      "निः": 5360,
      "काउ": 5361,
      "सुर्खेत": 5362,
      "##कट": 5363,
      "##वेदी": 5364,
      "दोहो": 5365,
      "मेगा": 5366,
      "चन्द": 5367,
      "नगरेको": 5368,
      "बनाइएको": 5369,
      "लो": 5370,
      "लागिएको": 5371,
      "त्रिभ": 5372,
      "चढ": 5373,
      "खतिव": 5374,
      "प्ला": 5375,
      "साझा": 5376,
      "निकट": 5377,
      "ऊर्जा": 5378,
      "##्टा": 5379,
      "व्यक्तिगत": 5380,
      "युद्ध": 5381,
      "समूहको": 5382,
      "##सिस": 5383,
      "सकि": 5384,
      "सुरुवा": 5385,
      "सपना": 5386,
      "यथा": 5387,
      "शू": 5388,
      "पञ्च": 5389,
      "चेता": 5390,
      "##कला": 5391,
      "गाउँपालिकाका": 5392,
      "विनियोजन": 5393,
      "केसीले": 5394,
      "फा": 5395,
      "विष्ट": 5396,
      "यहाँका": 5397,
      "राजस्व": 5398,
      "##वाट": 5399,
      "उपस्थिति": 5400,
      "देखिए": 5401,
      "विकासका": 5402,
      "ब्याज": 5403,
      "निषेधा": 5404,
      "मास्क": 5405,
      "नागरिकता": 5406,
      "##क्रो": 5407,
      "जनशक्ति": 5408,
      "जेल": 5409,
      "##र्या": 5410,
      "##व्यक्ति": 5411,
      "गरियो": 5412,
      "##श्र": 5413,
      "पृथ": 5414,
      "निश्चित": 5415,
      "नागरिकलाई": 5416,
      "लगाए": 5417,
      "हप्ता": 5418,
      "##मको": 5419,
      "म्य": 5420,
      "बलमा": 5421,
      "चेतावनी": 5422,
      "फल": 5423,
      "कम्तीमा": 5424,
      "स्वय": 5425,
      "पठाएको": 5426,
      "प्रधानमन्त्रीको": 5427,
      "सुवेदी": 5428,
      "सहायक": 5429,
      "अस्पतालका": 5430,
      "अर्थमन्त्री": 5431,
      "बाब": 5432,
      "गोली": 5433,
      "भग": 5434,
      "टिप्पणी": 5435,
      "पर्याप्त": 5436,
      "आधा": 5437,
      "प्रधानन्यायाधीश": 5438,
      "##िटेड": 5439,
      "##हे": 5440,
      "##ंकर": 5441,
      "त्रिभुवन": 5442,
      "सजाय": 5443,
      "बग": 5444,
      "##ियाका": 5445,
      "##िको": 5446,
      "##ुराम": 5447,
      "त्यसले": 5448,
      "वर्षका": 5449,
      "वास्त": 5450,
      "##कका": 5451,
      "उपयोग": 5452,
      "ढुंग": 5453,
      "##स्कृतिक": 5454,
      "बालुवाट": 5455,
      "स्थानीयवासी": 5456,
      "गणेश": 5457,
      "##न्दे": 5458,
      "हुन्थ्यो": 5459,
      "##हाल": 5460,
      "पालना": 5461,
      "##वनमा": 5462,
      "उपमहानगरपालिका": 5463,
      "फ्रा": 5464,
      "क्षेत्रीय": 5465,
      "समग्र": 5466,
      "मिस": 5467,
      "मगर": 5468,
      "प्रशिक्षण": 5469,
      "माया": 5470,
      "##हरा": 5471,
      "मल": 5472,
      "आशा": 5473,
      "गर्नुभयो": 5474,
      "##दिने": 5475,
      "नेताहरु": 5476,
      "##ग्रा": 5477,
      "शाक्य": 5478,
      "मिलेर": 5479,
      "वर्षअघि": 5480,
      "वाय": 5481,
      "भारतबाट": 5482,
      "चलि": 5483,
      "##दीप": 5484,
      "##रका": 5485,
      "४८": 5486,
      "समितिमा": 5487,
      "एक्स": 5488,
      "रौ": 5489,
      "बमोजिम": 5490,
      "गुरुङले": 5491,
      "##रीत": 5492,
      "##िसकेको": 5493,
      "##रोह": 5494,
      "##मे": 5495,
      "मेयर": 5496,
      "खुसी": 5497,
      "महानि": 5498,
      "सिटी": 5499,
      "पाठ": 5500,
      "समृद्धि": 5501,
      "उपयुक्त": 5502,
      "अवरुद्ध": 5503,
      "झन्": 5504,
      "पहाडी": 5505,
      "##र्प": 5506,
      "राप्र": 5507,
      "##िच": 5508,
      "##गन्ज": 5509,
      "विश्ले": 5510,
      "उत्र": 5511,
      "##ाँडा": 5512,
      "##बुक": 5513,
      "##नेछ": 5514,
      "पार्न": 5515,
      "पछा": 5516,
      "मामिला": 5517,
      "मलेस": 5518,
      "लिमिटेड": 5519,
      "##्वि": 5520,
      "##्दो": 5521,
      "प्रगति": 5522,
      "निम्ति": 5523,
      "पदमा": 5524,
      "यद्यपि": 5525,
      "थुप": 5526,
      "##भरि": 5527,
      "न्यौ": 5528,
      "व्यक्तिलाई": 5529,
      "४१": 5530,
      "प्रसारण": 5531,
      "अफगानि": 5532,
      "बीचमा": 5533,
      "##्याउन": 5534,
      "तरिका": 5535,
      "अने": 5536,
      "##डिङ": 5537,
      "एन्": 5538,
      "मेला": 5539,
      "स्वीकार": 5540,
      "विष्णु": 5541,
      "युरोप": 5542,
      "उहाँको": 5543,
      "असन्तु": 5544,
      "ओभरमा": 5545,
      "##स्को": 5546,
      "निष्कर्ष": 5547,
      "##ुञ्ज": 5548,
      "तेल": 5549,
      "बिदा": 5550,
      "नजिकै": 5551,
      "खस": 5552,
      "मार्फत": 5553,
      "सेन्टर": 5554,
      "##मुक्त": 5555,
      "##स्की": 5556,
      "पहिला": 5557,
      "एमालेले": 5558,
      "##न्तव्य": 5559,
      "५१": 5560,
      "बर्": 5561,
      "दुख": 5562,
      "नदिने": 5563,
      "डिभिजन": 5564,
      "##रूप": 5565,
      "राजेन्द्र": 5566,
      "सबैले": 5567,
      "खतिवडा": 5568,
      "शून्य": 5569,
      "तु": 5570,
      "इन्ड": 5571,
      "तो": 5572,
      "##नुहुन्छ": 5573,
      "फर्का": 5574,
      "बलि": 5575,
      "यौ": 5576,
      "##तिको": 5577,
      "छिटो": 5578,
      "साधारण": 5579,
      "पाइन्छ": 5580,
      "विजेता": 5581,
      "ते": 5582,
      "##न्देही": 5583,
      "भाषा": 5584,
      "देखा": 5585,
      "चुना": 5586,
      "फाइदा": 5587,
      "##बे": 5588,
      "##ट्टा": 5589,
      "व्यापारी": 5590,
      "बन्दै": 5591,
      "##फाइन": 5592,
      "न्यौपा": 5593,
      "लगाइएको": 5594,
      "##एल": 5595,
      "संकट": 5596,
      "##ण्डा": 5597,
      "##सू": 5598,
      "सप्त": 5599,
      "##्स": 5600,
      "उत्प": 5601,
      "##कुमारी": 5602,
      "देखाएको": 5603,
      "गोरखा": 5604,
      "##मार्ट": 5605,
      "हवाई": 5606,
      "७७": 5607,
      "४३": 5608,
      "जर्म": 5609,
      "ध्याना": 5610,
      "##धुनिक": 5611,
      "उचित": 5612,
      "निरन्तरता": 5613,
      "३९": 5614,
      "क्रा": 5615,
      "##छु": 5616,
      "##नाका": 5617,
      "सुनस": 5618,
      "निःशुल्क": 5619,
      "अक्सिजन": 5620,
      "##्लो": 5621,
      "##सर": 5622,
      "राजदूत": 5623,
      "मोड": 5624,
      "गाउँपालिकामा": 5625,
      "##मका": 5626,
      "##ज्ञानिक": 5627,
      "##ोत्त": 5628,
      "मोर्च": 5629,
      "४४": 5630,
      "थोर": 5631,
      "##र्घ": 5632,
      "##यन्त्र": 5633,
      "अस्पतालको": 5634,
      "राप्रपा": 5635,
      "निर्माणमा": 5636,
      "रमा": 5637,
      "चीनले": 5638,
      "सेनाले": 5639,
      "उपकरण": 5640,
      "निवेदन": 5641,
      "नगरपालिकाको": 5642,
      "तलब": 5643,
      "##द्रा": 5644,
      "घटनामा": 5645,
      "ज्ञान": 5646,
      "##ित्ता": 5647,
      "हेर्ने": 5648,
      "गठबन्धन": 5649,
      "करी": 5650,
      "बालिका": 5651,
      "प्रवाह": 5652,
      "##कृष्ण": 5653,
      "##ैमा": 5654,
      "रोकथा": 5655,
      "आयोगको": 5656,
      "##रहे": 5657,
      "होस्": 5658,
      "##ाइँ": 5659,
      "गरिन्": 5660,
      "लैज": 5661,
      "##्याल": 5662,
      "अदालतको": 5663,
      "##वस्तु": 5664,
      "संसदमा": 5665,
      "व्यवस्थित": 5666,
      "आउँछ": 5667,
      "एकजना": 5668,
      "थान": 5669,
      "ध्यानाकर्षण": 5670,
      "आवाज": 5671,
      "##आइ": 5672,
      "५२": 5673,
      "लाइन": 5674,
      "अर्य": 5675,
      "##तिहासिक": 5676,
      "बेप": 5677,
      "दर्जन": 5678,
      "त्यसो": 5679,
      "खर्ब": 5680,
      "अभ्यास": 5681,
      "आकर्ष": 5682,
      "प्राथमिकता": 5683,
      "सन्दर्भमा": 5684,
      "बहुमत": 5685,
      "महत्": 5686,
      "औँ": 5687,
      "##वत": 5688,
      "अवै": 5689,
      "##टु": 5690,
      "##र्नु": 5691,
      "##नीले": 5692,
      "##सेवा": 5693,
      "##ब्जा": 5694,
      "बस्ती": 5695,
      "खाद्य": 5696,
      "राईले": 5697,
      "ढंगले": 5698,
      "पाण्डे": 5699,
      "न्यु": 5700,
      "नम्बरको": 5701,
      "##हिल्यै": 5702,
      "आस": 5703,
      "गल्": 5704,
      "पुँजी": 5705,
      "नारा": 5706,
      "##ंकन": 5707,
      "भइरहेका": 5708,
      "खनाल": 5709,
      "सेत": 5710,
      "श्रमिक": 5711,
      "लिइ": 5712,
      "व्यावसायिक": 5713,
      "क्यान": 5714,
      "उसको": 5715,
      "फ्रान्स": 5716,
      "चालु": 5717,
      "##भार": 5718,
      "पर्सा": 5719,
      "निरीक्षक": 5720,
      "डर": 5721,
      "##विरुद्धको": 5722,
      "ठाकुर": 5723,
      "मतदाता": 5724,
      "सही": 5725,
      "##पे": 5726,
      "अवरोध": 5727,
      "द्वन्द": 5728,
      "बढाएको": 5729,
      "कमल": 5730,
      "निकुञ्ज": 5731,
      "##नालाई": 5732,
      "फेसबुक": 5733,
      "##चर": 5734,
      "##धानमन्त्री": 5735,
      "छलफलमा": 5736,
      "दस": 5737,
      "एजेन्": 5738,
      "समयदेखि": 5739,
      "##मल": 5740,
      "राणा": 5741,
      "मानसिक": 5742,
      "भोट": 5743,
      "##ाइनमा": 5744,
      "इलाका": 5745,
      "##ज्": 5746,
      "त्यस्ता": 5747,
      "दूतावास": 5748,
      "पठाउने": 5749,
      "##भूत": 5750,
      "खतरा": 5751,
      "एश": 5752,
      "ऐतिहासिक": 5753,
      "थिय": 5754,
      "क्रान्ति": 5755,
      "जय": 5756,
      "अप्र": 5757,
      "अस्पतालले": 5758,
      "सल": 5759,
      "आइपुग": 5760,
      "अभिभाव": 5761,
      "प्राकृतिक": 5762,
      "सहयोगमा": 5763,
      "##मेल": 5764,
      "थोरै": 5765,
      "समयमै": 5766,
      "##ामर्श": 5767,
      "छै": 5768,
      "जनतालाई": 5769,
      "२०७४": 5770,
      "गाउँपालिकाको": 5771,
      "म्याद": 5772,
      "दीपक": 5773,
      "जडान": 5774,
      "भएकी": 5775,
      "कतै": 5776,
      "रावल": 5777,
      "चिस": 5778,
      "आफैँ": 5779,
      "##ग्राही": 5780,
      "##भे": 5781,
      "रिज": 5782,
      "जनकपुर": 5783,
      "##चे": 5784,
      "नसक्दा": 5785,
      "कार्कीले": 5786,
      "गाँ": 5787,
      "उपत्यकामा": 5788,
      "बहि": 5789,
      "फोटो": 5790,
      "बासि": 5791,
      "नागरिकको": 5792,
      "##षा": 5793,
      "संघका": 5794,
      "फूल": 5795,
      "प्रयोगशाला": 5796,
      "चुनावी": 5797,
      "नेकपाका": 5798,
      "एमालेको": 5799,
      "विश्वकप": 5800,
      "##कूल": 5801,
      "मुद्दामा": 5802,
      "पेट्रोल": 5803,
      "ज्य": 5804,
      "अभिने": 5805,
      "गणतन्त्र": 5806,
      "हिसाबले": 5807,
      "बेपत्ता": 5808,
      "नायब": 5809,
      "पन्त": 5810,
      "माध्यमबाट": 5811,
      "##हरी": 5812,
      "इच्छ": 5813,
      "सक्छन्": 5814,
      "##औँ": 5815,
      "गृहमन्त्री": 5816,
      "झु": 5817,
      "##क्षी": 5818,
      "##प्टर": 5819,
      "##गु": 5820,
      "चित्र": 5821,
      "थालिएको": 5822,
      "पर्यटकीय": 5823,
      "स्वागत": 5824,
      "##व्यापी": 5825,
      "मू": 5826,
      "न्यौपाने": 5827,
      "लाग्यो": 5828,
      "आर्म": 5829,
      "कुरामा": 5830,
      "##दिएको": 5831,
      "मोह": 5832,
      "लगाइ": 5833,
      "हल": 5834,
      "पार्टीमा": 5835,
      "पु¥": 5836,
      "बजेसम्म": 5837,
      "##ुरू": 5838,
      "##नय": 5839,
      "बोल्दै": 5840,
      "प्राधिकरणले": 5841,
      "##ूट": 5842,
      "##रूपमा": 5843,
      "दावी": 5844,
      "परामर्श": 5845,
      "४६": 5846,
      "सुन्दर": 5847,
      "##स्वा": 5848,
      "विगतमा": 5849,
      "मण्ड": 5850,
      "प्रवृत्ति": 5851,
      "आयोगका": 5852,
      "अमेरिकामा": 5853,
      "हक": 5854,
      "गराए": 5855,
      "सीमित": 5856,
      "विपक्षी": 5857,
      "दौ": 5858,
      "बर": 5859,
      "श्रील": 5860,
      "प्ले": 5861,
      "ठेक": 5862,
      "कार्ड": 5863,
      "भएमा": 5864,
      "पछाडि": 5865,
      "##पूर्वक": 5866,
      "##हरुसँग": 5867,
      "व्यक्तिले": 5868,
      "चोरी": 5869,
      "द्वन्द्व": 5870,
      "##ल्पा": 5871,
      "##यौं": 5872,
      "नाट": 5873,
      "फ्र": 5874,
      "वायु": 5875,
      "खारेज": 5876,
      "आधिका": 5877,
      "५६": 5878,
      "बोल": 5879,
      "##विन्द": 5880,
      "##पात": 5881,
      "##घन": 5882,
      "हेट": 5883,
      "आवेद": 5884,
      "आइसोले": 5885,
      "खोला": 5886,
      "रिस": 5887,
      "##जसो": 5888,
      "ल्याइएको": 5889,
      "पोज": 5890,
      "अन्न": 5891,
      "##ानले": 5892,
      "##ेन्टि": 5893,
      "एवम्": 5894,
      "वृद्ध": 5895,
      "४७": 5896,
      "गौतमले": 5897,
      "गइ": 5898,
      "काठमाडौंको": 5899,
      "२०७६": 5900,
      "७२": 5901,
      "##विन": 5902,
      "चुनावमा": 5903,
      "##ोस": 5904,
      "डेढ": 5905,
      "बुटवल": 5906,
      "जापान": 5907,
      "प्याक": 5908,
      "##वर्ष": 5909,
      "धनु": 5910,
      "##शाली": 5911,
      "सर्वाधिक": 5912,
      "उदय": 5913,
      "५३": 5914,
      "आउट": 5915,
      "खोजेको": 5916,
      "सत": 5917,
      "##जुली": 5918,
      "सब": 5919,
      "बार्सि": 5920,
      "भारतका": 5921,
      "लक्षण": 5922,
      "डुब": 5923,
      "बम": 5924,
      "महोत्": 5925,
      "सरकारसँग": 5926,
      "दशक": 5927,
      "लक्षित": 5928,
      "सांस्कृतिक": 5929,
      "गरिनेछ": 5930,
      "##टीमा": 5931,
      "##गण": 5932,
      "पोल": 5933,
      "जरि": 5934,
      "हाफ": 5935,
      "##हरूका": 5936,
      "प्रकृति": 5937,
      "##जस्तै": 5938,
      "बार्सिलो": 5939,
      "बेलामा": 5940,
      "सिद्धान्त": 5941,
      "उत्सा": 5942,
      "##ेकाले": 5943,
      "भोलि": 5944,
      "उत्पन्न": 5945,
      "##न्यास": 5946,
      "कूल": 5947,
      "टाइ": 5948,
      "करीब": 5949,
      "खेल्न": 5950,
      "गाई": 5951,
      "नवल": 5952,
      "दुरुपयोग": 5953,
      "स्वास्थ्यकर्मी": 5954,
      "##द्र्": 5955,
      "अप्": 5956,
      "प्रबन्ध": 5957,
      "महोत्सव": 5958,
      "##निया": 5959,
      "महिनाको": 5960,
      "ज्व": 5961,
      "आरोपमा": 5962,
      "नेप्": 5963,
      "बाँड": 5964,
      "लागु": 5965,
      "गाउँपालिकाले": 5966,
      "अग्": 5967,
      "४९": 5968,
      "रेग्": 5969,
      "##ध्यापक": 5970,
      "अवार्ड": 5971,
      "##रल": 5972,
      "भक्तपुर": 5973,
      "पुर्याउने": 5974,
      "##सुकै": 5975,
      "गाह": 5976,
      "नियमा": 5977,
      "गराइ": 5978,
      "रमेश": 5979,
      "स्थल": 5980,
      "शैली": 5981,
      "उपाय": 5982,
      "हिउँ": 5983,
      "सेट": 5984,
      "पशुपति": 5985,
      "चेक": 5986,
      "##गढ": 5987,
      "महानगरी": 5988,
      "सत्तारु": 5989,
      "##धुरा": 5990,
      "सदस्यीय": 5991,
      "थु": 5992,
      "देखिने": 5993,
      "सिंहले": 5994,
      "केन्द्रले": 5995,
      "समृद्ध": 5996,
      "##कारण": 5997,
      "मूल्या": 5998,
      "##र्पा": 5999,
      "हिम": 6000,
      "सत्तारुढ": 6001,
      "५४": 6002,
      "##ठन": 6003,
      "##ल्का": 6004,
      "उनीहरूलाई": 6005,
      "आवास": 6006,
      "नगरपालिकामा": 6007,
      "जितेको": 6008,
      "अभिव्यक्ति": 6009,
      "##ारीमा": 6010,
      "संख्यामा": 6011,
      "तथ्याङ्क": 6012,
      "वर्षसम्म": 6013,
      "जनाए": 6014,
      "महानगरीय": 6015,
      "##पर्यो": 6016,
      "सुनुवाइ": 6017,
      "पुस्तक": 6018,
      "##जको": 6019,
      "बराम": 6020,
      "राजपा": 6021,
      "नेताले": 6022,
      "मुक्त": 6023,
      "संकेत": 6024,
      "##र्यात": 6025,
      "भागमा": 6026,
      "##श्रम": 6027,
      "##तिका": 6028,
      "स्थानीयले": 6029,
      "आधारित": 6030,
      "गन्तव्य": 6031,
      "इतिहास": 6032,
      "चाप": 6033,
      "२०५": 6034,
      "च्याम्पियन": 6035,
      "हालै": 6036,
      "महसु": 6037,
      "चालू": 6038,
      "अष्ट्र": 6039,
      "##नीको": 6040,
      "##घा": 6041,
      "विसं": 6042,
      "खुलेको": 6043,
      "प्रिम": 6044,
      "चाम": 6045,
      "विक्र": 6046,
      "नभएका": 6047,
      "भएकोले": 6048,
      "##ममा": 6049,
      "##फो": 6050,
      "परिवारका": 6051,
      "##नारायण": 6052,
      "स्वर्ण": 6053,
      "##किङ": 6054,
      "ब्याटिङ": 6055,
      "ललितपुर": 6056,
      "तयारीमा": 6057,
      "दम": 6058,
      "खड्काले": 6059,
      "मेट": 6060,
      "नगर्न": 6061,
      "निर्यात": 6062,
      "गावि": 6063,
      "असफल": 6064,
      "ठेकेदार": 6065,
      "##म्स": 6066,
      "पानीको": 6067,
      "##जन्य": 6068,
      "बच्चा": 6069,
      "मसा": 6070,
      "दायर": 6071,
      "हस्त": 6072,
      "##क्षेत्र": 6073,
      "लेखा": 6074,
      "बस्दै": 6075,
      "भो": 6076,
      "बेल": 6077,
      "##लेट": 6078,
      "फैलिएको": 6079,
      "हुनेको": 6080,
      "समारोह": 6081,
      "अत्यन्त": 6082,
      "हुनुहुन्छ": 6083,
      "परिच": 6084,
      "ओलीलाई": 6085,
      "बेलु": 6086,
      "पुलिस": 6087,
      "५८": 6088,
      "भेटिएको": 6089,
      "संगीत": 6090,
      "सकेका": 6091,
      "जात": 6092,
      "विदेशमा": 6093,
      "##वाना": 6094,
      "जसपा": 6095,
      "##क्सी": 6096,
      "लगानीकर्ता": 6097,
      "##रुवा": 6098,
      "##लोकन": 6099,
      "शासन": 6100,
      "राज्यको": 6101,
      "यौन": 6102,
      "निरा": 6103,
      "अलग": 6104,
      "बरामद": 6105,
      "विप्": 6106,
      "किम": 6107,
      "जुम्": 6108,
      "सरुवा": 6109,
      "सन्तोष": 6110,
      "##जिलो": 6111,
      "संस्थाले": 6112,
      "##ेनि": 6113,
      "ल्याइ": 6114,
      "संक्रमणको": 6115,
      "##स्थान": 6116,
      "बढेर": 6117,
      "गाह्रो": 6118,
      "लक्ष्मी": 6119,
      "##रहँदा": 6120,
      "रोकिएको": 6121,
      "##जनक": 6122,
      "सेवन": 6123,
      "पीडा": 6124,
      "भत्ता": 6125,
      "सामना": 6126,
      "##खण्ड": 6127,
      "नवी": 6128,
      "##वालाई": 6129,
      "कार्यालयको": 6130,
      "महतो": 6131,
      "दीर्घ": 6132,
      "पशु": 6133,
      "रुपन्देही": 6134,
      "##रिङ": 6135,
      "##नीतिक": 6136,
      "उदाहरण": 6137,
      "पाइने": 6138,
      "##नित": 6139,
      "धनगढी": 6140,
      "मधेसी": 6141,
      "कर्मचारीको": 6142,
      "पर्न": 6143,
      "कार्यविधि": 6144,
      "मौका": 6145,
      "क्वारेन्टाइनमा": 6146,
      "परिवारलाई": 6147,
      "सफलता": 6148,
      "प्रजातन्त्र": 6149,
      "२०७७": 6150,
      "स्वीकृति": 6151,
      "स्कुल": 6152,
      "पठाइएको": 6153,
      "मर्मत": 6154,
      "##िकार": 6155,
      "पाउँ": 6156,
      "घटनाको": 6157,
      "आधिकारिक": 6158,
      "##किलो": 6159,
      "##एई": 6160,
      "हाँ": 6161,
      "##वश्यक": 6162,
      "६३": 6163,
      "विषयलाई": 6164,
      "##्छन्": 6165,
      "७४": 6166,
      "##ङ्गल": 6167,
      "महसुस": 6168,
      "एकल": 6169,
      "चौकी": 6170,
      "गौर": 6171,
      "विभाजन": 6172,
      "६४": 6173,
      "राष्ट्रियसभा": 6174,
      "कहिल्यै": 6175,
      "२०२०": 6176,
      "##िसे": 6177,
      "फर्किएका": 6178,
      "राजनीतिमा": 6179,
      "परम्परा": 6180,
      "चाहिँ": 6181,
      "दूध": 6182,
      "शंका": 6183,
      "मन्त्रालयमा": 6184,
      "कार्यान्वयनमा": 6185,
      "सँगै": 6186,
      "स्रोतले": 6187,
      "७८": 6188,
      "महत्त्व": 6189,
      "प्रतिपक्षी": 6190,
      "काराग": 6191,
      "मानिसको": 6192,
      "मजदुर": 6193,
      "##पत्रमा": 6194,
      "##गोल": 6195,
      "##टिल": 6196,
      "यसबाट": 6197,
      "ह्या": 6198,
      "सेनाको": 6199,
      "##िब": 6200,
      "क्यान्स": 6201,
      "सम्पाद": 6202,
      "##रोधी": 6203,
      "टीका": 6204,
      "##म्बु": 6205,
      "८५": 6206,
      "लामि": 6207,
      "मी": 6208,
      "विप्लव": 6209,
      "##धिकार": 6210,
      "टिकट": 6211,
      "संविधानसभा": 6212,
      "सुत्": 6213,
      "तिर": 6214,
      "##क्कै": 6215,
      "५७": 6216,
      "पहिलोपटक": 6217,
      "यसबारे": 6218,
      "पाण्डेले": 6219,
      "खाली": 6220,
      "##ियत": 6221,
      "लागेर": 6222,
      "कक्ष": 6223,
      "प्रदीप": 6224,
      "मसान्त": 6225,
      "जसरी": 6226,
      "वैज्ञानिक": 6227,
      "चाड": 6228,
      "डोज": 6229,
      "संवाद": 6230,
      "##इँ": 6231,
      "भरतपुर": 6232,
      "आगलाग": 6233,
      "मक": 6234,
      "##विद्": 6235,
      "तथ्य": 6236,
      "उड": 6237,
      "##गरमा": 6238,
      "कास्की": 6239,
      "उद्देश्यले": 6240,
      "काली": 6241,
      "जोश": 6242,
      "विकासको": 6243,
      "सडकको": 6244,
      "हुनेछन्": 6245,
      "##प्ले": 6246,
      "राख्दै": 6247,
      "दिनसम्म": 6248,
      "थुप्रै": 6249,
      "ल्याएर": 6250,
      "##न्टा": 6251,
      "स्वाब": 6252,
      "पूर्वी": 6253,
      "पारे": 6254,
      "भएसँगै": 6255,
      "नक्सा": 6256,
      "१००": 6257,
      "##थम": 6258,
      "कामको": 6259,
      "##खित": 6260,
      "हुनसक्ने": 6261,
      "गोविन्द": 6262,
      "परे": 6263,
      "भीड": 6264,
      "लैजाने": 6265,
      "ग्राहक": 6266,
      "अलि": 6267,
      "नभएर": 6268,
      "खाद्या": 6269,
      "अस्ट्र": 6270,
      "मेसिन": 6271,
      "भइसकेका": 6272,
      "निर्वाचनको": 6273,
      "##भेद": 6274,
      "प्रारम्भिक": 6275,
      "क्षेत्रलाई": 6276,
      "##र्दै": 6277,
      "बौ": 6278,
      "##काे": 6279,
      "##धीन": 6280,
      "##शासन": 6281,
      "नाफा": 6282,
      "बिजुली": 6283,
      "नियमावली": 6284,
      "आउँदा": 6285,
      "##योजना": 6286,
      "बासिन्दा": 6287,
      "लामिछा": 6288,
      "अमेरिकाको": 6289,
      "ठहर": 6290,
      "हुँदैछ": 6291,
      "इर": 6292,
      "कोइरालाले": 6293,
      "##वद्ध": 6294,
      "वृ": 6295,
      "चिया": 6296,
      "सुनिश्चित": 6297,
      "अपा": 6298,
      "आवेदन": 6299,
      "सुनाए": 6300,
      "##तीको": 6301,
      "प्रतियोगिताको": 6302,
      "इन्जि": 6303,
      "भुस": 6304,
      "रगत": 6305,
      "खाँ": 6306,
      "पछिल्ला": 6307,
      "प्रतिवेदनमा": 6308,
      "अष्ट्रेल": 6309,
      "हतियार": 6310,
      "##नेन्द्र": 6311,
      "अवैध": 6312,
      "ढकालले": 6313,
      "##वनको": 6314,
      "##फोट": 6315,
      "विज्ञप्ति": 6316,
      "कन्ट": 6317,
      "लाग्न": 6318,
      "टुंगो": 6319,
      "##ाए": 6320,
      "सिँ": 6321,
      "##भाइरस": 6322,
      "यसपटक": 6323,
      "विद्युतीय": 6324,
      "कर्मचारीलाई": 6325,
      "कठिन": 6326,
      "जोडिएको": 6327,
      "##यले": 6328,
      "रोज": 6329,
      "७३": 6330,
      "अस्था": 6331,
      "तोकेको": 6332,
      "बारा": 6333,
      "##ालका": 6334,
      "सिने": 6335,
      "खण्डमा": 6336,
      "सजिलो": 6337,
      "##सक्छ": 6338,
      "##टेड": 6339,
      "##राष्ट्रिय": 6340,
      "तोड": 6341,
      "समाजमा": 6342,
      "##्यता": 6343,
      "नदीमा": 6344,
      "कित्ता": 6345,
      "स्वीकृत": 6346,
      "हावा": 6347,
      "चलाउन": 6348,
      "शेर्पा": 6349,
      "मञ्च": 6350,
      "काँ": 6351,
      "नेपालीको": 6352,
      "भोज": 6353,
      "तल": 6354,
      "मिश्र": 6355,
      "निम": 6356,
      "पुगे": 6357,
      "रक्त": 6358,
      "वर्षपछि": 6359,
      "##र्दा": 6360,
      "##भाविक": 6361,
      "##द्योग": 6362,
      "जरिवाना": 6363,
      "लघ": 6364,
      "##ीप": 6365,
      "आत": 6366,
      "परिचय": 6367,
      "बोकेर": 6368,
      "बहादुर": 6369,
      "६१": 6370,
      "अन्": 6371,
      "चौधरीले": 6372,
      "अत्यावश्यक": 6373,
      "प्राय": 6374,
      "कोठ": 6375,
      "##र्को": 6376,
      "फोहोर": 6377,
      "टोल": 6378,
      "पर्ख": 6379,
      "केन्द्रको": 6380,
      "बसो": 6381,
      "बैंकका": 6382,
      "गुट": 6383,
      "सरोकारवाला": 6384,
      "सुनको": 6385,
      "६२": 6386,
      "##दीको": 6387,
      "नदि": 6388,
      "##्र्": 6389,
      "प्रशासनले": 6390,
      "बाढ": 6391,
      "संस्थागत": 6392,
      "विकासमा": 6393,
      "खाद्यान्न": 6394,
      "निकालेको": 6395,
      "बढ्दो": 6396,
      "प्रहरीका": 6397,
      "कोरोनाभाइरस": 6398,
      "जटिल": 6399,
      "##लुङ": 6400,
      "स्वयं": 6401,
      "##क्ल": 6402,
      "##िएन": 6403,
      "पालिका": 6404,
      "सवारीसा": 6405,
      "पीसी": 6406,
      "आउँदै": 6407,
      "##ालगायत": 6408,
      "लेखेका": 6409,
      "मकवान": 6410,
      "काभ": 6411,
      "जोड्ने": 6412,
      "पाउ": 6413,
      "५९": 6414,
      "रात": 6415,
      "समूहमा": 6416,
      "साझेद": 6417,
      "अभिनय": 6418,
      "रहेर": 6419,
      "प्रक्रियामा": 6420,
      "##ाममा": 6421,
      "##जुर": 6422,
      "अफ्र": 6423,
      "विना": 6424,
      "##पर्छ": 6425,
      "शिक्षण": 6426,
      "असह": 6427,
      "सरस": 6428,
      "विश्लेषण": 6429,
      "कार्यक्रमको": 6430,
      "महिलालाई": 6431,
      "पिस": 6432,
      "##ौल": 6433,
      "जलविद्युत्": 6434,
      "पस": 6435,
      "चोक": 6436,
      "शुरू": 6437,
      "नदिन": 6438,
      "##यल": 6439,
      "सिन्धु": 6440,
      "##सीय": 6441,
      "औद्योग": 6442,
      "प्रतिनिधित्व": 6443,
      "##ाउको": 6444,
      "आधुनिक": 6445,
      "दीप": 6446,
      "दरबार": 6447,
      "##स्वास्थ्य": 6448,
      "##घर": 6449,
      "##जनमा": 6450,
      "कतार": 6451,
      "आगो": 6452,
      "गर्नेछन्": 6453,
      "बाध्यता": 6454,
      "तनाव": 6455,
      "नपाउने": 6456,
      "माथिल्लो": 6457,
      "आन्दोलनमा": 6458,
      "##यान": 6459,
      "नेताहरुले": 6460,
      "अस्ट्रेल": 6461,
      "छुट्टै": 6462,
      "प्रकाशन": 6463,
      "स्मार्ट": 6464,
      "बाँध": 6465,
      "##ेवार": 6466,
      "त्यतिबेला": 6467,
      "बराबरी": 6468,
      "२०७२": 6469,
      "##ुवानी": 6470,
      "रेक": 6471,
      "निर्वाह": 6472,
      "सल्लाहकार": 6473,
      "विश्वासको": 6474,
      "सङ्कलन": 6475,
      "तस्क": 6476,
      "##बजार": 6477,
      "उपप्रमुख": 6478,
      "रातो": 6479,
      "न्यूनतम": 6480,
      "बिरामीको": 6481,
      "बुझ्न": 6482,
      "बाबु": 6483,
      "निषेधाज्ञा": 6484,
      "बाँच": 6485,
      "##कल्प": 6486,
      "गरिसकेका": 6487,
      "मिल": 6488,
      "ढुवानी": 6489,
      "एण्ड": 6490,
      "बाबुराम": 6491,
      "स्वार्थ": 6492,
      "कसैलाई": 6493,
      "रामचन्द्र": 6494,
      "##झदारी": 6495,
      "घो": 6496,
      "आयोजनामा": 6497,
      "बनि": 6498,
      "दायित्व": 6499,
      "अस्वी": 6500,
      "##रहने": 6501,
      "रौतह": 6502,
      "उता": 6503,
      "अस्थायी": 6504,
      "आउनु": 6505,
      "जोखिममा": 6506,
      "झर": 6507,
      "##म्बुले": 6508,
      "##क्कर": 6509,
      "सफा": 6510,
      "७१": 6511,
      "##चु": 6512,
      "##ुरो": 6513,
      "##विहीन": 6514,
      "घरको": 6515,
      "कपिल": 6516,
      "विश्वका": 6517,
      "रहन": 6518,
      "##ल्स": 6519,
      "स्टार": 6520,
      "६६": 6521,
      "अन्तरि": 6522,
      "चलाउने": 6523,
      "छि": 6524,
      "कन्": 6525,
      "सभामा": 6526,
      "##हिर": 6527,
      "##थी": 6528,
      "##द्रो": 6529,
      "स्मरण": 6530,
      "गएपछि": 6531,
      "##ानै": 6532,
      "खासै": 6533,
      "कार्यसमिति": 6534,
      "वर्षे": 6535,
      "एकद": 6536,
      "##फर": 6537,
      "##तडी": 6538,
      "##त्वमा": 6539,
      "बजेदेखि": 6540,
      "आशंका": 6541,
      "६८": 6542,
      "##धारित": 6543,
      "अर्जुन": 6544,
      "कम्पनीका": 6545,
      "माछा": 6546,
      "हिन्द": 6547,
      "निज": 6548,
      "घाँ": 6549,
      "संघले": 6550,
      "बौद्ध": 6551,
      "##ियाँ": 6552,
      "नल": 6553,
      "क्रियाशील": 6554,
      "आफु": 6555,
      "तस्": 6556,
      "पीसीआर": 6557,
      "नदेख": 6558,
      "##मुना": 6559,
      "##ारीले": 6560,
      "देखियो": 6561,
      "दलले": 6562,
      "##टाएर": 6563,
      "दिनदेखि": 6564,
      "६७": 6565,
      "भावना": 6566,
      "सेमि": 6567,
      "रह्यो": 6568,
      "क्रमश": 6569,
      "झन्ड": 6570,
      "पार्टीलाई": 6571,
      "एप": 6572,
      "##लाइन्स": 6573,
      "आचार्यले": 6574,
      "९५": 6575,
      "इंग": 6576,
      "लामिछाने": 6577,
      "##उड": 6578,
      "गुणस्तर": 6579,
      "कैद": 6580,
      "प्रष्ट": 6581,
      "##र्फत्": 6582,
      "##भु": 6583,
      "##कामना": 6584,
      "##राव": 6585,
      "चल्ने": 6586,
      "एल": 6587,
      "बैतडी": 6588,
      "आधारभूत": 6589,
      "सिम": 6590,
      "नोट": 6591,
      "बर्द": 6592,
      "##नीय": 6593,
      "##टि": 6594,
      "##फ्ट": 6595,
      "सिरि": 6596,
      "पार्टीभित्र": 6597,
      "कपडा": 6598,
      "##ताब": 6599,
      "##हत्या": 6600,
      "##वार्ता": 6601,
      "पुराना": 6602,
      "बागमती": 6603,
      "चर्चित": 6604,
      "##फ्": 6605,
      "कूट": 6606,
      "##ठो": 6607,
      "फरार": 6608,
      "ज्ञानेन्द्र": 6609,
      "अमेरिकाले": 6610,
      "##सङ्घ": 6611,
      "##हरूसँग": 6612,
      "माधवकुमार": 6613,
      "##र्देश": 6614,
      "कर्मचारीले": 6615,
      "मासु": 6616,
      "झन्डै": 6617,
      "सङ्ग": 6618,
      "तन": 6619,
      "हैन": 6620,
      "राखे": 6621,
      "अभियोग": 6622,
      "##टरमा": 6623,
      "##नन्द": 6624,
      "औद्योगिक": 6625,
      "सन्दीप": 6626,
      "पश्च": 6627,
      "रणनीति": 6628,
      "एमसीसी": 6629,
      "##सीमा": 6630,
      "##चोक": 6631,
      "इलाम": 6632,
      "अनुहार": 6633,
      "##्याएको": 6634,
      "मात्रा": 6635,
      "##ल्पना": 6636,
      "प्रथम": 6637,
      "प्रिमियर": 6638,
      "अलपत्र": 6639,
      "प्रोत्": 6640,
      "गर्द": 6641,
      "महिलाले": 6642,
      "विविध": 6643,
      "घुम्": 6644,
      "##दरबार": 6645,
      "अप्ठ": 6646,
      "चिकित्सा": 6647,
      "##एसपी": 6648,
      "श्रीलंका": 6649,
      "नेपालगञ्ज": 6650,
      "प्रहरीलाई": 6651,
      "म्याग्": 6652,
      "राना": 6653,
      "शरीर": 6654,
      "दफा": 6655,
      "ट्रम्पले": 6656,
      "भन्नु": 6657,
      "##दृ": 6658,
      "##्चोक": 6659,
      "मिल्ने": 6660,
      "राज्यले": 6661,
      "पूर": 6662,
      "##डाइ": 6663,
      "कार्यकाल": 6664,
      "समी": 6665,
      "छाप": 6666,
      "##र्तालाई": 6667,
      "तिहार": 6668,
      "बुढा": 6669,
      "हुनेमा": 6670,
      "यसैबीच": 6671,
      "पत्": 6672,
      "प्रोत्सा": 6673,
      "सञ्चारमा": 6674,
      "खनालले": 6675,
      "बरु": 6676,
      "बाटोमा": 6677,
      "नरेन्द्र": 6678,
      "##करणमा": 6679,
      "जान्छ": 6680,
      "नसकिने": 6681,
      "उत्त": 6682,
      "एन्फा": 6683,
      "बस्नेत": 6684,
      "साउदी": 6685,
      "प्राथमिकतामा": 6686,
      "वास्तविक": 6687,
      "सिन्धुपाल": 6688,
      "प्रवद्र्": 6689,
      "दरले": 6690,
      "##गमा": 6691,
      "##जमा": 6692,
      "विश्वभर": 6693,
      "सेवाग्राही": 6694,
      "परिसू": 6695,
      "व्यवसायीले": 6696,
      "##सम्": 6697,
      "व्यस्त": 6698,
      "स्कु": 6699,
      "पढाइ": 6700,
      "##परा": 6701,
      "समायोजन": 6702,
      "मूल्यमा": 6703,
      "पोस्ट": 6704,
      "##ँदे": 6705,
      "इन्द्र": 6706,
      "व्यापक": 6707,
      "अधिवक्ता": 6708,
      "केहि": 6709,
      "हटाउन": 6710,
      "##भने": 6711,
      "चर": 6712,
      "मधेश": 6713,
      "भेटघाट": 6714,
      "सतर्क": 6715,
      "शुभकामना": 6716,
      "##िनो": 6717,
      "##ुप्": 6718,
      "क्षेत्रबाट": 6719,
      "रंगशाला": 6720,
      "घरमै": 6721,
      "थिएनन्": 6722,
      "##यनको": 6723,
      "२०४": 6724,
      "चलन": 6725,
      "दिएपछि": 6726,
      "##वहार": 6727,
      "##दिए": 6728,
      "सिमा": 6729,
      "##र्ना": 6730,
      "##प्ने": 6731,
      "एन्ड": 6732,
      "ताप": 6733,
      "सुरुमा": 6734,
      "पाकिस्त": 6735,
      "##खन": 6736,
      "महामन्त्री": 6737,
      "##जात": 6738,
      "केश": 6739,
      "पृथ्वी": 6740,
      "यहाँको": 6741,
      "ब्राजिल": 6742,
      "बिता": 6743,
      "##ञ्चल": 6744,
      "नियन्त्रणका": 6745,
      "सिन्धुपाल्चोक": 6746,
      "पत्रिका": 6747,
      "बन्दा": 6748,
      "रेकर्ड": 6749,
      "मात्रामा": 6750,
      "सङ्घीय": 6751,
      "प्रतिपक्ष": 6752,
      "हाउ": 6753,
      "सेमिफाइन": 6754,
      "चोट": 6755,
      "विव": 6756,
      "आउँ": 6757,
      "साध": 6758,
      "बिग्र": 6759,
      "लागत": 6760,
      "१९९": 6761,
      "##हिरो": 6762,
      "##िँदै": 6763,
      "##ेन्ड": 6764,
      "##न्सि": 6765,
      "डिस्": 6766,
      "पुर्याउन": 6767,
      "एफ": 6768,
      "सकेनन्": 6769,
      "पुस्ता": 6770,
      "टाउको": 6771,
      "रोकथाम": 6772,
      "##स्पद": 6773,
      "कविता": 6774,
      "##्दैन": 6775,
      "मासिक": 6776,
      "भत्का": 6777,
      "##वृद्धि": 6778,
      "इन": 6779,
      "टाढा": 6780,
      "##ल्दा": 6781,
      "##नुपा": 6782,
      "##जे": 6783,
      "##सम्मका": 6784,
      "##टीको": 6785,
      "सुरुवात": 6786,
      "समझदारी": 6787,
      "हेरेर": 6788,
      "रनमा": 6789,
      "##लिङ": 6790,
      "जोशी": 6791,
      "चिसो": 6792,
      "परिवारको": 6793,
      "मदन": 6794,
      "कार्यमा": 6795,
      "महामारीको": 6796,
      "खरी": 6797,
      "##स्ने": 6798,
      "##टका": 6799,
      "कोरोनाका": 6800,
      "अर्थात": 6801,
      "९९": 6802,
      "एकीकरण": 6803,
      "##िनमा": 6804,
      "सम्पदा": 6805,
      "चलिरहेको": 6806,
      "महोत्त": 6807,
      "पात्र": 6808,
      "वटै": 6809,
      "विस्": 6810,
      "बस्नेतले": 6811,
      "##पुल": 6812,
      "रुकु": 6813,
      "ग्रामी": 6814,
      "##००": 6815,
      "सगरमा": 6816,
      "जनस्वास्थ्य": 6817,
      "नपुग": 6818,
      "##र्की": 6819,
      "मित्र": 6820,
      "ग्यास": 6821,
      "##नुपातिक": 6822,
      "गुल्": 6823,
      "तालिका": 6824,
      "अथ": 6825,
      "पाल्": 6826,
      "सूचीमा": 6827,
      "रेडियो": 6828,
      "हात्ती": 6829,
      "सञ्चारमाध्यम": 6830,
      "दाजु": 6831,
      "##ह्न": 6832,
      "नच": 6833,
      "शास": 6834,
      "##्नुपर्छ": 6835,
      "संस्थाको": 6836,
      "प्रादेशिक": 6837,
      "सञ्चालित": 6838,
      "##पोख": 6839,
      "आकाश": 6840,
      "##पार्क": 6841,
      "अडान": 6842,
      "खुशी": 6843,
      "##पाट": 6844,
      "##लाही": 6845,
      "आत्महत्या": 6846,
      "एम्बुले": 6847,
      "करण": 6848,
      "##यको": 6849,
      "कीर्ति": 6850,
      "मेलम्": 6851,
      "अश": 6852,
      "अबको": 6853,
      "सामूह": 6854,
      "६९": 6855,
      "संचालन": 6856,
      "ग्रामीण": 6857,
      "निर्मा": 6858,
      "निर्धारित": 6859,
      "सहसचिव": 6860,
      "हैसिय": 6861,
      "उपचारको": 6862,
      "सामूहिक": 6863,
      "##निय": 6864,
      "उज": 6865,
      "##िसकेका": 6866,
      "शाहीले": 6867,
      "बिना": 6868,
      "पु¥य": 6869,
      "रुपैयाँको": 6870,
      "##क्सन": 6871,
      "सिँचाइ": 6872,
      "##यमित": 6873,
      "बसि": 6874,
      "महाशाखाले": 6875,
      "हातमा": 6876,
      "##कल्पिक": 6877,
      "जंग": 6878,
      "##ितो": 6879,
      "समानुपातिक": 6880,
      "ग्रहण": 6881,
      "थपिएका": 6882,
      "पदक": 6883,
      "अभियानमा": 6884,
      "##सकेपछि": 6885,
      "##फोन": 6886,
      "सगरमाथा": 6887,
      "ज्या": 6888,
      "विमानस्थलमा": 6889,
      "युवराज": 6890,
      "आइसोलेस": 6891,
      "##क्रा": 6892,
      "निगर": 6893,
      "लिखित": 6894,
      "ज्ञवालीले": 6895,
      "संक्रमणबाट": 6896,
      "पक्षका": 6897,
      "तनहुँ": 6898,
      "मल्ल": 6899,
      "##स्यौ": 6900,
      "एम्बुलेन्स": 6901,
      "##ण्ट": 6902,
      "नलाग": 6903,
      "सुरक्षाकर्मी": 6904,
      "पठाउन": 6905,
      "उल्ल": 6906,
      "अविश्वास": 6907,
      "##नीमा": 6908,
      "##ाधीन": 6909,
      "सर्लाही": 6910,
      "७९": 6911,
      "भूभाग": 6912,
      "निगरानी": 6913,
      "ठीक": 6914,
      "अनेक": 6915,
      "अल्": 6916,
      "जोडि": 6917,
      "गाय": 6918,
      "##निर्वा": 6919,
      "##सम्ममा": 6920,
      "फुटब": 6921,
      "मौलिक": 6922,
      "##ालमा": 6923,
      "घिमिरे": 6924,
      "आपत्ति": 6925,
      "प्रसाद": 6926,
      "कमजोरी": 6927,
      "तरिकाले": 6928,
      "##िआर": 6929,
      "विद्यार्थीलाई": 6930,
      "वडामा": 6931,
      "##विप": 6932,
      "##ानका": 6933,
      "##नाइटेड": 6934,
      "लहर": 6935,
      "किसानले": 6936,
      "सिजन": 6937,
      "खुट": 6938,
      "खरीद": 6939,
      "चलेको": 6940,
      "गरिए": 6941,
      "##औष": 6942,
      "दिनअघि": 6943,
      "लकडाउ": 6944,
      "हुनाले": 6945,
      "उपचारमा": 6946,
      "चक्र": 6947,
      "परम्पर": 6948,
      "##ङक": 6949,
      "मुस्": 6950,
      "एनआर": 6951,
      "##डै": 6952,
      "तल्लो": 6953,
      "गर्छु": 6954,
      "दुईवटा": 6955,
      "खेलेको": 6956,
      "सालको": 6957,
      "क्रियाकला": 6958,
      "##हीँ": 6959,
      "चेत": 6960,
      "##डको": 6961,
      "काठ": 6962,
      "##ारण": 6963,
      "##प्रिय": 6964,
      "##राले": 6965,
      "##न्थे": 6966,
      "जिम्मेवार": 6967,
      "रहँदा": 6968,
      "मिडिया": 6969,
      "##रामा": 6970,
      "##र्जी": 6971,
      "##ड्ड": 6972,
      "रेख": 6973,
      "नेकपाको": 6974,
      "साझेदारी": 6975,
      "कालोपत्र": 6976,
      "मन्त्रिपरिषद": 6977,
      "मङ्गल": 6978,
      "##हारी": 6979,
      "ग्या": 6980,
      "##फे": 6981,
      "##औषध": 6982,
      "नवलपरा": 6983,
      "नेप्से": 6984,
      "##जनालाई": 6985,
      "बेड": 6986,
      "भारी": 6987,
      "##जत": 6988,
      "रहनेछ": 6989,
      "त्रास": 6990,
      "किसिमको": 6991,
      "मल्": 6992,
      "##स्थापित": 6993,
      "##ामक": 6994,
      "मानिन्छ": 6995,
      "अत्यधिक": 6996,
      "बढिरहेको": 6997,
      "पढ्न": 6998,
      "मस्यौ": 6999,
      "ढोका": 7000,
      "मोहन": 7001,
      "पर्यो": 7002,
      "##नस": 7003,
      "गयो": 7004,
      "गरेकाले": 7005,
      "##कोण": 7006,
      "परिसूचक": 7007,
      "टेलिक": 7008,
      "संसदको": 7009,
      "महामारीका": 7010,
      "सहयोगी": 7011,
      "फोरम": 7012,
      "माटो": 7013,
      "सदस्यको": 7014,
      "पारेर": 7015,
      "शेख": 7016,
      "नष्ट": 7017,
      "मेगावाट": 7018,
      "रुपैयाँमा": 7019,
      "##भूति": 7020,
      "##रिक्त": 7021,
      "##स्थापना": 7022,
      "##नोद": 7023,
      "मदि": 7024,
      "बुढ": 7025,
      "##ारको": 7026,
      "किनभने": 7027,
      "बसोबास": 7028,
      "विज्ञा": 7029,
      "प्रकारका": 7030,
      "सिक": 7031,
      "भ्रमणमा": 7032,
      "८४": 7033,
      "पूँजी": 7034,
      "खुवा": 7035,
      "बताइ": 7036,
      "महाकाली": 7037,
      "दिनेश": 7038,
      "##धारा": 7039,
      "टो": 7040,
      "८२": 7041,
      "विशेषज्ञ": 7042,
      "पूर्वप्र": 7043,
      "##न्ह": 7044,
      "क्यान्सर": 7045,
      "##ाल्डो": 7046,
      "मद्द": 7047,
      "सञ्जालमा": 7048,
      "युनाइटेड": 7049,
      "एयरलाइन्स": 7050,
      "खाता": 7051,
      "##क्षम": 7052,
      "सुपर": 7053,
      "घन्टा": 7054,
      "सदस्यले": 7055,
      "ठक्कर": 7056,
      "टन": 7057,
      "नपर्ने": 7058,
      "इम": 7059,
      "मही": 7060,
      "बिमा": 7061,
      "जाँदै": 7062,
      "##कां": 7063,
      "##ंख": 7064,
      "संविधानले": 7065,
      "बाँक": 7066,
      "९२": 7067,
      "नेताहरू": 7068,
      "विश्वव्यापी": 7069,
      "गोपाल": 7070,
      "गल्ती": 7071,
      "दूरी": 7072,
      "फिल्ममा": 7073,
      "##शेर": 7074,
      "प्रमाणपत्र": 7075,
      "कोरिया": 7076,
      "लम्ब": 7077,
      "सिंहदरबार": 7078,
      "अतिरिक्त": 7079,
      "संघको": 7080,
      "परीक्षणका": 7081,
      "जनाउँदै": 7082,
      "आसपा": 7083,
      "##लगत्तै": 7084,
      "सघ": 7085,
      "##न्या": 7086,
      "विद्यादेवी": 7087,
      "हजारभन्दा": 7088,
      "वीरेन्द्र": 7089,
      "##डामा": 7090,
      "##कालमा": 7091,
      "पर्दा": 7092,
      "यतिबेला": 7093,
      "उपेन्द्र": 7094,
      "अगुवा": 7095,
      "खतिवडाले": 7096,
      "##कर्तालाई": 7097,
      "##र्देशक": 7098,
      "परिवारले": 7099,
      "दिइने": 7100,
      "विभेद": 7101,
      "महर्जन": 7102,
      "##चो": 7103,
      "अल्प": 7104,
      "रियल": 7105,
      "युनियन": 7106,
      "वीरगञ्ज": 7107,
      "सहायता": 7108,
      "##ट्या": 7109,
      "##बुझ": 7110,
      "विद्रो": 7111,
      "तुलसी": 7112,
      "इन्ध": 7113,
      "समीक्षा": 7114,
      "विपद्": 7115,
      "८८": 7116,
      "विनोद": 7117,
      "बनाउनु": 7118,
      "हिमाली": 7119,
      "देख्न": 7120,
      "##बाबु": 7121,
      "भुट": 7122,
      "##क्रममा": 7123,
      "देखिएपछि": 7124,
      "समुदायको": 7125,
      "##न्डर": 7126,
      "बेलायत": 7127,
      "##किल": 7128,
      "तहले": 7129,
      "आगलागी": 7130,
      "गै": 7131,
      "छाडेर": 7132,
      "##ाइज": 7133,
      "संयन्त्र": 7134,
      "हकमा": 7135,
      "युवती": 7136,
      "##रास": 7137,
      "आइसोलेसनमा": 7138,
      "८१": 7139,
      "मातह": 7140,
      "लाभा": 7141,
      "दे": 7142,
      "नक्क": 7143,
      "जोगाउन": 7144,
      "##लम्बन": 7145,
      "##ित्तिकै": 7146,
      "काला": 7147,
      "ट्वी": 7148,
      "सकिनेछ": 7149,
      "##ेरु": 7150,
      "##मण्ड": 7151,
      "##्वाइ": 7152,
      "५००": 7153,
      "नक्कली": 7154,
      "उपलब्धि": 7155,
      "९१": 7156,
      "जागिर": 7157,
      "आजै": 7158,
      "वैकल्पिक": 7159,
      "पुरुषको": 7160,
      "९८": 7161,
      "##शास्त्र": 7162,
      "चामल": 7163,
      "पुग्यो": 7164,
      "जसको": 7165,
      "कुक": 7166,
      "##सेव": 7167,
      "##भक्त": 7168,
      "##दिङ": 7169,
      "प्याकेज": 7170,
      "##युद्ध": 7171,
      "नमा": 7172,
      "##पालाई": 7173,
      "##पुग्": 7174,
      "अच": 7175,
      "प्रकारको": 7176,
      "##क्ष्": 7177,
      "##माल": 7178,
      "##िसी": 7179,
      "##ैया": 7180,
      "अनियमित": 7181,
      "अस्वीकार": 7182,
      "फाइनल": 7183,
      "खेलाडीले": 7184,
      "रानी": 7185,
      "कसले": 7186,
      "छिट्टै": 7187,
      "##स्तरमा": 7188,
      "दिनभित्र": 7189,
      "##र्द्ध": 7190,
      "अनौ": 7191,
      "सिरहा": 7192,
      "दुर्गा": 7193,
      "टेक": 7194,
      "मस्यौदा": 7195,
      "परिषद": 7196,
      "##स्सा": 7197,
      "समयसम्म": 7198,
      "निगमले": 7199,
      "ड्र": 7200,
      "ढिलाइ": 7201,
      "##ृति": 7202,
      "##क्की": 7203,
      "##जय": 7204,
      "डिजिट": 7205,
      "ज्वरो": 7206,
      "##सेल": 7207,
      "##हाइ": 7208,
      "रिल": 7209,
      "सुरू": 7210,
      "मानवीय": 7211,
      "खालको": 7212,
      "८३": 7213,
      "रामबहादुर": 7214,
      "पोष्ट": 7215,
      "बस्त": 7216,
      "फलफ": 7217,
      "पछ": 7218,
      "##ौली": 7219,
      "##होला": 7220,
      "महर": 7221,
      "भाउ": 7222,
      "सहि": 7223,
      "##्रिक": 7224,
      "सिल": 7225,
      "##राको": 7226,
      "##भल": 7227,
      "हल्का": 7228,
      "##िसम्म": 7229,
      "लुका": 7230,
      "नामा": 7231,
      "पोजेटिभ": 7232,
      "दशैं": 7233,
      "##सन्त": 7234,
      "##ासहित": 7235,
      "भेन्टि": 7236,
      "##नीकरण": 7237,
      "छोटो": 7238,
      "##पोर्ट": 7239,
      "लिइएको": 7240,
      "##संस्था": 7241,
      "##नाम": 7242,
      "८६": 7243,
      "सत्": 7244,
      "नामक": 7245,
      "गुमाएका": 7246,
      "एसियाली": 7247,
      "बन्यो": 7248,
      "चरि": 7249,
      "##खो": 7250,
      "शो": 7251,
      "##फाँ": 7252,
      "बाहिरि": 7253,
      "असन्तुष्टि": 7254,
      "कुँ": 7255,
      "शंकर": 7256,
      "उपभोग": 7257,
      "कसैको": 7258,
      "##वती": 7259,
      "महारा": 7260,
      "सवारीसाधन": 7261,
      "पर्दैन": 7262,
      "सम्पर्कमा": 7263,
      "नाच": 7264,
      "घिमिरेले": 7265,
      "किशोरी": 7266,
      "##बिर": 7267,
      "आइसोलेसन": 7268,
      "##स्थालाई": 7269,
      "बदली": 7270,
      "बरा": 7271,
      "सुरेन्द्र": 7272,
      "दिदी": 7273,
      "मेरा": 7274,
      "बित": 7275,
      "बुधवार": 7276,
      "##पक्षीय": 7277,
      "गौरव": 7278,
      "८७": 7279,
      "##कुरा": 7280,
      "पेन": 7281,
      "एन्ट": 7282,
      "जिक": 7283,
      "##मात्रै": 7284,
      "फाइनलमा": 7285,
      "बजेटमा": 7286,
      "२०१९": 7287,
      "आयोगमा": 7288,
      "नमुना": 7289,
      "सुरुङ": 7290,
      "शिवि": 7291,
      "विशाल": 7292,
      "संचाल": 7293,
      "विभागको": 7294,
      "कामका": 7295,
      "हस्तक्षेप": 7296,
      "##गन": 7297,
      "भैरह": 7298,
      "बुझाइ": 7299,
      "##वरी": 7300,
      "नपाएको": 7301,
      "किरण": 7302,
      "धादिङ": 7303,
      "##रे": 7304,
      "पारेका": 7305,
      "भेन्टिले": 7306,
      "##श्रमिक": 7307,
      "##एच": 7308,
      "गायक": 7309,
      "हङक": 7310,
      "क्रमशः": 7311,
      "मुटु": 7312,
      "श्रीमा": 7313,
      "##प्रकाश": 7314,
      "बनाउँदै": 7315,
      "हुनसक्छ": 7316,
      "फाउ": 7317,
      "##ब्बा": 7318,
      "गरिब": 7319,
      "आइरहेको": 7320,
      "हल्ला": 7321,
      "खोज्ने": 7322,
      "##ंशिक": 7323,
      "शारी": 7324,
      "हाइड": 7325,
      "मनाइ": 7326,
      "महँग": 7327,
      "चाहना": 7328,
      "ल्याएका": 7329,
      "हाराह": 7330,
      "जीवनमा": 7331,
      "मार्च": 7332,
      "२०७३": 7333,
      "शरीरमा": 7334,
      "चुर": 7335,
      "वर्षभित्र": 7336,
      "कार्यद": 7337,
      "ओल": 7338,
      "सिलि": 7339,
      "ईश्वर": 7340,
      "लिगमा": 7341,
      "##मीले": 7342,
      "महाधिवेशनमा": 7343,
      "जित्ने": 7344,
      "बुबा": 7345,
      "नभएकाले": 7346,
      "अफगानिस्तान": 7347,
      "योसँगै": 7348,
      "केजी": 7349,
      "त्रिवि": 7350,
      "##लिम": 7351,
      "पराजुली": 7352,
      "विपक्ष": 7353,
      "गराइएको": 7354,
      "धन्य": 7355,
      "##साई": 7356,
      "आक्रो": 7357,
      "##मणि": 7358,
      "इच्छा": 7359,
      "चीनमा": 7360,
      "##लक": 7361,
      "बाली": 7362,
      "आयु": 7363,
      "##बमोजिम": 7364,
      "विस्तृत": 7365,
      "##द्वय": 7366,
      "सके": 7367,
      "किताब": 7368,
      "विक्री": 7369,
      "##शल": 7370,
      "शारीरिक": 7371,
      "विवेक": 7372,
      "दुर्ग": 7373,
      "सन्तुल": 7374,
      "कोठा": 7375,
      "इन्टरनेट": 7376,
      "राय": 7377,
      "बुँदे": 7378,
      "देशलाई": 7379,
      "सेवामा": 7380,
      "##खोला": 7381,
      "आनन्द": 7382,
      "##ड्रि": 7383,
      "##ङ्ग्र": 7384,
      "##तु": 7385,
      "खराब": 7386,
      "जोशीले": 7387,
      "९३": 7388,
      "लैजान": 7389,
      "##बापत": 7390,
      "श्रेष्ठको": 7391,
      "टेस्ट": 7392,
      "साथमा": 7393,
      "आएकी": 7394,
      "मुलुकका": 7395,
      "बैंकिङ": 7396,
      "रवि": 7397,
      "शिक्ष": 7398,
      "##करणको": 7399,
      "नभएपछि": 7400,
      "क्वा": 7401,
      "##िरमा": 7402,
      "ओभर": 7403,
      "##ेरी": 7404,
      "आकर्षण": 7405,
      "तीनै": 7406,
      "लोकप्रिय": 7407,
      "मुम्ब": 7408,
      "हौं": 7409,
      "खटिएका": 7410,
      "दर्शन": 7411,
      "योजनामा": 7412,
      "एकताको": 7413,
      "वास": 7414,
      "##ख्य": 7415,
      "संस्कार": 7416,
      "यसो": 7417,
      "शौ": 7418,
      "##ण्डर": 7419,
      "##स्कृत": 7420,
      "##धै": 7421,
      "बालुवाटारमा": 7422,
      "दृष्टिकोण": 7423,
      "सभाको": 7424,
      "एसपी": 7425,
      "२०१८": 7426,
      "बगा": 7427,
      "मध्यम": 7428,
      "पुर्याएको": 7429,
      "अवलोकन": 7430,
      "उपाध्या": 7431,
      "##न्ती": 7432,
      "##जीवन": 7433,
      "कमिटीको": 7434,
      "शाहले": 7435,
      "नमिल्": 7436,
      "जै": 7437,
      "नमू": 7438,
      "हाइड्रो": 7439,
      "##नेका": 7440,
      "##णि": 7441,
      "##पीडित": 7442,
      "रसुवा": 7443,
      "##ल्नु": 7444,
      "कान्ति": 7445,
      "##धामा": 7446,
      "पारिश्रमिक": 7447,
      "दृश्य": 7448,
      "परम्परागत": 7449,
      "९४": 7450,
      "छात्र": 7451,
      "देवको": 7452,
      "९६": 7453,
      "##लीले": 7454,
      "##ेनले": 7455,
      "लडा": 7456,
      "##खुरा": 7457,
      "मुक्ति": 7458,
      "घर्ती": 7459,
      "##त्तर": 7460,
      "थियौं": 7461,
      "संवेदन": 7462,
      "##म्वा": 7463,
      "गिरी": 7464,
      "##मूलक": 7465,
      "पठाइ": 7466,
      "मनाङ": 7467,
      "काय": 7468,
      "सधैं": 7469,
      "##रीक्षण": 7470,
      "विद्यार्थीको": 7471,
      "तिमी": 7472,
      "उभ": 7473,
      "##कस्": 7474,
      "रिलिज": 7475,
      "प्रतिवद्ध": 7476,
      "दिइन्": 7477,
      "दिँदा": 7478,
      "कल्या": 7479,
      "##ारू": 7480,
      "पाठक": 7481,
      "##गणना": 7482,
      "भैरहवा": 7483,
      "##ङ्गो": 7484,
      "##िष्ट": 7485,
      "सापकोटा": 7486,
      "मन्त्रिपरिषद्को": 7487,
      "पक्षको": 7488,
      "क्षमताको": 7489,
      "बाढीले": 7490,
      "संविधानमा": 7491,
      "त्यहाँको": 7492,
      "भट्टले": 7493,
      "काउन्सि": 7494,
      "भनिन्छ": 7495,
      "##ालु": 7496,
      "अथवा": 7497,
      "मावि": 7498,
      "##टीले": 7499,
      "पूरै": 7500,
      "खिच": 7501,
      "साब": 7502,
      "उड्ड": 7503,
      "##म्की": 7504,
      "पाएपछि": 7505,
      "##म्मद": 7506,
      "नागरिकले": 7507,
      "कार्यदल": 7508,
      "##स्थलको": 7509,
      "मनोन": 7510,
      "ज्येष्ठ": 7511,
      "महानिर्देशक": 7512,
      "बाघ": 7513,
      "पोखरामा": 7514,
      "सूची": 7515,
      "रोपनी": 7516,
      "##भग": 7517,
      "##हिँ": 7518,
      "देखिन": 7519,
      "ओलम्प": 7520,
      "जिकिर": 7521,
      "बैठकको": 7522,
      "बनाई": 7523,
      "अह": 7524,
      "निकायले": 7525,
      "प्रमाणित": 7526,
      "ग्लो": 7527,
      "##र्खा": 7528,
      "##मुखी": 7529,
      "लेखक": 7530,
      "आंशिक": 7531,
      "विहान": 7532,
      "देवी": 7533,
      "स्तर": 7534,
      "सुरक्षाका": 7535,
      "वर": 7536,
      "##डाको": 7537,
      "डाइ": 7538,
      "अन्तरिम": 7539,
      "भेट्न": 7540,
      "गतिमा": 7541,
      "निर्देशिका": 7542,
      "८९": 7543,
      "नुवा": 7544,
      "अन्नपूर्ण": 7545,
      "हाइ": 7546,
      "जित्न": 7547,
      "प्रको": 7548,
      "प्रेर": 7549,
      "लेखिएको": 7550,
      "हराएको": 7551,
      "वाग्": 7552,
      "तामाङले": 7553,
      "अनुप": 7554,
      "राष्ट्रसंघ": 7555,
      "खुट्टा": 7556,
      "छेउ": 7557,
      "##लिन": 7558,
      "##तक": 7559,
      "भेटवार्ता": 7560,
      "रुख": 7561,
      "##्यौं": 7562,
      "किशोर": 7563,
      "सम्मा": 7564,
      "चौका": 7565,
      "संयोजकत्वमा": 7566,
      "अभिभावक": 7567,
      "बुझाएको": 7568,
      "##एकी": 7569,
      "स्थिर": 7570,
      "लेखेको": 7571,
      "खेल्दै": 7572,
      "बिस्त": 7573,
      "##ियु": 7574,
      "##समक्ष": 7575,
      "##रहेकी": 7576,
      "९७": 7577,
      "तीमध्ये": 7578,
      "भन्नेमा": 7579,
      "##नुभएका": 7580,
      "जोडी": 7581,
      "फलफूल": 7582,
      "दिन्छ": 7583,
      "एसिया": 7584,
      "लम": 7585,
      "डिजिटल": 7586,
      "खेलेका": 7587,
      "सांसदले": 7588,
      "भर्खर": 7589,
      "उन्": 7590,
      "सापकोटाले": 7591,
      "डिप": 7592,
      "##हाव": 7593,
      "मोरङ": 7594,
      "##खेर": 7595,
      "चर्को": 7596,
      "डाय": 7597,
      "कर्त": 7598,
      "सस्तो": 7599,
      "##गल": 7600,
      "कपिलवस्तु": 7601,
      "##उनुपर्छ": 7602,
      "अफ्रिका": 7603,
      "आफै": 7604,
      "##छोरी": 7605,
      "विस्थापित": 7606,
      "समस्याको": 7607,
      "##योग्य": 7608,
      "##र्नुपर्ने": 7609,
      "##हरुबाट": 7610,
      "विकसित": 7611,
      "मनाउने": 7612,
      "##अल": 7613,
      "##ंगो": 7614,
      "परीक्षणमा": 7615,
      "बेलुका": 7616,
      "लुट": 7617,
      "##ोस्": 7618,
      "भन्यो": 7619,
      "सिनेमा": 7620,
      "दाइ": 7621,
      "रोन": 7622,
      "नेट": 7623,
      "##लेपछि": 7624,
      "पुग्दा": 7625,
      "रिय": 7626,
      "पद्ध": 7627,
      "अधिवेश": 7628,
      "समाप्त": 7629,
      "खेलाडीको": 7630,
      "विज्ञापन": 7631,
      "##यौँ": 7632,
      "धन्यवाद": 7633,
      "आबद्ध": 7634,
      "राखी": 7635,
      "##जन्तु": 7636,
      "विपरीत": 7637,
      "##ड्दै": 7638,
      "कार्यक्रमका": 7639,
      "##ारोप": 7640,
      "कार्यक्रमलाई": 7641,
      "टोलीका": 7642,
      "टोलीको": 7643,
      "उड्डयन": 7644,
      "##ियार": 7645,
      "नर्स": 7646,
      "लिभर": 7647,
      "महासङ्घ": 7648,
      "##र्थी": 7649,
      "सीप": 7650,
      "संशोध": 7651,
      "फिट": 7652,
      "##ेमी": 7653,
      "थापाको": 7654,
      "##लाग्": 7655,
      "ढिला": 7656,
      "घरबाट": 7657,
      "##ेँ": 7658,
      "आरोहण": 7659,
      "गर्भ": 7660,
      "मुद्रा": 7661,
      "मिलाउन": 7662,
      "विरुद्धको": 7663,
      "विश्वमा": 7664,
      "बारे": 7665,
      "दोषी": 7666,
      "अपहरण": 7667,
      "महत्त्वपूर्ण": 7668,
      "पाल्पा": 7669,
      "शुक्रवार": 7670,
      "प्राधिकरणका": 7671,
      "प्रोत्साहन": 7672,
      "वु": 7673,
      "गुप्": 7674,
      "टेलिभिजन": 7675,
      "कानूनी": 7676,
      "वर्षाको": 7677,
      "तिव": 7678,
      "कूटनीतिक": 7679,
      "##बो": 7680,
      "##डोर": 7681,
      "प्रविधिको": 7682,
      "लिटर": 7683,
      "एजेन्सी": 7684,
      "लघुव": 7685,
      "प्रो": 7686,
      "##वादको": 7687,
      "सरकारबाट": 7688,
      "दाङ": 7689,
      "अरब": 7690,
      "परेपछि": 7691,
      "##ञ्जन": 7692,
      "कुटपिट": 7693,
      "##ाल्ड": 7694,
      "भेटिएका": 7695,
      "भत्क": 7696,
      "एकपटक": 7697,
      "नज": 7698,
      "न्यूनीकरण": 7699,
      "किने": 7700,
      "समस्यामा": 7701,
      "आक्रोश": 7702,
      "स्वास्थ्यमा": 7703,
      "सैन्य": 7704,
      "पाइप": 7705,
      "बाज": 7706,
      "मृतक": 7707,
      "##हुन्थ्यो": 7708,
      "दियो": 7709,
      "बिरामीलाई": 7710,
      "कारागार": 7711,
      "##ट्स": 7712,
      "लिगको": 7713,
      "##बाहिर": 7714,
      "सुदृ": 7715,
      "चाँडै": 7716,
      "पेट्रोलियम": 7717,
      "जसका": 7718,
      "घटनास्थल": 7719,
      "##डेल्": 7720,
      "अङ्क": 7721,
      "##र्सन": 7722,
      "साविक": 7723,
      "काठमाण्ड": 7724,
      "प्रान्त": 7725,
      "##्रु": 7726,
      "विद्यालयको": 7727,
      "##पश्च": 7728,
      "##्याइ": 7729,
      "उसलाई": 7730,
      "##शै": 7731,
      "चाहेको": 7732,
      "शौच": 7733,
      "##विपरीत": 7734,
      "बलिउड": 7735,
      "सुरक्षाको": 7736,
      "##टार": 7737,
      "बिज": 7738,
      "##सहितका": 7739,
      "जुनसुकै": 7740,
      "इन्जिनियर": 7741,
      "##वमा": 7742,
      "##राय": 7743,
      "क्याम्पस": 7744,
      "खुकु": 7745,
      "प्रालि": 7746,
      "##च्चा": 7747,
      "सेल्": 7748,
      "आन्दोलनको": 7749,
      "राजश्व": 7750,
      "##कृत": 7751,
      "बयान": 7752,
      "अर्यालले": 7753,
      "नेपालबाट": 7754,
      "नकारात्मक": 7755,
      "सिमेन्ट": 7756,
      "बोर्डले": 7757,
      "कल्याण": 7758,
      "गुणस्तरीय": 7759,
      "कोठामा": 7760,
      "छक्का": 7761,
      "कृष्णप्रसाद": 7762,
      "रहन्छ": 7763,
      "महिनादेखि": 7764,
      "नदिएको": 7765,
      "पुनले": 7766,
      "सम्व": 7767,
      "थाइ": 7768,
      "राख्नु": 7769,
      "आतंक": 7770,
      "##प्रमुख": 7771,
      "##वास्ता": 7772,
      "निवेद": 7773,
      "घाटा": 7774,
      "शक्तिशाली": 7775,
      "मदिरा": 7776,
      "स्वतन्त्रता": 7777,
      "##सभ": 7778,
      "कटौती": 7779,
      "उखु": 7780,
      "तापक्रम": 7781,
      "आल": 7782,
      "वसन्त": 7783,
      "##सिना": 7784,
      "##जुङ": 7785,
      "बेस": 7786,
      "पाठ्य": 7787,
      "##म्बार": 7788,
      "मुम्बई": 7789,
      "कब्जा": 7790,
      "जितेका": 7791,
      "निर्माता": 7792,
      "सुवास": 7793,
      "अध्यक्षमा": 7794,
      "सरसफाइ": 7795,
      "आकर्षक": 7796,
      "टोलीमा": 7797,
      "डडेल्": 7798,
      "आयोजनाले": 7799,
      "विपन्न": 7800,
      "नेपालीले": 7801,
      "##पान्तरण": 7802,
      "लगभग": 7803,
      "प्रकट": 7804,
      "सहुल": 7805,
      "निर्णायक": 7806,
      "गराउँदै": 7807,
      "स्वस्थ": 7808,
      "प्रवद्र्धन": 7809,
      "##हिता": 7810,
      "गाउँका": 7811,
      "##टाएको": 7812,
      "##िङमा": 7813,
      "##िनको": 7814,
      "आवत": 7815,
      "ओटा": 7816,
      "खपत": 7817,
      "##मित्व": 7818,
      "कामलाई": 7819,
      "स्तरो": 7820,
      "त्यहाँका": 7821,
      "तातो": 7822,
      "क्षेत्रफल": 7823,
      "खोल्न": 7824,
      "नेग": 7825,
      "##आउ": 7826,
      "खडा": 7827,
      "##ल्छ": 7828,
      "जनजा": 7829,
      "खसेको": 7830,
      "परेर": 7831,
      "##भूमि": 7832,
      "चित्त": 7833,
      "गरिबी": 7834,
      "कुखुरा": 7835,
      "बिहानै": 7836,
      "प्रणालीमा": 7837,
      "सन": 7838,
      "काल": 7839,
      "अन्यो": 7840,
      "परिसर": 7841,
      "रुकुम": 7842,
      "भन्छिन्": 7843,
      "छोराछोरी": 7844,
      "खटिएको": 7845,
      "हृ": 7846,
      "निजाम": 7847,
      "पिसिआर": 7848,
      "क्षतिपूर्ति": 7849,
      "युएई": 7850,
      "नमूना": 7851,
      "सुत्के": 7852,
      "उचाइ": 7853,
      "ठु": 7854,
      "सदस्यमा": 7855,
      "दैले": 7856,
      "सर्वे": 7857,
      "पुग्छ": 7858,
      "नराम": 7859,
      "रमाइ": 7860,
      "स्रोतका": 7861,
      "दैलेख": 7862,
      "अभावमा": 7863,
      "त्याग": 7864,
      "##तन": 7865,
      "विरोधमा": 7866,
      "दोहोरो": 7867,
      "निर्देशनालय": 7868,
      "##ण्डित": 7869,
      "##प्ती": 7870,
      "रहि": 7871,
      "दर्शक": 7872,
      "सर्भ": 7873,
      "गेट": 7874,
      "अफिस": 7875,
      "अधिकारीको": 7876,
      "संवेदनशील": 7877,
      "बढेपछि": 7878,
      "माओवादीले": 7879,
      "हाफमा": 7880,
      "डडेल्धुरा": 7881,
      "सुवेदीले": 7882,
      "##ङ्का": 7883,
      "ठप्प": 7884,
      "जाह": 7885,
      "रत्न": 7886,
      "##वटै": 7887,
      "##सेन": 7888,
      "##एनन्": 7889,
      "थाल्यो": 7890,
      "कडाइ": 7891,
      "स्वामित्व": 7892,
      "नह": 7893,
      "देखेर": 7894,
      "तट": 7895,
      "विद्यार्थीले": 7896,
      "मोहम्मद": 7897,
      "बेहो": 7898,
      "स्तरोन्न": 7899,
      "##ेश्व": 7900,
      "गीतमा": 7901,
      "उमेरमा": 7902,
      "##टीका": 7903,
      "एपी": 7904,
      "औस": 7905,
      "टिप": 7906,
      "तालिब": 7907,
      "किसानलाई": 7908,
      "सुशील": 7909,
      "आकार": 7910,
      "##मुनि": 7911,
      "ऋष": 7912,
      "थपे": 7913,
      "समयको": 7914,
      "बढे": 7915,
      "नेपालीलाई": 7916,
      "किट": 7917,
      "##नेस": 7918,
      "श्रे": 7919,
      "अध्यक्षतामा": 7920,
      "जला": 7921,
      "अनुमो": 7922,
      "वीरगन्ज": 7923,
      "सदस्यता": 7924,
      "देशले": 7925,
      "वाग्मती": 7926,
      "डिसे": 7927,
      "##िल्ली": 7928,
      "##िलै": 7929,
      "##पट": 7930,
      "खोलामा": 7931,
      "##¥यो": 7932,
      "बालबालिकालाई": 7933,
      "माध्य": 7934,
      "क्रियाकलाप": 7935,
      "विस्फोट": 7936,
      "##्यारो": 7937,
      "कालि": 7938,
      "धनकु": 7939,
      "संसद्मा": 7940,
      "साय": 7941,
      "उद्योगी": 7942,
      "##परिवार": 7943,
      "२०३": 7944,
      "झनै": 7945,
      "नेम्वा": 7946,
      "२०१७": 7947,
      "जातीय": 7948,
      "ज्ञापन": 7949,
      "सेवाको": 7950,
      "उत्साह": 7951,
      "##हिने": 7952,
      "म्यु": 7953,
      "##ब्बर": 7954,
      "नाटक": 7955,
      "राजकुमार": 7956,
      "हुम्": 7957,
      "सोमवार": 7958,
      "ओम": 7959,
      "लागे": 7960,
      "वन्य": 7961,
      "##बई": 7962,
      "पर्नेमा": 7963,
      "ग्राम": 7964,
      "हेलिक": 7965,
      "सर्वसम्म": 7966,
      "मलेसिया": 7967,
      "प्रशासकीय": 7968,
      "पश्चिमी": 7969,
      "##मेत": 7970,
      "तस्बिर": 7971,
      "रूपैयाँ": 7972,
      "##खत": 7973,
      "बिस्तार": 7974,
      "दिगो": 7975,
      "फरा": 7976,
      "दास": 7977,
      "दरबन्दी": 7978,
      "प्राध्यापक": 7979,
      "पत्रमा": 7980,
      "पेनाल्": 7981,
      "##गाउँ": 7982,
      "पहाड": 7983,
      "काभ्र": 7984,
      "विदेशबाट": 7985,
      "वकिल": 7986,
      "दार्चु": 7987,
      "पह": 7988,
      "रही": 7989,
      "##जले": 7990,
      "कर्तव्य": 7991,
      "ओलम्पिक": 7992,
      "गरौं": 7993,
      "कुव": 7994,
      "सम्भावित": 7995,
      "एसो": 7996,
      "फिल्मको": 7997,
      "हेलिकप्टर": 7998,
      "पत्नी": 7999,
      "खेलबाट": 8000,
      "किस्ता": 8001,
      "२०७८": 8002,
      "##रात": 8003,
      "धरान": 8004,
      "बजेटको": 8005,
      "शिला": 8006,
      "गर्थे": 8007,
      "शपथ": 8008,
      "लिभरपुल": 8009,
      "नैतिक": 8010,
      "हेक्टर": 8011,
      "उपप्रधानमन्त्री": 8012,
      "##किन": 8013,
      "चरित्र": 8014,
      "अनिल": 8015,
      "##धर": 8016,
      "धनुष": 8017,
      "मनस": 8018,
      "खेलाडीलाई": 8019,
      "पैदल": 8020,
      "निवासी": 8021,
      "##िफ": 8022,
      "मन्दिरमा": 8023,
      "खुल्ला": 8024,
      "लगत्तै": 8025,
      "नाघ": 8026,
      "##दको": 8027,
      "कुकुर": 8028,
      "निमित्त": 8029,
      "एच": 8030,
      "देउवालाई": 8031,
      "##ाउनुपर्छ": 8032,
      "धितो": 8033,
      "##खबर": 8034,
      "आवको": 8035,
      "उभि": 8036,
      "मर": 8037,
      "भेर": 8038,
      "उनकी": 8039,
      "भद्र": 8040,
      "डब्": 8041,
      "खोल्ने": 8042,
      "शल्य": 8043,
      "अधि": 8044,
      "राइ": 8045,
      "चाहने": 8046,
      "मस्": 8047,
      "क्वारेन्टाइन": 8048,
      "बुवा": 8049,
      "मनाउन": 8050,
      "तै": 8051,
      "##घरमा": 8052,
      "प्रतिनिधिसभाको": 8053,
      "##जरको": 8054,
      "धेरैले": 8055,
      "संस्थापक": 8056,
      "आइतवार": 8057,
      "##भित्रको": 8058,
      "हेटौं": 8059,
      "बताएकी": 8060,
      "राजेश": 8061,
      "गर्छौं": 8062,
      "दै": 8063,
      "अधिकतम": 8064,
      "लकडाउनको": 8065,
      "श्याम": 8066,
      "मुस्ता": 8067,
      "पुगेपछि": 8068,
      "महासंघका": 8069,
      "##िसन": 8070,
      "रोनाल्डो": 8071,
      "##ेलको": 8072,
      "दिनपछि": 8073,
      "प्रयोगकर्ता": 8074,
      "रावलले": 8075,
      "शनिवार": 8076,
      "##िएम": 8077,
      "नीतिगत": 8078,
      "बोल्न": 8079,
      "नमिल्ने": 8080,
      "नेगेटिभ": 8081,
      "पाट": 8082,
      "उस्तै": 8083,
      "##स्ट्र": 8084,
      "डिएस": 8085,
      "बचत": 8086,
      "संस्थाका": 8087,
      "काठमाडौंका": 8088,
      "##घाख": 8089,
      "शाक्यले": 8090,
      "थपिएको": 8091,
      "##्याएर": 8092,
      "त्यसरी": 8093,
      "प्रकोप": 8094,
      "सक्नेछन्": 8095,
      "व्यवस्थापनमा": 8096,
      "थ्री": 8097,
      "अतिक्रमण": 8098,
      "०६": 8099,
      "केसीको": 8100,
      "सिद्ध": 8101,
      "झड": 8102,
      "छाया": 8103,
      "##दत्त": 8104,
      "##राष्ट्रपति": 8105,
      "शौचालय": 8106,
      "हटाउने": 8107,
      "##्यानल": 8108,
      "##नान्स": 8109,
      "कुरालाई": 8110,
      "इंग्": 8111,
      "उत्तिकै": 8112,
      "डिस्चार्ज": 8113,
      "स्ना": 8114,
      "दिनुपर्छ": 8115,
      "##बुल": 8116,
      "बस्नु": 8117,
      "राष्ट्रपतिले": 8118,
      "देखाउन": 8119,
      "कम्पनीलाई": 8120,
      "केवल": 8121,
      "##दायी": 8122,
      "मुस्लिम": 8123,
      "##थर": 8124,
      "व्याख्या": 8125,
      "उत्पादनमा": 8126,
      "मानिसलाई": 8127,
      "हिन्दु": 8128,
      "जितेर": 8129,
      "मनमा": 8130,
      "##समध्ये": 8131,
      "नेवि": 8132,
      "धनी": 8133,
      "हजुर": 8134,
      "संघीयता": 8135,
      "सञ्चालनका": 8136,
      "##ियन्स": 8137,
      "आकर्षित": 8138,
      "गज": 8139,
      "खोल": 8140,
      "कल्पना": 8141,
      "अर्ध": 8142,
      "समाधानका": 8143,
      "##दलीय": 8144,
      "कुराको": 8145,
      "नेपालगन्ज": 8146,
      "##नलाई": 8147,
      "बिहे": 8148,
      "डिजाइन": 8149,
      "सन्तान": 8150,
      "परा": 8151,
      "चाहिने": 8152,
      "##प्रतिको": 8153,
      "पुरानै": 8154,
      "##न्थी": 8155,
      "##शनल": 8156,
      "मूर्ति": 8157,
      "नुवाकोट": 8158,
      "कोषमा": 8159,
      "विष्टले": 8160,
      "निर्वाचनका": 8161,
      "उल्लं": 8162,
      "नेताको": 8163,
      "यथार्थ": 8164,
      "नेताहरूले": 8165,
      "जसलाई": 8166,
      "##कू": 8167,
      "सामग्र": 8168,
      "तपाईंको": 8169,
      "मानिसले": 8170,
      "उठाउन": 8171,
      "सचिवालयले": 8172,
      "##छौं": 8173,
      "सतर्कता": 8174,
      "बढाइएको": 8175,
      "डिएसपी": 8176,
      "मर्या": 8177,
      "बिष": 8178,
      "श्रीमान्": 8179,
      "खरेल": 8180,
      "##कर्मीको": 8181,
      "गतेको": 8182,
      "वन्यजन्तु": 8183,
      "योग्य": 8184,
      "मङ्गलबार": 8185,
      "तिर्न": 8186,
      "गिरि": 8187,
      "चलचित्रमा": 8188,
      "अधिकारीहरुले": 8189,
      "##तर्फको": 8190,
      "२०१६": 8191,
      "##क्वा": 8192,
      "##वरले": 8193,
      "माध्यमिक": 8194,
      "जलवा": 8195,
      "उठाउने": 8196,
      "बृह": 8197,
      "अमर": 8198,
      "##पार": 8199,
      "नदीको": 8200,
      "होटलमा": 8201,
      "##ायाँ": 8202,
      "पक्षलाई": 8203,
      "नराख": 8204,
      "अफगानिस्त": 8205,
      "बनाउनुपर्ने": 8206,
      "टस": 8207,
      "खोपको": 8208,
      "मिले": 8209,
      "पटकपटक": 8210,
      "##ेरोजग": 8211,
      "दीर्घकालीन": 8212,
      "महेश": 8213,
      "परीक्षणको": 8214,
      "भवनमा": 8215,
      "##विना": 8216,
      "आयुक्त": 8217,
      "##काजी": 8218,
      "मद्दत": 8219,
      "झल": 8220,
      "##िनु": 8221,
      "ढा": 8222,
      "##ढुंग": 8223,
      "##लाले": 8224,
      "##सामा": 8225,
      "प्रायः": 8226,
      "##भाष": 8227,
      "प्रती": 8228,
      "##ाध्यक्ष": 8229,
      "##माथिको": 8230,
      "तत्कालै": 8231,
      "##मिट": 8232,
      "गरेमा": 8233,
      "आयोजनाका": 8234,
      "समारोहमा": 8235,
      "प्रि": 8236,
      "परिमा": 8237,
      "रोगको": 8238,
      "भेटमा": 8239,
      "आफूहरु": 8240,
      "मेलम्ची": 8241,
      "जोडेर": 8242,
      "महाशाखाका": 8243,
      "##मय": 8244,
      "कन्स": 8245,
      "बढुवा": 8246,
      "किन्न": 8247,
      "राज्यमन्त्री": 8248,
      "व्यापारिक": 8249,
      "लाग्दा": 8250,
      "सृ": 8251,
      "##ाउँछन्": 8252,
      "महानगरपालिकाले": 8253,
      "मिर्ग": 8254,
      "प्राधिकरणको": 8255,
      "दाउ": 8256,
      "लगिएको": 8257,
      "साहले": 8258,
      "टाँ": 8259,
      "अभियोगमा": 8260,
      "समुह": 8261,
      "नायिका": 8262,
      "क्रान्तिकारी": 8263,
      "जग्गाको": 8264,
      "##ियालाई": 8265,
      "सत्र": 8266,
      "##ञ्चित": 8267,
      "भनेपछि": 8268,
      "पर्दछ": 8269,
      "बालुवाटार": 8270,
      "संस्थामा": 8271,
      "मानिसहरु": 8272,
      "बिल": 8273,
      "लगेर": 8274,
      "प्रवर्द्ध": 8275,
      "आर्मी": 8276,
      "भन्छ": 8277,
      "मैत्री": 8278,
      "ढिलो": 8279,
      "प्रदू": 8280,
      "मधु": 8281,
      "##्रत": 8282,
      "रिक्त": 8283,
      "शिशु": 8284,
      "##धाम": 8285,
      "सङ्क्रमितको": 8286,
      "अनाव": 8287,
      "##अधिकार": 8288,
      "अस्ति": 8289,
      "धनकुटा": 8290,
      "##ह्र": 8291,
      "##माओवादी": 8292,
      "भ्याक्स": 8293,
      "कृषक": 8294,
      "दसैं": 8295,
      "अड्": 8296,
      "लामाले": 8297,
      "सहजी": 8298,
      "लगानीमा": 8299,
      "बङ्ग": 8300,
      "राजधानीमा": 8301,
      "रहेछन्": 8302,
      "फौ": 8303,
      "##ारोपण": 8304,
      "कँ": 8305,
      "गुणा": 8306,
      "ट्रक": 8307,
      "रोल्पा": 8308,
      "घुस": 8309,
      "समृद्धिको": 8310,
      "हिस्सा": 8311,
      "रास": 8312,
      "बू": 8313,
      "चेल्": 8314,
      "##टले": 8315,
      "क्लबले": 8316,
      "सुशासन": 8317,
      "फैला": 8318,
      "बचाउन": 8319,
      "जमा": 8320,
      "शिखर": 8321,
      "##एक": 8322,
      "नसकेपछि": 8323,
      "डोन": 8324,
      "अरुण": 8325,
      "##जीको": 8326,
      "पट": 8327,
      "असन्तुष्ट": 8328,
      "जसमध्ये": 8329,
      "प्राप्": 8330,
      "सिन्धुली": 8331,
      "स्थानीयको": 8332,
      "केशव": 8333,
      "मङ्": 8334,
      "दोल": 8335,
      "फराकिलो": 8336,
      "किनकि": 8337,
      "उका": 8338,
      "##धारणा": 8339,
      "बनेर": 8340,
      "शल्यक्रिया": 8341,
      "सद्": 8342,
      "अखिल": 8343,
      "##गडा": 8344,
      "लियो": 8345,
      "भाषामा": 8346,
      "मिच": 8347,
      "##स्न": 8348,
      "देशभरका": 8349,
      "आफैंले": 8350,
      "गाविस": 8351,
      "##मीको": 8352,
      "समाजको": 8353,
      "लाइस": 8354,
      "मिल्दैन": 8355,
      "जाप": 8356,
      "विद्यालयका": 8357,
      "##ब्ब": 8358,
      "चाहन्छु": 8359,
      "##ुप्र": 8360,
      "बराबरीमा": 8361,
      "ग्लोबल": 8362,
      "सक्षम": 8363,
      "लिनुपर्ने": 8364,
      "सुत्केरी": 8365,
      "एनआरएन": 8366,
      "साँच": 8367,
      "सवार": 8368,
      "लक्ष्मण": 8369,
      "त्यसबेला": 8370,
      "मुआ": 8371,
      "सधैँ": 8372,
      "सशक्त": 8373,
      "टिमले": 8374,
      "समुदायका": 8375,
      "खानेकुरा": 8376,
      "च्याम्पियनसि": 8377,
      "नेत्र": 8378,
      "##ामै": 8379,
      "अभियुक्त": 8380,
      "##कर्मीले": 8381,
      "रद्द": 8382,
      "सहुलियत": 8383,
      "##दैनन्": 8384,
      "आकस्": 8385,
      "##दर्शी": 8386,
      "आवतजा": 8387,
      "##ड्रिड": 8388,
      "##निङ": 8389,
      "अनावश्यक": 8390,
      "मूल्यांकन": 8391,
      "जग्गामा": 8392,
      "##तालिका": 8393,
      "##दले": 8394,
      "माझ": 8395,
      "म्याच": 8396,
      "प्रशंसा": 8397,
      "##शैली": 8398,
      "यसपाल": 8399,
      "##ग्रस्त": 8400,
      "कोरोनाबाट": 8401,
      "सफाइ": 8402,
      "उपत्यकाका": 8403,
      "घन": 8404,
      "तब": 8405,
      "उच्चस्तरीय": 8406,
      "कार्ययोजना": 8407,
      "परिणत": 8408,
      "हेड": 8409,
      "उत्पादक": 8410,
      "बेरोजग": 8411,
      "थारु": 8412,
      "कार्यालयबाट": 8413,
      "पठन": 8414,
      "सुन्त": 8415,
      "##वर्ती": 8416,
      "भरमा": 8417,
      "कैदी": 8418,
      "##वधि": 8419,
      "तीनवटा": 8420,
      "देखिँदैन": 8421,
      "राखिएका": 8422,
      "निकायको": 8423,
      "##काले": 8424,
      "##गण्डकी": 8425,
      "पण्डित": 8426,
      "बेवास्ता": 8427,
      "आकस्मिक": 8428,
      "ओर": 8429,
      "##बहि": 8430,
      "सहितको": 8431,
      "सर्वेक्षण": 8432,
      "मनोनयन": 8433,
      "भविष्यमा": 8434,
      "रोक्": 8435,
      "प्रतिवद्धता": 8436,
      "##िपि": 8437,
      "उपहार": 8438,
      "खोज्न": 8439,
      "बेइ": 8440,
      "स्वच्छ": 8441,
      "पारिएको": 8442,
      "भएकै": 8443,
      "डोल्पा": 8444,
      "##िनै": 8445,
      "नु": 8446,
      "फर्किने": 8447,
      "वार": 8448,
      "ताप्ले": 8449,
      "हेल्": 8450,
      "छैन्": 8451,
      "मकै": 8452,
      "सिंगा": 8453,
      "आमाको": 8454,
      "##्यान्ड": 8455,
      "विशिष्ट": 8456,
      "पारी": 8457,
      "ठगी": 8458,
      "उत्तरी": 8459,
      "##प्टे": 8460,
      "साइकल": 8461,
      "जोडिएका": 8462,
      "गणना": 8463,
      "##न्धि": 8464,
      "टोलीलाई": 8465,
      "विवादमा": 8466,
      "सीता": 8467,
      "लगाउँदै": 8468,
      "इजलासले": 8469,
      "महानिरीक्षक": 8470,
      "उहाँलाई": 8471,
      "गराएर": 8472,
      "##डीमा": 8473,
      "पूर्वप्रधानमन्त्री": 8474,
      "आया": 8475,
      "अटो": 8476,
      "विरामी": 8477,
      "राष्ट्रपतिको": 8478,
      "##निर्भर": 8479,
      "##न्नु": 8480,
      "हुन्न": 8481,
      "नोक्स": 8482,
      "त्यसकारण": 8483,
      "फर्कने": 8484,
      "नवराज": 8485,
      "रोक्ने": 8486,
      "गर्भव": 8487,
      "##भरी": 8488,
      "प्रस्ट": 8489,
      "खालका": 8490,
      "लोड": 8491,
      "20": 8492,
      "कञ्चनपुर": 8493,
      "इस्": 8494,
      "निर्माणाधीन": 8495,
      "पुनःनिर्माण": 8496,
      "##पर्व": 8497,
      "अग्नि": 8498,
      "अनुमोदन": 8499,
      "ज्यो": 8500,
      "निकाल": 8501,
      "मनोज": 8502,
      "स्वदेशी": 8503,
      "शरण": 8504,
      "बढि": 8505,
      "विघट": 8506,
      "##ण्ठ": 8507,
      "म्याग्दी": 8508,
      "परिक": 8509,
      "##न्दुमा": 8510,
      "जलवायु": 8511,
      "##गाई": 8512,
      "धेरैजसो": 8513,
      "अवधारणा": 8514,
      "जित्": 8515,
      "##ेटर": 8516,
      "सजिलै": 8517,
      "अभिनेत्री": 8518,
      "##वत्": 8519,
      "##आउट": 8520,
      "तपाईंले": 8521,
      "##सीका": 8522,
      "##माया": 8523,
      "एपीएफ": 8524,
      "सडकखण्ड": 8525,
      "कोट": 8526,
      "फार्म": 8527,
      "##बाजी": 8528,
      "रेग्मी": 8529,
      "##ालामा": 8530,
      "स्ट्र": 8531,
      "##शरण": 8532,
      "निधि": 8533,
      "##ौलाले": 8534,
      "अन्यत्र": 8535,
      "चर्चामा": 8536,
      "निजामती": 8537,
      "##नात्मक": 8538,
      "पाउनु": 8539,
      "बहुम": 8540,
      "##लागि": 8541,
      "विक्रम": 8542,
      "२०१५": 8543,
      "वक्त": 8544,
      "##पश्चिम": 8545,
      "निषेध": 8546,
      "##थान": 8547,
      "बढीको": 8548,
      "ओपन": 8549,
      "बनाउँदा": 8550,
      "##पोखरी": 8551,
      "लिनु": 8552,
      "पहिरोले": 8553,
      "बसपार्क": 8554,
      "लागी": 8555,
      "इन्धन": 8556,
      "पावर": 8557,
      "##निकी": 8558,
      "सन्धि": 8559,
      "अपनाउन": 8560,
      "सहरी": 8561,
      "बनायो": 8562,
      "बिहीवार": 8563,
      "नामावली": 8564,
      "किसानको": 8565,
      "इटाली": 8566,
      "##र्पोर": 8567,
      "परराष्ट्रमन्त्री": 8568,
      "भारतसँग": 8569,
      "##वर्क": 8570,
      "मैन": 8571,
      "##शास": 8572,
      "भिडियोमा": 8573,
      "बजारको": 8574,
      "पका": 8575,
      "##क्व": 8576,
      "##ेषण": 8577,
      "पक्का": 8578,
      "कँडेल": 8579,
      "महाधिवेशनको": 8580,
      "मुआब्जा": 8581,
      "अपिल": 8582,
      "##िला": 8583,
      "कुमारी": 8584,
      "अगाडी": 8585,
      "प्रदर्शनमा": 8586,
      "वैशाखमा": 8587,
      "लिई": 8588,
      "फर्म": 8589,
      "महासंघले": 8590,
      "रहँदै": 8591,
      "धो": 8592,
      "चो": 8593,
      "पाटन": 8594,
      "##पछिको": 8595,
      "##सक्यो": 8596,
      "##ोषण": 8597,
      "पर्यटकको": 8598,
      "कागजात": 8599,
      "दोब्बर": 8600,
      "##ेती": 8601,
      "खासगरी": 8602,
      "कौ": 8603,
      "एजे": 8604,
      "न्यौपानेले": 8605,
      "##सभापति": 8606,
      "##र्इ": 8607,
      "सहमत": 8608,
      "बराबर": 8609,
      "स्याउ": 8610,
      "ग्रुप": 8611,
      "प्रयोगमा": 8612,
      "मौन": 8613,
      "उपचाररत": 8614,
      "पेर": 8615,
      "##मशेर": 8616,
      "##खाना": 8617,
      "तिल": 8618,
      "##विक्रम": 8619,
      "##ेयर": 8620,
      "ध्व": 8621,
      "मनोर": 8622,
      "समावेशी": 8623,
      "ब्ल": 8624,
      "##पावर": 8625,
      "##वक्ता": 8626,
      "भानु": 8627,
      "संग्रह": 8628,
      "##ंगी": 8629,
      "राप्ती": 8630,
      "किसिमका": 8631,
      "बाँके": 8632,
      "बच्न": 8633,
      "##जिङ": 8634,
      "एक्लै": 8635,
      "गइरहेको": 8636,
      "उठेको": 8637,
      "बाइड": 8638,
      "जन्मा": 8639,
      "अभिनेता": 8640,
      "प्रस्तावित": 8641,
      "चाहन्छ": 8642,
      "गिरीले": 8643,
      "##ड्दा": 8644,
      "दिएकी": 8645,
      "अक्ट": 8646,
      "धमा": 8647,
      "तेज": 8648,
      "निरीक्षण": 8649,
      "समाजका": 8650,
      "नारायणी": 8651,
      "प्रिय": 8652,
      "भोक": 8653,
      "उल्लंघन": 8654,
      "जाजरको": 8655,
      "##हुँदै": 8656,
      "##पालन": 8657,
      "असं": 8658,
      "बुझाउन": 8659,
      "राजु": 8660,
      "त्यसअघि": 8661,
      "आकां": 8662,
      "सवाल": 8663,
      "##भाड": 8664,
      "##जीले": 8665,
      "पाउँदा": 8666,
      "##सनल": 8667,
      "मुस्क": 8668,
      "त्यसबाट": 8669,
      "पृष्ठ": 8670,
      "सहभागि": 8671,
      "महिनाभित्र": 8672,
      "प्रशासनिक": 8673,
      "छानविन": 8674,
      "पढ्ने": 8675,
      "##सक्नु": 8676,
      "आन्दोलनका": 8677,
      "बागलुङ": 8678,
      "अस्थ": 8679,
      "प्रधानमन्त्रीलाई": 8680,
      "##मूल्य": 8681,
      "##वित": 8682,
      "उस": 8683,
      "स्वरुप": 8684,
      "ठोस": 8685,
      "वी": 8686,
      "भरि": 8687,
      "भन्नेबारे": 8688,
      "स्मृति": 8689,
      "जानुपर्ने": 8690,
      "##भित्रका": 8691,
      "हिरास": 8692,
      "तारा": 8693,
      "त्यहाँबाट": 8694,
      "मार्क": 8695,
      "संसद्को": 8696,
      "पोखरी": 8697,
      "श्रीमान": 8698,
      "अनियमितता": 8699,
      "कर्पोर": 8700,
      "##ंदै": 8701,
      "एकदमै": 8702,
      "मुलुकलाई": 8703,
      "सेप्टे": 8704,
      "दान": 8705,
      "भेरी": 8706,
      "सहजीकरण": 8707,
      "देउवाको": 8708,
      "##दित": 8709,
      "भाइरसका": 8710,
      "##राति": 8711,
      "गर्नै": 8712,
      "##तया": 8713,
      "##धनी": 8714,
      "पार्क": 8715,
      "चलाएको": 8716,
      "##िल्ड": 8717,
      "तपाईँ": 8718,
      "उद्योगमा": 8719,
      "##परित": 8720,
      "गर्दछन्": 8721,
      "विमानस्थलको": 8722,
      "नायव": 8723,
      "रोहित": 8724,
      "अशोक": 8725,
      "##बीचमा": 8726,
      "माल्": 8727,
      "##्याली": 8728,
      "आउँदो": 8729,
      "##्याण्ड": 8730,
      "##खल": 8731,
      "भएकोमा": 8732,
      "मनि": 8733,
      "अड": 8734,
      "वेला": 8735,
      "पाउनेछन्": 8736,
      "पार्किङ": 8737,
      "पारिवार": 8738,
      "रुट": 8739,
      "अट": 8740,
      "लघुवित्त": 8741,
      "खानी": 8742,
      "चलचित्रको": 8743,
      "जनताका": 8744,
      "##रहित": 8745,
      "बत्ती": 8746,
      "हेम": 8747,
      "कम्प्यु": 8748,
      "पार्दै": 8749,
      "सतह": 8750,
      "##गाह": 8751,
      "गरेपनि": 8752,
      "निकाल्न": 8753,
      "##चाहिँ": 8754,
      "विषा": 8755,
      "दौड": 8756,
      "जीवनको": 8757,
      "धामी": 8758,
      "रमाइलो": 8759,
      "काठमाण्डौ": 8760,
      "सर्त": 8761,
      "धम्की": 8762,
      "कहिलेका": 8763,
      "मातृ": 8764,
      "अनुगम": 8765,
      "वक्तव्य": 8766,
      "सेन्ट": 8767,
      "व्यहो": 8768,
      "एसोस": 8769,
      "आफूहरुले": 8770,
      "सामाग्री": 8771,
      "चिनी": 8772,
      "जनसङ्": 8773,
      "##अध्यक्ष": 8774,
      "सान": 8775,
      "##केट": 8776,
      "स्थानको": 8777,
      "बोलाएर": 8778,
      "तुरु": 8779,
      "अनुसन्धानमा": 8780,
      "ठग": 8781,
      "गर्नुपर्नेमा": 8782,
      "विस्तारै": 8783,
      "भलि": 8784,
      "मानिएको": 8785,
      "##लीको": 8786,
      "समुदायमा": 8787,
      "आश्वास": 8788,
      "##नासाथ": 8789,
      "बाह्य": 8790,
      "##अगा": 8791,
      "जिल्लाबाट": 8792,
      "##चारु": 8793,
      "हाराहारीमा": 8794,
      "नबुझ": 8795,
      "बालबालिकाको": 8796,
      "परियार": 8797,
      "कायमै": 8798,
      "##डाँडा": 8799,
      "अप्रिल": 8800,
      "नेविसंघ": 8801,
      "पला": 8802,
      "उत्तम": 8803,
      "सद्भाव": 8804,
      "युट": 8805,
      "##िश": 8806,
      "इन्चार्ज": 8807,
      "##रोग": 8808,
      "उत्पादित": 8809,
      "नाइ": 8810,
      "नोभे": 8811,
      "##र्सी": 8812,
      "कसुर": 8813,
      "मकवानपुर": 8814,
      "##भियोग": 8815,
      "##दमा": 8816,
      "कागज": 8817,
      "तिनै": 8818,
      "निकास": 8819,
      "हामीसँग": 8820,
      "##अघ": 8821,
      "ट्वि": 8822,
      "फार": 8823,
      "इजलासमा": 8824,
      "##वृत्ति": 8825,
      "##ानुमान": 8826,
      "बढ्छ": 8827,
      "##ौटी": 8828,
      "फिल": 8829,
      "##ुलु": 8830,
      "नवीकरण": 8831,
      "आवमा": 8832,
      "##्युब": 8833,
      "तुरुन्त": 8834,
      "##क्रामक": 8835,
      "एड": 8836,
      "पारिवारिक": 8837,
      "दशैँ": 8838,
      "बारम्बार": 8839,
      "भाडामा": 8840,
      "युरो": 8841,
      "ट्रया": 8842,
      "##प्ट": 8843,
      "अन्तरराष्ट्रिय": 8844,
      "छापा": 8845,
      "विरोधी": 8846,
      "सचेतक": 8847,
      "##ञ्चार": 8848,
      "##िनले": 8849,
      "न्यायिक": 8850,
      "विधेयकमा": 8851,
      "फ्": 8852,
      "भाषण": 8853,
      "छोडेर": 8854,
      "##वान्": 8855,
      "जानकार": 8856,
      "लागुऔषध": 8857,
      "##चेस्टर": 8858,
      "##मिता": 8859,
      "कान्छ": 8860,
      "बोल्ने": 8861,
      "आचार": 8862,
      "##ाइमा": 8863,
      "शीत": 8864,
      "शुद्ध": 8865,
      "##धम": 8866,
      "प्रहरीमा": 8867,
      "सदुपयोग": 8868,
      "स्याङ्": 8869,
      "गीतको": 8870,
      "##यरमा": 8871,
      "हिन्दू": 8872,
      "##उँछिन्": 8873,
      "प्रत्या": 8874,
      "खोज्दा": 8875,
      "##पाठ": 8876,
      "जनतामा": 8877,
      "दिनका": 8878,
      "आयल": 8879,
      "त्यहीँ": 8880,
      "त्रैमा": 8881,
      "##गोलिक": 8882,
      "स्टा": 8883,
      "झलनाथ": 8884,
      "जनजाति": 8885,
      "लापर": 8886,
      "गर्भवती": 8887,
      "##थु": 8888,
      "लाभांश": 8889,
      "द्वि": 8890,
      "खातामा": 8891,
      "सरस्व": 8892,
      "खोटा": 8893,
      "कोषाध्यक्ष": 8894,
      "गरिदि": 8895,
      "डिग्री": 8896,
      "सायद": 8897,
      "अदालतका": 8898,
      "नेदर": 8899,
      "जोन": 8900,
      "कालापानी": 8901,
      "भिसा": 8902,
      "बेलायती": 8903,
      "##सुल": 8904,
      "तप": 8905,
      "चल्न": 8906,
      "संस्थापन": 8907,
      "निर्मला": 8908,
      "सहमतिमा": 8909,
      "##ेलमा": 8910,
      "व्यवस्थापनका": 8911,
      "पदार्थको": 8912,
      "प्रस्तावमा": 8913,
      "नख": 8914,
      "##ताल": 8915,
      "डल": 8916,
      "##ग्राम": 8917,
      "सिरिज": 8918,
      "निक्षेप": 8919,
      "##मैत्री": 8920,
      "##र्नर": 8921,
      "बोलाइएको": 8922,
      "सुरेश": 8923,
      "राष्ट्रको": 8924,
      "##ृंख": 8925,
      "भूमिकामा": 8926,
      "##यू": 8927,
      "राम्रा": 8928,
      "उनकै": 8929,
      "##ड्नु": 8930,
      "चितवनको": 8931,
      "##रथ": 8932,
      "##ङ्कन": 8933,
      "मङ्सिर": 8934,
      "हराउँदै": 8935,
      "आईपी": 8936,
      "##काउ": 8937,
      "फैलि": 8938,
      "##तर्फी": 8939,
      "##पन्थी": 8940,
      "##खामा": 8941,
      "##दियो": 8942,
      "स्वि": 8943,
      "ट्रान्स": 8944,
      "माइती": 8945,
      "गर्दैन": 8946,
      "मालपो": 8947,
      "सावधान": 8948,
      "##िख": 8949,
      "जोडेको": 8950,
      "##ड्य": 8951,
      "नियमन": 8952,
      "चाहिन्छ": 8953,
      "##स्थापन": 8954,
      "उल्लेख्य": 8955,
      "रोजगारीका": 8956,
      "बेल्": 8957,
      "अनुसन्धानका": 8958,
      "पति": 8959,
      "महिनासम्म": 8960,
      "महिनाअघि": 8961,
      "##सिद्ध": 8962,
      "##काइ": 8963,
      "नसकिएको": 8964,
      "वृत्त": 8965,
      "##भौ": 8966,
      "विश्वको": 8967,
      "भौगोलिक": 8968,
      "##काई": 8969,
      "अस्थिर": 8970,
      "लाग्": 8971,
      "संकल": 8972,
      "बोकेको": 8973,
      "एकेड": 8974,
      "भिन्न": 8975,
      "सकिँदैन": 8976,
      "जाडो": 8977,
      "घाट": 8978,
      "अलिक": 8979,
      "पूर्वानुमान": 8980,
      "बोलाएको": 8981,
      "##जनी": 8982,
      "चुक्ता": 8983,
      "##नेश्वर": 8984,
      "बैंकमा": 8985,
      "क्लि": 8986,
      "##जिअ": 8987,
      "राजन": 8988,
      "अंग्रे": 8989,
      "सिस्ट": 8990,
      "ली": 8991,
      "आदिवासी": 8992,
      "सकिएपछि": 8993,
      "##लोक": 8994,
      "भोलिप": 8995,
      "सेती": 8996,
      "गाली": 8997,
      "##हाले": 8998,
      "अछ": 8999,
      "##मस": 9000,
      "उप्र": 9001,
      "बझा": 9002,
      "##िँदा": 9003,
      "प्रजिअ": 9004,
      "रोमा": 9005,
      "जनसङ्ख्या": 9006,
      "##ेलो": 9007,
      "धमाधम": 9008,
      "शहरी": 9009,
      "##सम्यान": 9010,
      "आपसी": 9011,
      "घटेर": 9012,
      "गठित": 9013,
      "प्रदूषण": 9014,
      "रचना": 9015,
      "##लेले": 9016,
      "##्यवहार": 9017,
      "सुनिल": 9018,
      "खै": 9019,
      "जनयुद्ध": 9020,
      "मेची": 9021,
      "##मोहन": 9022,
      "जर्मनी": 9023,
      "डेब": 9024,
      "सकेसम्म": 9025,
      "पर्वत": 9026,
      "##त्मा": 9027,
      "भ्रमणका": 9028,
      "##जाको": 9029,
      "##वारण": 9030,
      "सहिद": 9031,
      "ताला": 9032,
      "हान": 9033,
      "शही": 9034,
      "समितिलाई": 9035,
      "बाग्": 9036,
      "##लास": 9037,
      "चीनबाट": 9038,
      "दिई": 9039,
      "बन्दी": 9040,
      "मेघ": 9041,
      "मोदीले": 9042,
      "राम्रोसँग": 9043,
      "मंगलवार": 9044,
      "चितवनमा": 9045,
      "##वाको": 9046,
      "##जारी": 9047,
      "##कता": 9048,
      "परिमार्जन": 9049,
      "रवी": 9050,
      "महिनापछि": 9051,
      "सोलु": 9052,
      "प्रयोजन": 9053,
      "दिल": 9054,
      "रोजगारीमा": 9055,
      "##अप": 9056,
      "राज्यका": 9057,
      "##्यमा": 9058,
      "गर्नेलाई": 9059,
      "विशेषगरी": 9060,
      "##िकरण": 9061,
      "निकायमा": 9062,
      "स्रोतको": 9063,
      "बानी": 9064,
      "गोलको": 9065,
      "##ह्": 9066,
      "शता": 9067,
      "बिच": 9068,
      "मन्त्रालयलाई": 9069,
      "तिब्ब": 9070,
      "बाख": 9071,
      "बाइ": 9072,
      "वेब": 9073,
      "##ेनन्": 9074,
      "##रोप": 9075,
      "सल्यान": 9076,
      "गर्दैछ": 9077,
      "##हरूबाट": 9078,
      "कान्तिपुर": 9079,
      "मान्ने": 9080,
      "सुनसरी": 9081,
      "१९८": 9082,
      "##ाग्र": 9083,
      "बल्ल": 9084,
      "अंग्रेजी": 9085,
      "अंकले": 9086,
      "हद": 9087,
      "पत्राचार": 9088,
      "##ेन्डर": 9089,
      "रेमिट": 9090,
      "सम्पादन": 9091,
      "हेलि": 9092,
      "कामना": 9093,
      "##श्रो": 9094,
      "##ँदैछ": 9095,
      "प्रतिस्पर्धी": 9096,
      "##िन्छन्": 9097,
      "रजि": 9098,
      "लाइसेन्स": 9099,
      "कुवेत": 9100,
      "अपर": 9101,
      "चरम": 9102,
      "##प्य": 9103,
      "##्याइएको": 9104,
      "##फ्ले": 9105,
      "शान्तिपूर्ण": 9106,
      "आलु": 9107,
      "बलिङ": 9108,
      "सुचारु": 9109,
      "औसत": 9110,
      "ठो": 9111,
      "सोझ": 9112,
      "अक्टो": 9113,
      "देखाउने": 9114,
      "अनुभूति": 9115,
      "ब्": 9116,
      "गरिरह": 9117,
      "उम": 9118,
      "मुद्दाको": 9119,
      "आइपुग्": 9120,
      "मेस्": 9121,
      "गौरी": 9122,
      "उपसभापति": 9123,
      "दिवसको": 9124,
      "##मन्त्र": 9125,
      "प्रत्यारोपण": 9126,
      "नाकामा": 9127,
      "बिरुवा": 9128,
      "##ुरेन्ट": 9129,
      "सहकार्यमा": 9130,
      "लाखभन्दा": 9131,
      "जगत": 9132,
      "सेमिफाइनलमा": 9133,
      "कार्यान्वयनका": 9134,
      "सहजै": 9135,
      "अत्यन्तै": 9136,
      "इले": 9137,
      "##रलाई": 9138,
      "##ज्यू": 9139,
      "क्रि": 9140,
      "अभिलेख": 9141,
      "फाइनान्स": 9142,
      "दिश": 9143,
      "महीना": 9144,
      "दुईजना": 9145,
      "आश्वासन": 9146,
      "बहान": 9147,
      "उपराष्ट्रपति": 9148,
      "##सभामुख": 9149,
      "परिचयपत्र": 9150,
      "##ाइरहेका": 9151,
      "घोषित": 9152,
      "##स्योर": 9153,
      "बुद्धि": 9154,
      "२०१४": 9155,
      "स्थितिमा": 9156,
      "गुमाउने": 9157,
      "स्क": 9158,
      "बाँस्को": 9159,
      "##लीमा": 9160,
      "आप्र": 9161,
      "##िएकी": 9162,
      "डोनाल्ड": 9163,
      "मतगणना": 9164,
      "नआएको": 9165,
      "##्याक": 9166,
      "परिसरमा": 9167,
      "केटा": 9168,
      "मध्यन": 9169,
      "लाखको": 9170,
      "मानिने": 9171,
      "##ण्डमा": 9172,
      "नेतालाई": 9173,
      "बीबी": 9174,
      "समाजवाद": 9175,
      "##जस्ती": 9176,
      "कमला": 9177,
      "नम्बरमा": 9178,
      "सेनाका": 9179,
      "सुदृढ": 9180,
      "सम्झौतामा": 9181,
      "बीउ": 9182,
      "हेर्नु": 9183,
      "भर्खरै": 9184,
      "कठि": 9185,
      "##क्ष्मी": 9186,
      "निवारण": 9187,
      "टोक": 9188,
      "##ष्कार": 9189,
      "प्रविध": 9190,
      "सांसदहरुले": 9191,
      "हेलिको": 9192,
      "एकातिर": 9193,
      "रेग्मीले": 9194,
      "गभ": 9195,
      "ब्याट्": 9196,
      "हौ": 9197,
      "दोलखा": 9198,
      "मोर्चा": 9199,
      "##थोकी": 9200,
      "देखाएर": 9201,
      "कार्यकर्तालाई": 9202,
      "अधिकारको": 9203,
      "अवतरण": 9204,
      "भुसालले": 9205,
      "सञ्चारकर्मी": 9206,
      "मध्यनजर": 9207,
      "फस": 9208,
      "##विज": 9209,
      "स्पष्टीकरण": 9210,
      "लागेपछि": 9211,
      "पदबाट": 9212,
      "प्रजातान्त्रिक": 9213,
      "श्रद्धा": 9214,
      "जात्रा": 9215,
      "##चाप": 9216,
      "छैट": 9217,
      "अर्याल": 9218,
      "स्क्र": 9219,
      "बैशाख": 9220,
      "कम्तिमा": 9221,
      "हतार": 9222,
      "काँग्रेसका": 9223,
      "लागतमा": 9224,
      "स्वाभाविक": 9225,
      "हेलिकोप्टर": 9226,
      "छुट्टा": 9227,
      "राती": 9228,
      "उद": 9229,
      "वान": 9230,
      "##ञ्जी": 9231,
      "##छुट": 9232,
      "च्याम्पियन्स": 9233,
      "बनाउँछ": 9234,
      "##ायर": 9235,
      "लिँदै": 9236,
      "मेट्रिक": 9237,
      "लगायतको": 9238,
      "##दायक": 9239,
      "लेन": 9240,
      "रिहा": 9241,
      "सकिन": 9242,
      "##र्टर": 9243,
      "तौल": 9244,
      "अविश्वासको": 9245,
      "हेटौंडा": 9246,
      "सट्टा": 9247,
      "बाजुरा": 9248,
      "सरस्वती": 9249,
      "आजदेखि": 9250,
      "##ाउँमा": 9251,
      "कम्पनीमा": 9252,
      "गर्नुको": 9253,
      "मुना": 9254,
      "प्रचण्डको": 9255,
      "जबर": 9256,
      "गहिरो": 9257,
      "ठिक": 9258,
      "प्रतिशतभन्दा": 9259,
      "पौडेलको": 9260,
      "##राहा": 9261,
      "बालक": 9262,
      "##ात्": 9263,
      "ट्रेड": 9264,
      "चाडपर्व": 9265,
      "एसएसपी": 9266,
      "##दिभ": 9267,
      "सिस": 9268,
      "कृष्णबहादुर": 9269,
      "इतिहासमा": 9270,
      "##घात": 9271,
      "सागर": 9272,
      "रेखा": 9273,
      "नराम्रो": 9274,
      "लाइफ": 9275,
      "एनसेल": 9276,
      "ग्राहकले": 9277,
      "##ब्लिक": 9278,
      "गैरआ": 9279,
      "बस्तीमा": 9280,
      "कालोपत्रे": 9281,
      "दिशा": 9282,
      "सुकु": 9283,
      "पैदा": 9284,
      "सम्मानित": 9285,
      "टिका": 9286,
      "अभिवृद्धि": 9287,
      "मापन": 9288,
      "माइक्रो": 9289,
      "अंश": 9290,
      "सना": 9291,
      "##फ्र": 9292,
      "लाग्दैन": 9293,
      "चाइ": 9294,
      "गरेसँगै": 9295,
      "कार्यतालिका": 9296,
      "सुमन": 9297,
      "##हरि": 9298,
      "भेन्टिलेटर": 9299,
      "कोरियाली": 9300,
      "गतेबाट": 9301,
      "गुमाएर": 9302,
      "पर्नेछ": 9303,
      "हजारौं": 9304,
      "प्रभु": 9305,
      "रहेकी": 9306,
      "भैरहेको": 9307,
      "##म्बरमा": 9308,
      "##स्तरको": 9309,
      "##न्तिक": 9310,
      "म्याने": 9311,
      "सार्वभौ": 9312,
      "##िएफ": 9313,
      "प्रतितो": 9314,
      "##किएको": 9315,
      "निष्कास": 9316,
      "डिल": 9317,
      "दलहरु": 9318,
      "करोडको": 9319,
      "नेताहरुको": 9320,
      "हेल्थ": 9321,
      "राउत": 9322,
      "छाला": 9323,
      "ज्याला": 9324,
      "अनौपचारिक": 9325,
      "उपन्यास": 9326,
      "करिव": 9327,
      "वैद्य": 9328,
      "नायक": 9329,
      "##बेर": 9330,
      "बोनस": 9331,
      "निर्णयमा": 9332,
      "बजेतिर": 9333,
      "विभागमा": 9334,
      "##बित्तिकै": 9335,
      "मार्ने": 9336,
      "ध्यानमा": 9337,
      "##आमा": 9338,
      "पदका": 9339,
      "##ड्ने": 9340,
      "कम्प्युटर": 9341,
      "महँगो": 9342,
      "गुज": 9343,
      "शताब्": 9344,
      "बन्ध": 9345,
      "##ुअ": 9346,
      "उपसमिति": 9347,
      "झरेको": 9348,
      "मानन्ध": 9349,
      "निराश": 9350,
      "न्य": 9351,
      "##ाध्यापक": 9352,
      "निम्त्या": 9353,
      "तीर्थ": 9354,
      "युरोपेली": 9355,
      "अक्ष": 9356,
      "##तेको": 9357,
      "खत्र": 9358,
      "उठाएका": 9359,
      "बाँडफाँ": 9360,
      "उठाएको": 9361,
      "##देख": 9362,
      "मस": 9363,
      "घिस": 9364,
      "##ईको": 9365,
      "सवै": 9366,
      "उपनिर्वा": 9367,
      "##धनको": 9368,
      "##शेष": 9369,
      "लगानीको": 9370,
      "रङ्ग": 9371,
      "हजारको": 9372,
      "नगरप्रमुख": 9373,
      "वर्षभन्दा": 9374,
      "पेनाल्टी": 9375,
      "बुढाथोकी": 9376,
      "वस्तुको": 9377,
      "आदान": 9378,
      "इण्ड": 9379,
      "##त्तिकै": 9380,
      "कच्चा": 9381,
      "दुइ": 9382,
      "##क्ला": 9383,
      "गोक": 9384,
      "फुटबलमा": 9385,
      "ढुंगा": 9386,
      "घरपरिवार": 9387,
      "ज्योति": 9388,
      "फोहर": 9389,
      "प्रयोगशालामा": 9390,
      "रोका": 9391,
      "पोर्चु": 9392,
      "वामदेव": 9393,
      "होइनन्": 9394,
      "##मह": 9395,
      "##मोर्च": 9396,
      "अन्तराष्ट्रिय": 9397,
      "प्रश्नको": 9398,
      "गाडीमा": 9399,
      "सार्क": 9400,
      "प्रशोधन": 9401,
      "इन्स्योर": 9402,
      "मल्लले": 9403,
      "##बासी": 9404,
      "##ेसी": 9405,
      "##ञ्जा": 9406,
      "पद्धति": 9407,
      "##पुले": 9408,
      "प्रणालीको": 9409,
      "शास्त्र": 9410,
      "बन": 9411,
      "##गृह": 9412,
      "सुब्बा": 9413,
      "२०७१": 9414,
      "धनगढ": 9415,
      "हङकङ": 9416,
      "हस्": 9417,
      "शिक्षाको": 9418,
      "नगरे": 9419,
      "अस्पताललाई": 9420,
      "##विश्वास": 9421,
      "बाह्र": 9422,
      "खत्री": 9423,
      "लकडाउनका": 9424,
      "सयभन्दा": 9425,
      "गरेकोमा": 9426,
      "ताली": 9427,
      "इञ्ज": 9428,
      "हौँ": 9429,
      "बेनी": 9430,
      "खाएर": 9431,
      "विद्यालयले": 9432,
      "क्षण": 9433,
      "नवलपरासी": 9434,
      "कलेजमा": 9435,
      "भ्याक्सिन": 9436,
      "##्र्यो": 9437,
      "जनमत": 9438,
      "काफ्ले": 9439,
      "##बिना": 9440,
      "मिलेको": 9441,
      "महाशाखा": 9442,
      "जेठमा": 9443,
      "सिफारिसमा": 9444,
      "आत्मनिर्भर": 9445,
      "##िमि": 9446,
      "पक्कै": 9447,
      "गैरका": 9448,
      "##नुपर्दछ": 9449,
      "चाँडो": 9450,
      "समस्य": 9451,
      "क्वारेन्टिनमा": 9452,
      "चीनका": 9453,
      "प्रकरणमा": 9454,
      "##स्टिक": 9455,
      "##जियम": 9456,
      "जलविद्युत": 9457,
      "##राग": 9458,
      "विश्वकर्मा": 9459,
      "अवकाश": 9460,
      "भगवान": 9461,
      "गोल्": 9462,
      "##ंस": 9463,
      "##वीर": 9464,
      "जिप": 9465,
      "लोकतन्त्रको": 9466,
      "गुमाएको": 9467,
      "आइरहेका": 9468,
      "राख्नुपर्ने": 9469,
      "प्रचलन": 9470,
      "तारिख": 9471,
      "##णु": 9472,
      "##याम": 9473,
      "दूतावासले": 9474,
      "सारेको": 9475,
      "ल्याए": 9476,
      "निषेधाज्ञ": 9477,
      "##च्छेद": 9478,
      "प्रयत्न": 9479,
      "##ेन्सन": 9480,
      "जोड्न": 9481,
      "प्रतितोला": 9482,
      "व्यवसायीको": 9483,
      "बाहिरबाट": 9484,
      "स्तरमा": 9485,
      "##ारीको": 9486,
      "दैनिकमा": 9487,
      "तान": 9488,
      "पत्रकारिता": 9489,
      "घेर": 9490,
      "ब्याट्सम्यान": 9491,
      "बढीमा": 9492,
      "बीपी": 9493,
      "कारोवार": 9494,
      "##्ररी": 9495,
      "हालको": 9496,
      "##ाइरहेको": 9497,
      "पुलको": 9498,
      "व्यवसायीलाई": 9499,
      "गगन": 9500,
      "स्वीका": 9501,
      "##हको": 9502,
      "इन्स्ट": 9503,
      "जुलाई": 9504,
      "उत्साहित": 9505,
      "##ेग": 9506,
      "समर्थक": 9507,
      "डाँ": 9508,
      "बनेपछि": 9509,
      "गराई": 9510,
      "गुर": 9511,
      "चिर": 9512,
      "निगमको": 9513,
      "देखिन्छन्": 9514,
      "नन्द": 9515,
      "##ग्रहण": 9516,
      "##ारो": 9517,
      "अनुरुप": 9518,
      "नेकपाले": 9519,
      "गराउनु": 9520,
      "रोजगारीको": 9521,
      "दुबई": 9522,
      "शहीद": 9523,
      "डिफ": 9524,
      "##िमण्ड": 9525,
      "##न्टी": 9526,
      "जवान": 9527,
      "गैरस": 9528,
      "केदार": 9529,
      "प्रक्रिय": 9530,
      "##स्वीर": 9531,
      "ख्याल": 9532,
      "झापाको": 9533,
      "पं": 9534,
      "रुपैयाँसम्म": 9535,
      "##ेच्छ": 9536,
      "##ियन्ट": 9537,
      "दीपेन्द्र": 9538,
      "मालपोत": 9539,
      "विदा": 9540,
      "इमा": 9541,
      "समाजले": 9542,
      "तस्वीर": 9543,
      "शिलान्यास": 9544,
      "दिलाए": 9545,
      "भुसाल": 9546,
      "निश": 9547,
      "##ुग": 9548,
      "लगाउनु": 9549,
      "##चेत": 9550,
      "गर्दछु": 9551,
      "जुम्ला": 9552,
      "नेटवर्क": 9553,
      "आर्जन": 9554,
      "##पेट": 9555,
      "केन्द्रबाट": 9556,
      "प्ल": 9557,
      "##क्लो": 9558,
      "##स्रोत": 9559,
      "घाम": 9560,
      "प्लान्ट": 9561,
      "२०२१": 9562,
      "गोकर्ण": 9563,
      "जीत": 9564,
      "##एमई": 9565,
      "बाख्रा": 9566,
      "परिक्षण": 9567,
      "##प्रसार": 9568,
      "समुदायले": 9569,
      "बेलायतमा": 9570,
      "टर्की": 9571,
      "गृहकार्य": 9572,
      "निकाल्ने": 9573,
      "##षक": 9574,
      "साउनमा": 9575,
      "फर्": 9576,
      "नपाइने": 9577,
      "भवनको": 9578,
      "##भावी": 9579,
      "व्यवसायिक": 9580,
      "##द्धान्तिक": 9581,
      "सम्हाल": 9582,
      "यात्रामा": 9583,
      "गे": 9584,
      "गोप्य": 9585,
      "##केश": 9586,
      "नसके": 9587,
      "परिमाण": 9588,
      "##वाहक": 9589,
      "जथा": 9590,
      "##फेर": 9591,
      "पाहु": 9592,
      "अख्तियारले": 9593,
      "बाहिरी": 9594,
      "बड": 9595,
      "श्वास": 9596,
      "प्रशस्त": 9597,
      "##य्या": 9598,
      "लगेको": 9599,
      "तालमेल": 9600,
      "जनवरी": 9601,
      "ल्याब": 9602,
[...]
