[CLS]
[PAD]
[SEP]
[MASK]
[UNK]
!
"
#
$
%
&
'
(
)
*
+
,
-
.
0
1
2
3
4
5
6
7
8
9
:
;
<
=
>
?
@
A
C
D
E
F
H
I
L
M
N
O
P
R
S
T
U
V
Y
[
\
]
^
_
`
a
b
c
d
e
f
g
h
i
k
l
m
n
o
r
s
t
u
w
x
y
{
|
}
~
¡
£
¤
¥
§
©
«
¬
®
°
±
·
»
¿
Ã
Å
Æ
Ç
È
É
Ë
Í
Ï
Ò
Ó
Ô
Õ
Ö
×
Ø
Ù
Ú
Û
Ü
Ý
Þ
à
á
â
ã
ä
å
æ
ç
è
é
ê
ë
ì
í
ð
ñ
ò
ó
ô
ö
÷
ø
ú
ü
ā
ć
ğ
İ
ı
ł
ō
Œ
œ
ś
ş
š
ƒ
ə
ɪ
ɴ
ʹ
ʻ
ʼ
ʽ
ʾ
ʿ
ˆ
ˈ
ː
˗
́
̃
̈
̊
̕
̥
̧
̨
̵
̶
Δ
Σ
α
β
μ
ο
π
А
Б
В
Д
З
И
К
Л
М
Н
О
П
Р
С
Т
У
Ц
Ч
Я
а
б
в
г
д
е
ж
з
и
й
к
л
м
н
о
п
р
с
т
у
ф
х
ц
ч
ш
щ
ы
ь
э
ю
я
ё
є
і
ї
҆
՛
ְ
ֲ
ֹ
א
ב
ג
ד
ה
ו
ח
ט
י
כ
ל
ם
מ
ן
נ
ע
פ
ר
ש
ת
،
ؘ
؟
ء
آ
أ
ؤ
إ
ئ
ا
ب
ة
ت
ث
ج
ح
خ
د
ذ
ر
ز
س
ش
ص
ض
ط
ظ
ع
غ
ـ
ف
ق
ك
ل
م
ن
ه
و
ى
ي
ً
َ
ُ
ِ
ْ
ٹ
ټ
پ
چ
ډ
ڑ
ړ
ژ
ښ
ک
گ
ں
ھ
ہ
ی
ې
ے
۔
ە
ँ
ं
ः
अ
आ
इ
ई
उ
ऊ
ऋ
ऍ
ऎ
ए
ऐ
ऑ
ऒ
ओ
औ
क
ख
ग
घ
ङ
च
छ
ज
झ
ञ
ट
ठ
ड
ढ
ण
त
थ
द
ध
न
प
फ
ब
भ
म
य
र
ऱ
ल
ळ
व
श
ष
स
ह
़
ऽ
ा
ि
ी
ु
ू
ृ
ॄ
ॅ
ॆ
े
ै
ॉ
ॊ
ो
ौ
्
ॐ
॑
॒
॔
ॠ
।
॥
०
१
२
३
४
५
६
७
८
९
॰
ॽ
ঁ
ং
অ
আ
ই
উ
ঋ
এ
ও
ক
খ
গ
ঙ
চ
ছ
জ
ঝ
ঞ
ট
ড
ত
থ
দ
ধ
ন
প
ফ
ব
ভ
ম
য
র
ল
শ
ষ
স
হ
়
া
ি
ী
ু
ূ
ৃ
ে
ো
্
১
ৰ
৷
ં
અ
આ
ક
ખ
ગ
ચ
છ
જ
ટ
ડ
ણ
ત
થ
દ
ધ
ન
પ
બ
ભ
મ
ય
ર
લ
ળ
વ
શ
ષ
સ
હ
ા
િ
ી
ુ
ૂ
ે
ો
્
૪
அ
க
ச
ட
ண
த
ந
ன
ப
ம
ய
ர
ற
ல
வ
ா
ி
ு
ே
ை
்
ం
అ
ఆ
క
గ
చ
జ
ట
డ
త
ద
న
ప
భ
మ
య
ర
ల
వ
ష
స
ా
ి
ు
ె
ే
ో
్
ಂ
ಅ
ಕ
ಗ
ಟ
ಡ
ತ
ದ
ನ
ಪ
ಮ
ಯ
ರ
ಲ
ಳ
ವ
ಷ
ಸ
ಹ
ಾ
ಿ
ು
ೆ
ೇ
್
ก
ข
ค
ง
ด
ต
ท
น
บ
ป
พ
ม
ย
ร
ล
ว
ศ
ส
ห
อ
ะ
ั
า
ิ
ี
ื
เ
ไ
่
้
์
က
င
စ
ဆ
ည
တ
ပ
မ
သ
အ
ာ
ု
ေ
ံ
့
း
်
ြ
ွ
ᅠ
ᴏ
‐
‒
–
—
―
‘
’
‚
‛
“
”
„
†
•
‰
′
‹
›
⁃
⁄
€
₹
⃣
→
⇨
−
∕
∙
∞
≈
≠
≤
≥
⋲
⎯
■
▪
▶
◊
○
●
◙
☀
☑
☘
☠
☭
☺
♀
♂
♡
♥
♦
♬
⚔
⚠
⚡
⚪
⚫
⚽
✅
✈
✊
✌
✍
✔
✨
✿
❄
❌
❍
❓
❖
❛
❝
❞
❣
❤
➡
⠀
⦁
⦿
⬆
⬇
⭐
、
。
【
】
い
う
か
が
し
す
た
て
で
と
に
の
は
ま
り
る
を
イ
ク
シ
ス
ツ
バ
ラ
ン
・
ー
上
不
专
中
之
了
亚
人
伟
作
健
公
前
医
友
发
台
同
在
坚
多
大
天
妹
家
就
年
康
恩
情
护
文
新
日
明
曾
月
東
正
武
汉
沈
洲
満
由
痛
着
立
老
自
讲
诗
赵
酒
金
錚
风
니
리
️
￼
🆚
🇦
🇧
🇨
🇩
🇪
🇫
🇬
🇭
🇮
🇯
🇰
🇱
🇲
🇳
🇴
🇵
🇶
🇷
🇸
🇹
🇺
🇻
🇽
🇾
🇿
🌈
🌍
🌎
🌏
🌞
🌟
🌧
🌳
🌸
🌹
🌺
🌻
🌼
🍀
🎀
🎂
🎄
🎉
🎞
🎤
🎥
🎬
🎲
🎶
🏅
🏆
🏏
🏟
🏠
🏴
🏻
🏼
🏽
🏾
🏿
🐅
🐐
🐯
🐰
👀
👇
👈
👉
👊
👋
👌
👍
👏
👑
👨
👩
👭
👶
👻
👼
💁
💃
💉
💋
💍
💐
💓
💔
💕
💖
💗
💘
💙
💚
💛
💜
💝
💞
💥
💪
💫
💯
💰
📍
📝
📷
📸
📹
📺
📽
🔙
🔛
🔝
🔥
🔴
🔵
🔷
🔹
🕺
🖤
🗣
😀
😁
😂
😃
😄
😅
😆
😇
😈
😉
😊
😋
😌
😍
😎
😏
😐
😔
😘
😚
😛
😜
😝
😞
😟
😡
😢
😪
😫
😭
😮
😱
😲
😳
😷
🙂
🙄
🙈
🙌
🙏
🚀
🚨
🛬
🤍
🤓
🤔
🤗
🤘
🤛
🤜
🤞
🤣
🤦
🤩
🤪
🤯
🤰
🤲
🤷
🥂
🥇
🥈
🥉
🥰
🥳
🥺
🦋
🦠
🧡
🧿
##ा
##ं
##ग
##ठ
##न
##ि
##स
##्
##त
##र
##म
##े
##ज
##ु
##क
##ो
##ल
##ह
##प
##द
##थ
##य
##ख
##फ
##व
##उ
##ए
##ी
##इ
##ँ
##ई
##ञ
##ै
##ट
##ब
##ू
##घ
##छ
##ण
##भ
##ष
##ौ
##ड
##श
##च
##ध
##ङ
##५
##०
##६
##ृ
##झ
##अ
##आ
##ः
##४
##२
##१
##ऊ
##÷
##३
##९
##ढ
##७
##ओ
##औ
##८
##़
##ی
##ئ
##ر
##ॅ
##ک
##ړ
##🇬
##🇳
##🇪
##6
##8
##0
##3
##1
##4
##7
##9
##️
##т
##к
##р
##ы
##🙈
##ॆ
##¥
##2
##ط
##ا
##ف
##5
##ऋ
##ऐ
##¬
##ل
##ع
##ه
##Œ
##❤
##🤣
##🏽
##🙏
##و
##ऽ
##💙
##😔
##ऎ
##ہ
##د
##ے
##্
##ব
##া
##ম
##ী
##Þ
##а
##и
##м
##н
##я
##ں
##U
##T
##A
##∙
##ऱ
##⃣
##ো
##র
##ش
##م
##య
##్
##ా
##న
##ు
##ھ
##ز
##ي
##ة
##💋
##🌈
##ı
##ğ
##פ
##י
##ד
##ॉ
##Ï
##о
##с
##в
##🎶
##ಲ
##ಾ
##ವ
##ಿ
##ದ
##M
##ಟ
##್
##🇩
##œ
##й
##ુ
##જ
##ર
##ા
##ત
##ت
##х
##ॊ
##ি
##য
##়
##ে
##🏻
##♂
##ু
##ড
##😎
##إ
##ج
##🇸
##⁄
##ð
##ح
##ن
##新
##♥
##😇
##🙌
##ॐ
##®
##ث
##ळ
##ক
##ট
##✈
##ο
##⭐
##∕
##మ
##ర
##ం
##ন
##🔴
##غ
##ঁ
##е
##д
##ض
##😍
##ূ
##ত
##س
##×
##ب
##±
##॑
##॒
##ન
##વ
##ી
##ж
##л
##Ù
##≈
##ঞ
##চ
##ল
##È
##ق
##🤞
##💕
##🏼
##✨
##ล
##ก
##ร
##ะ
##ห
##ม
##่
##อ
##ิ
##ง
##บ
##ั
##ต
##น
##👏
##ˆ
##🍀
##ং
##গ
##ৰ
##ছ
##−
##Ò
##°
##શ
##ળ
##🇺
##у
##⋲
##🌺
##🌎
##স
##ʾ
##گ
##پ
##చ
##ю
##г
##ь
##💐
##🇵
##🇲
##🇻
##ॽ
##i
##g
##d
##e
##l
##∞
##🥺
##o
##প
##ভ
##ø
##ষ
##ऒ
##🎉
##э
##か
##明
##日
##の
##ラ
##イ
##に
##て
##で
##す
##😘
##ʹ
##భ
##త
##ి
##أ
##⠀
##🤗
##🏆
##Ô
##月
##🇴
##ע
##ו
##б
##ء
##ì
##ː
##ɪ
##🥰
##خ
##آ
##ك
##a
##n
##c
##h
##ш
##з
##ʼ
##ย
##า
##เ
##ป
##ท
##ศ
##ไ
##ด
##ข
##้
##ص
##🔥
##🐯
##🏾
##♀
##💞
##🧿
##🌞
##ظ
##🇰
##🏏
##⚫
##⚪
##⚽
##ى
##⬇
##ો
##ગ
##દ
##🤦
##জ
##🔛
##≠
##🇹
##◊
##બ
##ૂ
##ભ
##🎄
##E
##Y
##📸
##ડ
##ã
##є
##😟
##১
##મ
##m
##ે
##ॄ
##א
##ר
##😂
##😜
##వ
##ట
##x
##ô
##শ
##Å
##上
##医
##̈
##ş
##ี
##ؘ
##ф
##Ç
##☺
##ה
##ם
##৷
##🌸
##🇾
##🇷
##ת
##પ
##â
##ч
##ё
##s
##ە
##💜
##🇭
##ಪ
##ರ
##ತ
##ಯ
##п
##ว
##์
##🤔
##H
##I
##L
##🤯
##🙄
##✌
##হ
##≤
##ç
##מ
##ש
##😮
##ও
##Ý
##В
##💪
##y
##u
##ખ
##્
##ય
##ં
##ॠ
##▶
##נ
##©
##🌳
##💥
##ט
##ל
##ً
##🇽
##ು
##ü
##ో
##ష
##😊
##খ
##ই
##ᴏ
##ɴ
##🇱
##🇨
##ښ
##➡
##і
##😄
##b
##r
##t
##👍
##િ
##Ú
##ц
##🎥
##👇
##থ
##ধ
##З
##ಗ
##ಳ
##ನ
##😢
##友
##作
##দ
##ِ
##😳
##щ
##👌
##ٹ
##˗
##€
##✊
##ऑ
##😀
##ే
##ב
##と
##る
##は
##い
##📍
##μ
##̃
##ચ
##છ
##💖
##ಕ
##ಷ
##🇮
##π
##α
##●
##😪
##ـ
##ֹ
##چ
##🖤
##💃
##❓
##С
##ွ
##ေ
##း
##ု
##ံ
##့
##ဆ
##ာ
##်
##သ
##ည
##ಹ
##ಸ
##😋
##😈
##🤷
##🏠
##થ
##ક
##í
##ঙ
##🦋
##康
##专
##家
##在
##台
##天
##ல
##ை
##ர
##்
##ス
##バ
##ー
##ン
##ې
##ಂ
##N
##َ
##ْ
##東
##を
##た
##כ
##૪
##🌟
##🎀
##జ
##ೆ
##ذ
##ધ
##લ
##📺
##ؤ
##人
##公
##Ü
##ె
##ల
##ட
##ி
##ய
##ா
##😲
##த
##ப
##ு
##⇨
##🇦
##ফ
##😭
##老
##☠
##❣
##不
##同
##é
##k
##ژ
##🌼
##ڑ
##ண
##ன
##அ
##க
##ம
##ણ
##👨
##👩
##က
##စ
##တ
##မ
##Ã
##வ
##👉
##☀
##ן
##年
##💫
##🇯
##🇶
##҆
##🥂
##ே
##🤩
##✅
##☘
##就
##😛
##f
##¤
##గ
##พ
##ส
##ค
##ೇ
##w
##О
##Н
##Д
##ऍ
##ટ
##ї
##ற
##👊
##👼
##Σ
##🥳
##🇧
##🇿
##🐰
##🤛
##🏿
##Ë
##š
##ပ
##ြ
##Б
##😁
##😆
##🐐
##S
##ʿ
##ಡ
##👀
##🚀
##○
##￼
##క
##ُ
##P
##🌹
##ְ
##స
##ಮ
##💔
##🙂
##健
##痛
##风
##酒
##发
##😅
##ə
##ג
##立
##坚
##満
##う
##し
##🤘
##ま
##R
##🚨
##ú
##💘
##😱
##Ö
##🇫
##ˈ
##ద
##🤲
##🔵
##ö
##હ
##ષ
##O
##👶
##💰
##≥
##အ
##င
##̊
##之
##ச
##Л
##Р
##C
##ప
##ঝ
##॔
##👋
##ډ
##■
##が
##å
##⚡
##ח
##ƒ
##😡
##中
##ク
##妹
##了
##🤓
##り
##Ó
##ื
##리
##💯
##✿
##ৃ
##大
##🌻
##文
##উ
##β
##니
##డ
##è
##🧡
##🎞
##😫
##👻
##💍
##😏
##ć
##😝
##😉
##🔝
##Û
##🔹
##Õ
##V
##̶
##👑
##🕺
##̥
##🎲
##♦
##ō
##🏴
##́
##😐
##亚
##❄
##🥇
##🌏
##સ
##シ
##金
##💛
##💚
##正
##恩
##😃
##⬆
##ñ
##❌
##由
##洲
##🌍
##😷
##💓
##ツ
##🎤
##ᅠ
##💉
##💝
##💗
##前
##А
##Я
##多
##汉
##护
##🤪
##🌧
##情
##ä
##🤍
##ந
##К
##👈
##💁
##ā
##🤰
##讲
##自
##伟
##🥈
##🥉
##😚
##̨
##诗
##D
##ʻ
##F
##錚
##😞
##着
##Æ
##को
##्र
##र्
##मा
##का
##न्
##ले
##्य
##ने
##ार
##ाल
प्र
##ला
##ान
##स्
##एको
##ना
##क्
##ता
##ति
गर
वि
##ेको
##त्र
##नि
##म्
गर्
##री
##िय
का
##वा
##लाई
##ाग
##नु
##ित
##िक
##्या
हु
##हर
रा
नि
##न्द
ने
##क्ष
##ुर
##ल्
##था
##पाल
सं
स्
##ाउ
##ेश
दि
##त्
##ाट
पनि
##ेर
##ाँ
##र्य
##एका
उन
##ेका
सम
##ष्
मा
##यो
##हि
सा
लाग
छन्
##िका
भएको
##ाम
##दै
##बाट
##न्त्र
नेपाल
##दा
भने
##क्र
##ाइ
हो
##कार
##हरु
##ेख
##िएको
##स्त
##ीय
##द्
##रा
##छि
गरेको
##ियो
रह
त्य
निर्
##पा
को
##ष्ट
कार्य
##ेल
##िए
##रो
के
##रि
बता
पु
लागि
##वि
##ही
##र्ष
##देश
##ारी
सम्
गर्ने
##हा
##लो
एक
##धान
पा
अध
गर्न
##नी
##न्छ
सर
प्रति
##पछि
##ली
सु
##न्त
##्च
##ाय
##्न
##स्था
##ालय
##बार
थियो
##ँग
##हरू
जना
व्य
यस
##भा
यो
क्
##म्म
##िस
तथा
##ण्
अनु
##स्थ
##क्रम
उप
दु
##रह
उनले
आफ
वर्ष
##टी
##पर्
सरकार
बढ
##सँग
हुने
##की
##ंग
##भि
##न्त्री
##िल्
##जार
##ुप
सह
##ेट
##ेस
राज
##रण
##द्ध
##िन
##ण्ड
##योग
##न्द्र
##कारी
##ङ्
मु
सि
##टा
##्रो
##ेत
##ेखि
थिए
##ाउँ
##वस्था
##ष्ट्र
##क्त
##नमा
##सार
स्थ
बि
क्ष
##ाला
##र्व
भए
लग
रहेको
##गर
##िम
##्व
##र्थ
##ुन
नै
कार
##प्
बै
##सा
गरेका
त्यस
##न्न
तर
##ौं
काम
प्रह
बना
##सी
बताए
##नुपर्
##ानी
##ाख
हजार
भएका
##सम्म
प्रहरी
##याँ
##ामी
##मन्त्री
##ास
पार्
##िने
##मु
##िया
##द्य
##धि
##हिले
##पालिका
२०
विश
से
स्थान
##दी
गरिएको
##न्दा
##ेत्र
सो
##न्य
##ुरु
##जना
जन
##ँदै
उनी
रुप
##प्र
##नको
जान
##न्ध
##बै
पू
क्षेत्र
##डा
भन्
परि
##म्प
##्यक्ष
बा
##ती
राष्ट्र
रो
पर
##िल्ला
##ेला
##वार
प्रदेश
##िति
##्ने
जिल्ला
सबै
गरे
##ञ्च
##र्म
##माण
मह
##ृत
##चार
##क्षा
वा
##ैन
##उने
##रहेको
##धार
मात्र
ती
गत
##ोल
गर्दै
बु
##हाँ
गरी
भार
समा
##ालाई
##टर
##म्ब
दिन
दुई
##जा
पार्टी
##ंक
##ाउन
##्रा
सक
प्रा
राख
##स्ता
पुग
भारत
अहिले
नेपाली
अर्
जो
##ेद
कम
##्यु
स्वा
##ाउने
महि
##क्ति
गरि
छैन
##एर
##हु
##गा
समय
##ुरा
प्रधान
कारण
##र्ण
##कै
##भाव
देख
##नुपर्ने
##उन
##सक
##मान
जानकारी
घर
##ध्य
##्रम
##बी
##डी
लाख
पहि
##ग्र
##ाली
कोरो
सय
कोरोना
खो
##छन्
##मुख
##जी
भन्ने
उत्
था
##कु
##घि
केन्द्र
महा
##रु
##देखि
नगर
आफ्न
##ुट
कार्यालय
##िव
##या
##ोक
निर्माण
##ठमा
अध्यक्ष
व्यवस्था
हुन्
अस्
केही
##तिक
##निक
हुन
##र्फ
##टक
##ाह
##पुर
लि
##पत
##्ञ
सरकारले
सद
अव
काठमा
स्थानीय
अनुसार
##स्य
##र्ता
खेल
##ेक
##ेन्
##ठक
##जन
हामी
प्रधानमन्त्री
मि
गाउँ
स्व
##भन्दा
मन्त्र
पर्
भइ
निय
##ँदा
सञ्च
##त्व
##स्थ्य
कि
देश
##कास
अधिका
##पी
##गत
##बन्ध
##फल
##स्तो
काठमाड
नेता
बैठक
##ोर
प्रमुख
##सि
कार्यक्रम
अवस्था
हुन्छ
##ामा
##हित
सक्
अन्त
##ष्ठ
या
##सम
संक्रम
##स्तै
आफ्नो
##भाग
आयो
स्वास्थ्य
समिति
##क्षण
##सद
प्रश
कुन
निर्वा
विष
##न्दै
##ूल
##रमा
दिए
हि
##र्च
अस्पत
आइ
तय
अस्पताल
श्र
यु
कुरा
##रिक
पो
जा
##नुभ
मान
समेत
विकास
बज
##्यान
रहेका
##र्क
##पू
##ेरै
##मै
निर्ण
##वास
ल्या
सदस्य
##ुल
आव
##पति
##दान
##ायत
बो
देखि
साथ
गरेर
आएको
##बा
##्रेस
##डि
##हरुले
निर्वाच
विषय
गु
##ब्
१०
तीन
विश्व
##्यो
##दुर
ओली
##ीमा
##ौँ
##िल
##सो
निर्णय
धेरै
##ाँच
आज
मन्त्रालय
दल
कुनै
##वन
मृत
भन्दै
नयाँ
##ज्ञ
नभ
##पमा
##यन
##च्च
##उँ
सञ्चाल
##शत
मो
पहिलो
बढी
##मेर
जनाएको
राम
रू
घट
##ुक
##ैले
काठमाडौं
सङ्
##इएको
शि
##लमा
##स्ट
##माले
दो
##राज
##डक
राष्ट्रिय
सुरु
##स्या
खु
सुर
##श्य
प्रतिशत
आफू
कम्प
##िट
##थि
उनको
##ेव
##हादुर
##प्त
नगरपालिका
##िर
##वादी
थप
##ताको
##ैयाँ
##रोड
##धन
समस्या
रुपमा
करोड
##िङ
##ेन
पार
##ख्या
विद्य
##वस
हा
सडक
सेवा
##लग
प्रव
पछि
##कृ
कम्पनी
##ेड
##हरुको
भू
##यर
सामा
माग
बस
##भिन्न
संघ
रुपैयाँ
##रहेका
##ंग्रेस
##बहादुर
##णा
मृत्यु
अन्य
##ोग
कांग्रेस
##श्यक
##नामा
##ुक्त
##अघि
बैंक
##मि
##चिव
शु
##रको
विभिन्न
##सहित
परी
दिएको
##जिक
##ट्
बस्
गते
व्यक्ति
चि
##ाएको
##ग्
राजनी
महिला
##धा
उक्त
##पन
प्रयोग
डा
##र्ग
गर्दा
##स्थित
अब
गाउँपालिका
##ोली
##ोट
खा
##िप
##सँगै
##भित्र
##इन
भि
##त्त
पर्य
आयोजना
दा
१९
नाग
##ूह
सम्बन्ध
अप
क्रम
रु
##ञ्
दिने
##बीच
##न्स
##त्य
##र्श
मत
सहयोग
हुँदै
##न्ति
##वाद
कस
##हान
##ीले
पूर्व
##करण
हाल
##र्थिक
सू
मुख
आर्थिक
##न्ड
##श्च
उल्
पुन
##लि
नेक
बाल
##ाना
कृ
अमेर
कु
बाँ
उपचार
##चना
##तृ
##हरूले
नेकपा
##र्त
बेला
नाम
##लेख
एमाले
##लेको
##काल
आवश्यक
पत्र
##ीको
नागरिक
##वसाय
तह
##सं
निर्देश
एउ
त्यो
##पाद
##विधान
ना
सार्व
##ड्
क्षेत्रमा
संविधान
सभा
अधिकारी
##रुद्ध
पक्ष
आधार
##ित्
समूह
##सकेको
##नाइ
##ेन्द्र
ठू
व्या
##नका
##ङ्ग
##नुपर्छ
##पूर्ण
##र्ड
पाँच
जि
भा
##कम
छल
##ेन्ट
मन्त्री
##ध्ये
सार्वज
संक्रमण
##धिक
छलफल
##क्षक
मूल
##ीर
##्छ
सार्वजनिक
##नुभयो
##गरी
मात्रै
##मार
आएका
अस
##तामा
##वै
##समेत
चौ
जारी
##बारे
जी
मन
##द्या
##हरुलाई
बने
##अनु
टोली
उहाँ
##दि
सां
भयो
नेतृ
चार
##ेष्ठ
मुख्य
बे
निका
प्रहरीले
##तमा
स्था
##ुवा
मुल
##नले
##ोष
पोख
अभ
##रस
सर्व
रूपमा
##भर
##ञ्ज
##िज
##मति
चु
##न्व
भनेर
##तन्त्र
जित
नेतृत्व
कर्म
##त्म
भइरहेको
##ृद्ध
गर्नु
प्रभाव
छो
##स्रो
हे
बताएका
भेट
##ारा
##पत्र
वै
अघि
##र्ट
१५
उद्य
पटक
उल्लेख
##चारी
गो
वडा
##क्ता
##क्स
##धी
##हरूको
योजना
##ेपछि
जस
##ेष
कान
प्रतिनि
वर्षीय
क्रममा
भनि
१२
सम्प
बजार
११
व्यवसाय
गा
लेख
अद
##अनुसार
उत्पाद
##सक्
निर्वाचन
शा
हाम
##िएका
क्र
कर्मचारी
सुरक्षा
##जु
दोस्रो
विषयमा
एउटा
##िएर
ची
पर्ने
महिना
आयोग
##शी
२०७
वटा
##कल
श्रेष्ठ
##र्न
पाइ
दश
बुझ
भाइ
विक
समाज
गोल
अवस्थामा
पठ
पक्र
संस्था
अन्तर
##त्या
राजनीतिक
अदाल
निक
##ल्लो
##क्रिया
तयारी
आग
शर्
मुलुक
##तर्फ
बन्द
सचिव
विद्या
संसद
पक्राउ
##स्क
ले
##वी
सम्झ
##चा
##पना
सञ्चालन
सांसद
##उँदै
##माथि
तत्
भएपछि
गठ
सन्
लागेको
चा
पुगेको
छा
##ग्रह
सहभाग
##ओवादी
जोड
##्वास
उद्योग
##रोध
सम्म
##वेद
अनुस
भएकाले
लगानी
नेपालमा
विदेश
##हो
खे
##प्रति
##स्तु
परेको
थापा
##स्ताव
सक्ने
मे
##एपछि
बाट
५०
पौ
हामीले
अनि
नहु
ला
संक्रमित
हुँदा
आरो
##त्ता
परीक्षण
बजेट
गर्नुपर्ने
अगा
##दाय
साम
##इन्
देखिएको
##ष्टि
रकम
संख्या
नेपालको
##न्धान
##वारी
##डेल
##साद
##काश
##र्ने
##म्भ
##्दै
ठाउँ
नियन्त्र
विभाग
केन्द्रीय
##ेज
अनुसन्धान
ठूलो
इन्
राष्ट्रपति
विज्ञ
भनाइ
पद
##लगायत
ट्र
##हार
महान
खर्च
##कि
##ेउ
यस्तो
बनाउन
घटना
उपा
लगा
प्रस्ताव
होइन
दिएका
गएको
विद्यालय
लोक
अभि
भन्दा
##मी
##तको
माओवादी
##तले
##टन
परिवार
##ोधन
करि
आउने
नियन्त्रण
##खा
अर्को
कति
##मध्ये
लक्ष
##पु
##सभा
##लको
त्र
##र्स
##न्छन्
अफ
विशेष
खोज
घोष
##र्वा
##्री
##ष्ण
अर्थ
पानी
##मो
##र्फत
##वरण
सामाजिक
##ट्ट
अर्ब
पछिल्लो
##युक्त
नी
भएर
##जग
##दर्श
फर्क
प्राप्त
##वेश
##्यू
भारतीय
संर
पुर
पी
##ेमा
उठ
यहाँ
मूल्य
##यक
##म्बर
अगाडि
खेला
##ैं
खेलमा
##पर
नग
उपल
न्या
किन
##ंह
बनाउने
##ालले
##त्ति
त्यस्तै
लाम
अध्य
मौ
##लब
हर
मानिस
##टमा
हाम्रो
##ालिका
##मित
अझ
भाइरस
जाने
स्थानमा
विद्यार्थ
बाहि
##क्रमण
१४
##कुमार
गरिने
बस्ने
##िसक
सोम
यस्तै
२५
ति
##भिड
जनाको
सरकारको
प्रच
##नाव
स्प
##ेरो
राज्य
कृष
##न्ट
##यी
मुद्
##बर
अमेरिका
समयमा
उच्च
पौडेल
बिहान
उपलब्
##ाइन
##ष्ट्रिय
लगायत
##विधि
तयार
जे
साथै
खेलाडी
##फा
घोषणा
##पनि
##धिका
##मारी
१३
क्या
कोभिड
बार
देउ
##तिमा
##प्रसाद
बी
आग्रह
##ृद्धि
राम्रो
एव
ओलीले
##िता
##झा
किस
##टै
उत्पादन
##सु
व्याप
##विरुद्ध
##गम
##ल्या
##चि
##न्दोल
व्यवस्थापन
३०
यसअघि
##पक्ष
##ैनिक
##िन्छ
##ाल्
नभएको
शर्मा
शुक्र
परेका
सी
##त्मक
अभिय
अन
हुनु
स्ट
मुद्दा
##काली
यात्र
सम्पन्न
##ध्यक्ष
##तम
सहमति
##राई
##कर्ता
##ल्ला
कार्यक्रममा
पै
प्रशास
##ल्ने
##र्गत
उम्म
##रत
##बल
बुध
##हरूलाई
आइत
पत्रकार
##ाको
दुवै
##र्ज
##ंगल
##व्य
नीति
गौ
यी
फै
आन्दोल
चाह
भाग
##शाख
##दैन
##उँछन्
सम्झौ
सफल
डि
करिब
##ङ्क
चाल
सरकारी
शिक्षा
कार्या
खोप
हुनेछ
संग
बल
##दो
दुर्
चल
भट्ट
त्यहाँ
##ंश
##ीत
##समा
##ाइएको
नेपालले
##ृह
आधारमा
##डान
१६
अध्ययन
##जि
एस
##रू
##कर्म
##लव
फिल्
गर्छ
उनलाई
##ेकी
##न्ने
प्रक्रिया
सबैभन्दा
##धारण
##मिक
बैठकमा
##जक
आश
बढेको
##पाई
२४
जनता
##तरण
कार्यान्व
##सले
उम्मेद
यही
##रामी
##ाले
रोक
प्रचण्ड
सात
##ढी
##श्चिम
##थ्यो
पढ
१८
भित्र
मैले
अवस
##बु
विज
फि
##ारमा
ब्या
##िभ
निर्देशन
चरण
उपलब्ध
विद्यु
लिएर
सहभागी
##रले
छुट
समु
##िटी
याद
##कृति
सूचना
सोमबार
ता
श्री
यसै
विवाद
##लेका
##दार
सीमा
##दू
आइतबार
##ग्गा
सम्भाव
##लाइ
##वल
##नुभएको
बाँकी
##पटक
दर्ता
दाह
मध
उद्
##कर्ष
२०१
दाबी
अन्तर्रा
##ुरुष
निर
लामो
शनि
##कमा
युवा
उनका
##दर
आरोप
केपी
तपाई
##वेदन
##सको
मन्त्रालयले
##घट
##वाह
प्रकाश
फर
विश्वास
प्रतियोग
गुरु
शुक्रबार
विद्यार्थी
यसको
पूर्ण
सवारी
पुरुष
बाहिर
मंगल
अभियान
बुधबार
अधिक
ग्र
अन्तर्राष्ट्रिय
निकै
##ते
ध्यान
अन्ति
##यात
##ाटन
डे
बिही
##तिर
##हरुमा
आगामी
फिल्म
गरिरहेको
अन्तिम
सभापति
साल
ज्ञ
भण्ड
##यम
जग्गा
प्रदर्श
योग
वितरण
प्रतिनिध
पुर्य
भ्रम
##से
बनेको
पाउने
##र्ति
रे
कै
कृषि
एवं
##वर्त
वर्षको
फो
अस्पतालमा
##ीका
निकाय
यादव
रोजग
##र्जा
विमान
##िकी
बिरामी
पूरा
दू
विस्त
##ल्क
सम्झौता
पदा
विध
प्रवक्ता
##सन
लिन
त्यही
प्रय
##ल्न
प्रश्न
मेरो
##तर
सामान्य
तत्काल
१७
संघीय
अझै
आउ
चला
सन्द
मिने
नम्बर
##लेर
मै
##्ना
##सक्ने
##कालीन
फुट
बताउँछन्
देउवा
##कको
##छा
शे
##ीक
दक्ष
जीवन
सेना
जोख
नद
##तो
सिंह
##तार
बाटो
सकिने
जिम्म
लु
बिक
चुनाव
##न्धी
स्रो
##षद्
##ैँ
प्रवेश
शुरु
रहने
कर
जु
कारो
##ोरी
##ायण
पुष्टि
कार्
जिल्लामा
##ानको
##मिका
त्यसैले
##भव
गरेपछि
##ारायण
##चाल
##च्छ
सक्छ
नहुने
जोखिम
##ियन
पर्यटक
अधिकार
बताउ
बैठकले
त्यसको
तथ
घण्
भनेको
##लले
बिहीबार
परिवर्त
##्दा
##ुंग
लिएको
##क्का
जुन
रोग
सोही
दी
##िण
कसरी
##देव
अहिलेसम्म
पराज
##्युनि
महानगर
छन
##आर
गरा
दैनिक
छैनन्
##चित्र
##न्तर
##ल्प
फेर
शनिबार
खरि
##िन्
सहज
सर्वो
क्लब
पैसा
गण
##पानी
२१
स्थापना
मंगलबार
##ग्री
##ाउँदै
त्यसपछि
अंक
##राब
##लु
अमेरिकी
##सिक
रन
आफ्ना
शक्ति
##वासी
##्नु
##कड
भण्डारी
गृह
प्रयास
##रेल
##म्मा
भ्रमण
महत्व
बजे
सुन
४०
तेस
छौं
##ध्यम
संश
घाइ
##विद्य
उहाँले
खरिद
महाधि
ठाउँमा
बनाएको
##ेले
##िएपछि
म्या
गति
##पक
कम्युनि
##सचिव
थिएन
##म्बन्धी
सम्ब
कमिटी
दुर्घट
तेस्रो
कानुन
अरु
##ेता
##्वर
##शु
महामारी
मलाई
##पद
देव
##ानो
गरिरहेका
तोक
रि
##बाही
महाधिवेश
घण्टा
##ेयक
##जित
##र्जन
प्रदान
##रीक्षक
थि
क्षति
##मती
२२
##िकेट
सकिन्छ
चीन
##नाथ
कायम
चलचित्र
##स्त्र
खाने
पुनः
सम्भावना
त्यसै
##क्टर
ताल
केसी
भूमिका
सर्वोच्च
साँ
विधेयक
प्रण
##रुप
##धीश
##ामु
निजी
लक्ष्य
न्यू
##डित
##शील
##ाका
पर्यटन
लिग
##कलन
अधिकृत
चिक
दक्षिण
विकेट
##स्व
गठन
घाइते
समुदाय
##ोज
संस्
टे
नं
##स्थल
टिम
##ताका
##ोर्ट
पार्टीको
अवधि
##तालाई
##संघ
गुरुङ
##क्क
##ालो
चिकित्
छु
यसले
कार्यान्वयन
##्ले
उम्मेदवार
भट्टराई
मानव
ज्यान
जस्तो
कारोबार
कर्ण
हत्या
पोखरा
राई
रहे
हरेक
##कर्मी
हुँदैन
न्याय
दर
सुवि
संयो
विरोध
समितिले
##थे
विस्तार
देखिन्छ
आँ
सम्मेल
व्यव
##ोप
क्षम
मुख्यमन्त्री
##क्रिय
##लामा
तुल
जल
बसेको
राति
वरि
##ेसम्म
##एस
नसक
पुल
##हल
व्यवसायी
प्रणाली
औष
व्यक्त
##मार्ग
नदी
##धिकरण
आठ
जन्
चर्च
##ेवारी
आफ्नै
संयुक्त
##ेम
उपत्य
धा
प्रतिनिधि
भु
गम्भ
थाल
##मार्फत
गम्भीर
लकड
##द्र
प्रस्तु
चित
कम्पनीले
घरमा
पहिले
किसान
कोष
प्राधिकरण
संक
##स्थिति
राजधान
अग्र
##एन
##क्षित
अभाव
संगठ
मना
##शा
हात
थाहा
होट
##ंका
भिड
जिम्मेवारी
बहु
थालेको
चिनि
उपत्यका
##पको
भर्
कोइ
औं
##तिहा
एन
गाडी
भी
नजिक
दशम
##बद्ध
##सद्
##हन
व्यापार
गुमा
सुधार
##रीको
स्पष्ट
लिने
##चित
हस्ता
प्रतिनिधिस
२३
सुझा
समाधान
##कले
फेरि
गरिसक
पूर्वा
कुल
##राम
काठमाडौँ
भइसकेको
कारबाही
##सम्बन्धी
##ाउनु
बिक्री
क्रिकेट
किलो
कार्की
खड्
##दिन
##तावरण
नेपालका
##तका
बजारमा
विगत
भई
श्रेष्ठले
समाचार
##स्ती
##बन्द
पोखरेल
##तिय
##ानमा
यति
##दछ
धन
वातावरण
अधिव
च्या
परिवर्तन
अल
बालब
भन्छन्
सिफ
सन्त
तर्फ
##िसा
बारेमा
##वर
दिइ
##बेला
वृद्धि
मध्य
##के
थापाले
##पि
प्रशि
निरन्तर
हेर
प्रतिनिधिसभा
##ची
कृष्ण
प्रभावित
हट
##पय
वन
पुगेका
संयोजक
##हुन्छ
श्रम
खान
खुला
कतिपय
दशमलव
बताइएको
##बि
सभ
सकेको
वीर
##भू
नाममा
सम्बन्धित
आदेश
निर्देशक
गराउने
##धानिक
##हुँ
संरक्षण
##अन्त
कोइर
२७
२८
आउन
सोच
मान्छ
##न्ज
आई
मन्त्रिप
##साइ
अति
मन्त्रिपरि
##ीकृत
तथ्या
संशोधन
फिर्ता
प्रदर्शन
पराजित
६०
##त्री
गि
कला
##िल्लो
सिफार
कोर
आन्त
दाहाल
वरिष्ठ
##विक
##ामुख
छोरा
बालबालिका
झा
राख्ने
शान्ति
##रीले
##वान
खेत
आन्तरिक
भाष
सुविधा
##स्पर्
##रीमा
##निर्
लाग्ने
बराब
हालसम्म
२६
##मन
##ेलु
##ेप
##कम्प
मन्द
धार
होला
चौध
याता
सङ्क्रमण
फरक
दाय
##द्वार
##कोट
शेयर
युव
शी
##नाले
राह
भौ
यस्ता
##हरूमा
##जो
गराउन
परीक्षा
##कार्य
प्राथ
आफूले
संसद्
##लित
प्रतिस्पर्
असार
##वे
समन्व
कमज
शै
नसकेको
उडान
##सँगको
पुग्ने
गौतम
अख
##ाई
##योजन
आन्दोलन
##अन्तर्गत
जाँ
##र्भ
अन्त्य
कर्णाली
##बाह
प्राथमिक
आमा
बीच
##दल
उपाध्यक्ष
वर्षमा
पूर्वाधार
बनाएर
कोइराला
चै
हिमा
गीत
एम
सम्बोधन
बच
प्या
ऐन
नाका
संसदीय
##प्प
प्रमाण
##डो
स्वी
##शाला
रोजगारी
विदेशी
तामा
राखेर
राखिएको
भारतको
##ौती
समन्वय
##ँदैन
##ीकरण
अपरा
त्यति
साता
थिइन्
तपाईं
उपभ
##तियार
शाख
सुझाव
स्थायी
दृ
##यु
पक्षमा
सामग्री
##ात
माध
सश
लगायतका
प्रस्तुत
टोलीले
जब
ब्र
##ोड
मधेस
नाय
अर्का
जनताको
दिनमा
भूकम्प
पार्टीका
##लग्न
सच
कले
भवन
मन्त्रालयका
##ेशन
अघ
सरकारलाई
##खु
एकता
कप
##णी
प्रशासन
पाएको
सक्रिय
लै
बाध्य
सिफारिस
##क्ट
समितिको
बाह
हेर्
क्षेत्रको
खड्का
चिनियाँ
##द्धा
##चार्य
प्रविधि
चाहि
सचिवालय
##ल्दै
उत्तर
वैशाख
विवरण
क्वार
मिला
##उनु
भनिएको
##लाग
उनीहरु
बताउनुभयो
पीडित
##वाफ
आम
गर्छन्
उद्ध
प्रत्य
नप
दिइएको
३५
##ैर
विज्ञप्
पाण्ड
हुनुपर्ने
##क्न
२९
गुना
आत्म
भक्त
आए
##बाटै
##ात्मक
पहिरो
उमेर
घु
##श्चित
खट
##सकेका
आफूलाई
##काम
फाइ
शीर्ष
ग्रा
पश्चिम
पौडेलले
बोला
सङ्घ
##मत
##उँछ
संलग्न
जेठ
मैदान
मिनेटमा
यसरी
बताउँदै
नियन्त्रणमा
छौँ
समितिका
नारायण
रिप
छाड
चिकित्सक
जवाफ
हिँ
आयोगले
सञ्ज
विप
लकडाउन
विर
शेर
टि
##यता
अधिकांश
शव
पाल
समर्थ
प्रतिष्ठ
यसलाई
##्वा
मेड
बाग
##िकल
राख्न
##ाया
##देशिक
ट्रा
निष्
पि
यातायात
##कृतिक
कार्यालयले
सञ्चालनमा
तत्कालीन
##ुले
##कुल
बह
##र्का
##ेलि
नव
गठबन्ध
##स्तान
##ोन
थाले
महानगरपालिका
##शन
प्रावि
माधव
पर्व
##देश्य
##ङको
दर्श
प्रदेशसभा
प्रतिवेदन
अन्तर्गत
लागू
##ण्डकी
अर्था
साँझ
##कृष्ट
प्रदेशमा
औषधि
असर
##न्त्रिक
देशको
क्वारेन्ट
बैंकले
मिल्
##न्तरण
चरणमा
##वैधानिक
##ाचार
##ध्या
गर्नुपर्छ
महत्वपूर्ण
##पुरमा
##ेदेखि
पुष्
राखेको
टा
सुना
अवसर
कार्यकर्ता
वित्त
##र्द
##राष्ट्र
##ुव
##पित
##वटा
क्षेत्रका
##बाहेक
पेश
भनिन्
जन्म
इज
कलेज
जस्ता
ल्याउन
मापद
सहित
##ल्ट
निर्वाचित
विद्युत्
कार्यकारी
गुनासो
ऋण
मापदण्ड
एकै
##रप
वार्ता
##लेस
प्रतियोगि
छान
भनेका
नियमित
##िनी
प्रेम
पदाधिका
नौ
यसमा
बताएको
##सका
विश्वक
प्राविधिक
बोर्ड
सभामुख
##सल
गएका
पर्छ
##ढा
कमा
सम्मान
##गमन
##ित्व
कानू
स्त
संरचना
कम्पनीको
जनामा
७०
निम्
विचार
ल्याएको
हार
आक्रमण
राजी
मिटर
##तान्त्रिक
शिक्षक
भारतमा
##घाट
कहिले
राजनीति
##िरहेको
अधिकारीले
सुनि
##जर
जनालाई
##ोका
कट
##ालको
पुनर्
सकेन
भ्र
चुन
##क्रमित
३१
गरेकी
##चान
छिन्
जति
##तह
मोटर
##विद्यालय
छनोट
ठूला
समाजवादी
दिउँ
ललित
स्वतन्त्र
##पर्ने
लगाउने
##ाउँदा
अनुमति
साह
##थो
##लाइन
अनुमान
देशमा
धर्म
ढि
भिडियो
##दौ
निर्वाचनमा
बन्न
माघ
उनीहरुले
फाग
##लाको
##एम
##मिटर
संकलन
उनीहरू
त्रि
सहा
##ाएका
##लाका
तर्फबाट
मौसम
##द्वारा
त्यसलाई
##ल्य
क्षमता
देशका
मतदान
##स्कार
दुर्घटना
गरिएका
विश्वविद्यालय
सम्पूर्ण
##चालन
की
उत्कृष्ट
##षण
##कारात्मक
राजधानी
##पूर्ति
न्याया
भौतिक
खन
कक्षा
वर्षीया
अवसरमा
मन्त्रिपरिषद्
##टको
पाकि
तिम
गुण
##लर
नब
उद्देश्य
ठा
##रीय
##मात्र
बन्ने
उपम
सञ्चार
लाइ
##्यार
छिट
दिउँसो
माथि
##छिन्
राहत
रिपोर्ट
भदौ
##्यास
##क्सि
पारित
२००
##ीलाई
३२
साइ
बताइन्
ल्याउने
महाधिवेशन
कार्यालयमा
##दे
नसक्ने
बनाइ
जिल्लाका
##ानु
##दानी
विरुद्ध
बेलाय
माध्यम
##ंसा
तहमा
नेतृत्वको
##ेरा
##ालि
मज
अवधिमा
भर्ना
सङ्क्रमित
दिँदै
##पो
टु
आप
भएन
##्वी
मान्छे
##क्षर
फैल
##क्य
महासंघ
तामाङ
एका
##गो
##सोज
एज
वित्तीय
४५
कांग्रेसका
असोज
८०
सम्पर्
##पक्षी
##निर्माण
भ्रष्ट
पहा
उपचारका
आचार्य
यसका
##चारिक
##मेन्ट
हुन्छन्
शरी
कम्
परिस
अदालत
बर्ष
##ज्ञा
##ल्ली
फेला
पुष्प
प्रहार
त्यसैगरी
साउ
जम्मा
यात्रु
फुटबल
प्रजा
मन्दिर
सज
सामु
धारणा
##ल्लाह
##धु
संस्थ
बद
युर
कमजोर
बनेका
जम
##पुग
##न्ता
प्रभावकारी
##ाइड
सुरक्षित
##ँजी
##तीमा
भे
पाएका
विद्युत
सूच
##आई
जिल्लाको
##सिय
पुस्त
चितवन
एयर
आवश्यकता
मान्य
उपभो
भुक्त
सचेत
शाही
बढ्दै
२०२
कठ
##ाटनगर
##्ला
संवैधानिक
जीव
निस्क
खास
नर
न्यायाधीश
सिर्
##न्दु
##जिम
##लगायतका
दलका
##ियाको
प्रहरीको
##्ट
त्यसमा
लगाएको
महाशाख
शुल्क
##क्ने
प्रत्येक
मेडिकल
प्रदेशका
##णिज
##ङमा
##पूर्व
##बन्दी
##ागत
कसै
##सला
ग्राह
नहुँदा
अदालतले
##ियामा
##णिज्य
##तै
##ासन
##कलाई
##न्तु
शेरबहादुर
खण्ड
लाग्छ
गर्यो
सिर्जना
चाँ
बढ्ने
राजीनामा
सशस्त्र
लिएका
##संग
अहिलेको
पेट
##पुरको
इन्टर
निगम
##दाता
##ेदार
##ोत्
अवि
भारतले
गराएको
होटल
##ेश्वर
साथी
##दम
किलोमिटर
##्टै
लामा
##मोजिम
इतिहा
त्यस्तो
शाह
पहल
अनुदान
फे
झापा
##र्ख
आर
प्रतिस्पर्धा
चैत
नभए
आयोजित
कांग्रेसले
काँग
जस्तै
शिव
##डे
उद्धार
यात्रा
अघिल्लो
प्रतियोगिता
वे
भाइरसको
नेतृत्वमा
साउन
विवाह
##ेसन
डिज
बंग
##सव
देशभर
बढाउन
पारेको
साधन
योगदान
स्रोत
कार्यालयका
##साधारण
नियुक्त
दबा
लागेका
फु
प्रेस
सत्ता
झण्ड
##परि
यू
नियम
गए
संक्रमितको
चुनौती
##बिन
कालो
##सिर
भै
##गान
पहिचान
शुभ
स्थिति
काममा
नपा
जोग
सुदू
काँग्रेस
##ौला
विराटनगर
हप्
गतिविधि
चन्द्र
आयात
०७
परियो
संस्कृति
##ाउँछ
लाई
##ोटो
डो
विभागले
३३
बच्च
##कर्षण
सहकार्य
डु
##लादेश
##सम्मको
##ारु
जनक
परिण
##त्यक्ष
कम्युनिष्ट
जसले
सङ्ख्या
पृ
##भिजन
जनाएका
दिवस
उनीहरुको
उपरीक्षक
शर्माले
सम्बन्धमा
थालेका
##फिक
##लका
वस्तु
##दय
अध्या
##कुद
##नै
आइसो
सडकमा
हामीलाई
दलको
भूमि
मं
जानु
##परेको
सञ्जाल
##्रै
तहको
##्रि
कोही
७५
ढकाल
##ाएर
##होर
##ाउनुपर्ने
सर्
छोरी
खेलकुद
आजको
समावेश
##त्तै
##ामन्त्री
अनुगमन
भुक्तानी
स्या
##त्कार
##वली
##बाइ
तरकारी
##ित्त
##ियाली
कलाकार
कप्त
जुट
##ियाले
विनि
गण्डकी
न्यून
अम
##षे
##वधान
गल
खबर
मिड
खोजी
आलो
पदाधिकारी
लगाउन
ट्रम्प
सरो
##लाम
गैर
भर
२०६
विधि
फागुन
निर्माणको
##िमिर
ब्य
स्थग
##जुरी
##चन्द्र
कसैले
सोध
ब्रा
बालुवा
अख्
##डमा
हरि
देउवाले
माइ
##गढी
##व्र
अपना
सामान
विमानस्थल
भोल
यसैगरी
##पथ
बुद्ध
तथ्यांक
खाना
परियोजना
निषे
जनाइएको
सूर्य
##ब्द
##ढे
##ियोग
प्रदेशको
आम्
यता
##वाही
##नगर
##नाको
काठमाडौंमा
तिन
बोक
क्रिया
अत्य
स्वदेश
बास
##सिंह
सुदूरप
रण
नआ
अरू
कार्यरत
सँग
##न्याया
##ुली
रंग
बलियो
##गञ्ज
उसले
मोटरसाइ
##पचारिक
कामदार
भ्रष्टाचार
वाणिज्य
##त्ती
युनि
##िसाब
उनीहरूले
पदार्थ
##र्सि
##बीचको
नम
साना
बला
##देवी
वर्ग
भन्न
खानेपानी
ठे
##ाइने
सर्वसाधारण
नो
##उँदा
पूजा
##मिला
उद्घ
##भाइ
##श्व
##चन
घिमिर
प्रतिबद्ध
अनुभव
सदर
पुस
व्यवहार
उपप्र
##एकाले
गर्नेछ
परम्प
सल्लाह
##ाग्
सिट
भरत
बसेका
विघ
बढ्न
डाक्टर
गोर
##सित
दिएर
##वाई
बसेर
##न्थ
जाँदा
पास
जाग
कम्युनिस्ट
##ारम्भ
सुदूरपश्चिम
कर्जा
समान
##हाज
गरिन्छ
##ृत्ति
बस्न
सहकारी
प्रत्यक्ष
मनो
जनसं
टुंग
धर
##स्तरीय
निर्माणका
##हीन
प्रकार
सार
भनी
##्यौ
नति
महासचिव
आम्दानी
गरिसकेको
##चाइ
मिति
##ठा
सालमा
घरेलु
बाढी
कारणले
##औं
गर्दछ
काग
##ःख
##्रे
विधान
##पान
##ल्ल
आय
##शक्ति
##नो
मोबाइ
एउटै
अपराध
पुरस्कार
##ष्य
वार्ष
भाडा
##न्टर
##जस्ता
मार
ट्या
सरकारका
बैंकको
दबाब
##श्वर
##नाई
हिँड
९०
प्रशिक्षक
संगठन
डी
विजयी
विकल्प
आफैं
एक्
##्याम
रूप
##कन
ओलीको
लड
बेच
भत्
##कर
विघटन
##त्रा
बैङ्क
रहेछ
लोकतन्त्र
नगर्ने
##टिङ
##लाल
शाखा
यादवले
##टाले
गलत
चर्चा
##हरण
##मण
दुःख
भट्टराईले
अनलाइन
पेस
##वाइ
मर्म
अर्थात्
भाव
क्याम्प
प्रतिशतले
बढाउने
ओभ
खेती
जनसंख्या
कथा
अर्थतन्त्र
कदम
हस्ताक्षर
परिषद्
लक्ष्
कवि
##दायिक
##होस्
बुट
उपमहान
##र्ती
नम्ब
सेयर
हिमाल
साढे
त्यसका
कस्तो
प्रचार
लोकतान्त्रिक
वैदेशिक
लुम्ब
अपे
आएपछि
समेट
पार्टीले
##श्
##सहितको
##िरहेका
भण्डारीले
राजमार्ग
अत्या
द्व
तार
आह
सहभागिता
##वाला
##तः
##दारी
रेल
फैसला
कहाँ
भएपनि
##ाप्त
भन्नुभयो
विज्ञान
जनप्रति
हुनुपर्छ
##समिति
वर्षदेखि
हिजो
##ियम
जनाले
##षद
लुम्बिनी
उद्घाटन
अधिवेशन
##रुपमा
सकारात्मक
##िमा
विभा
हास
छिम
संविधानको
##त्तिक
डलर
व्यक्तिको
##पुरका
खेलको
##हण
##कमल
उजुरी
आदि
कुमार
##ासो
परराष्ट्र
जनप्रतिनि
##ताले
गी
आवा
मध्ये
३६
धु
गाउँमा
महिनामा
मेल
कल
खेल्ने
समूहले
राजदू
उपाधि
पाइएको
##सीसी
काट
##ोला
कात्तिक
इजला
##सक्दा
पाए
दिल्ली
कैल
हिसाब
बन्
##ेन्स
नगरपालिकाले
##साथ
अख्तियार
सन्देश
##ायक
##ञ्चन
##जस्तो
##शुल्क
##ेली
राखेका
सामुदायिक
वर्षा
प्रसार
चौधरी
##ट्र
५५
समर्थन
गर्नका
##स्तर
तीव्र
सक्दैन
तराई
##लिक
##ल्यान्ड
लिए
भन्सार
##ंगा
पुष्पकमल
##वाल
गएर
##ेटिभ
तोकिएको
विष्ण
##ोमा
जाँच
अदालतमा
वर्त
भीम
उनीहरुलाई
##नेर
मोर
उपमहानगर
कुर
दिनु
##ियर
नतिजा
सम्भव
सुनु
##नन्
##दन
गराएका
स्म
फोन
##हित्य
##मुकाम
##क्षेप
##श्वास
उपभोक्ता
##द्द
बनाएका
##ोध
ज्ञा
है
कैलाली
केन्द्रका
चे
दिला
सबैलाई
कानु
##ुपयोग
पश
कडा
भवि
च्याम्प
##तरा
##र्यो
किसिम
##वाली
सदरमुकाम
तुलनामा
##एफ
##ज्ञान
लगाएका
##ल्याण्ड
कोरोनाको
##ङ्गा
३४
कप्तान
##खर
स्थगित
माल
सानो
##मेश
सैनिक
निर्धारण
पशुप
##टो
दिनुभयो
चालक
पारि
मैदानमा
फाइन
अग
प्रतिष्ठान
कांग्रेसको
##टे
सत्य
##्नुपर्ने
हरा
सम्मेलन
म्यान
पुगेर
##र्मिक
यदि
पोखरेलले
साहित्य
ट्राफिक
मन्त्रालयको
फोर
आएर
यद्य
रोजगार
सञ्चालक
मेस
सहर
##कुर
##न्छु
##र्ब
वार्षिक
##फाइ
जहाज
##मले
बीमा
अनुरोध
आफन्त
इन्टरने
देखिएका
पार्ने
रेड
सम्बन्धी
जरु
जिम्मा
अक्सि
श्रीमती
पाउन
##गी
##र्मा
झण्डै
चीनको
जरुरी
मोटरसाइकल
##क्षिक
अग्रता
सिन्ध
चासो
##म्बा
##ङका
हस्तान्तरण
धारा
निको
सुन्द
नेपाललाई
मान्यता
नगरपालिकाका
मुलुकमा
##कीय
अंग
##कानी
##सलाई
छानबिन
दिनको
प्रकाशित
वर्तमान
##सङ्
##यनमा
बंगलादेश
जग
सत्त
##डर
##बास
माथ
प्रधानमन्त्रीले
नियु
पुरानो
पुग्न
सिद्धा
व्यावसाय
कारवाही
##वार्य
लगातार
##भित्रै
प्रचण्डले
अनिवार्य
##िएस
##तावास
##उनुपर्ने
आयोजनाको
उनीहरूको
शब्द
६५
चयन
निवास
कञ्चन
नियुक्ति
शैक्षिक
छिमेकी
नरहेको
टिक
सध
प्रारम्भ
##स्थलमा
सन्दर्भ
तर्क
एकीकृत
मोदी
जनप्रतिनिधि
नभई
दाहालले
##विध
धार्मिक
##लन
सबैको
महिलाको
नगरी
हिंसा
पुरा
संघर्ष
फेस
लगाएर
प्रतियोगितामा
दलित
घण्टामा
##र्चु
केन्द्रित
सम्पत्ति
केन्द्रमा
तहका
चौथो
##ङले
अफगान
मार्ग
बलात्कार
टी
तालिम
भविष्य
ढंग
##यमा
सै
७६
##ेलले
आयोजक
ज्ञवाली
सिका
राउ
रक्षा
४२
अपेक्षा
##विद्यु
##न्यायाधीश
आह्व
##सीको
##पिट
दुर्घटनामा
##रीका
३७
##लम्ब
सरोकार
रोक्न
गतेदेखि
##चक
बाहेक
##न्थ्यो
ठेक्का
##हरुका
टेलि
##द्व
##चौ
इट
विजय
बराबरको
सौ
हेर्दा
##ियल
किश
चिन्ता
सिर
नगद
प्रतिबन्ध
निधन
छोड
हुँ
परिस्थिति
एमालेका
होम
भोग
प्रतिवेद
मुलुकको
##ाटो
##लै
स्थापित
##गायत
##त्न
३८
रणनी
वाम
स्थित
संसार
भ्या
मंसिर
गतेसम्म
पत्ता
सापको
दृष्टि
##्रोल
हित
##ल्यै
सम्मेलनमा
रोप
##ल्ड
जनताले
##मूल
##मला
कुट
पाकिस्तान
हेर्न
जलविद्यु
कानून
थालेपछि
अध्यादेश
विभागका
सकिएको
रिट
हाम्रा
विज्ञप्तिमा
आपूर्ति
उपस्थित
##राख
##जिल
पसल
जमिन
पहुँ
##शि
सम्पर्क
बनाए
आलोचना
हासिल
राजा
धान
पहुँच
##नेको
##गति
पे
अर्ज
##स्टर
खार
##वनी
सर्वा
##प्पणी
दोष
लाभ
आँखा
मिनेट
गर्नुभएको
लाल
उम्मेदवारी
रस
##वार्ड
भेला
प्रतिबद्धता
##बारी
२०७५
जसमा
रनको
मोबाइल
कुराकानी
परिचालन
##्याउने
##सीले
लिम
उदा
##भी
आह्वान
साग
##तिकै
##ेलिक
औपचारिक
##ठी
चरणको
##व्या
सरकारमा
बहस
##्ल
##क्सा
साझ
##फी
रहेकाले
पुनर्निर्माण
कमी
##र्खेत
दुबै
##खेल
थिएँ
##लालाई
पक्षले
दुर
##चार्ज
##ोले
महेन्द्र
विद्यालयमा
अर
सुख
प्रतिक्रिया
##तिव
घटेको
वडाध्यक्ष
जहाँ
ढु
व्यवस्थाप
दिनुपर्ने
##दु
भनाई
##ाटा
##नियर
समूहका
प्रावधान
कानुनी
##जनको
##ुवन
परिणाम
##जाने
##ब्र
शहर
निः
काउ
सुर्खेत
##कट
##वेदी
दोहो
मेगा
चन्द
नगरेको
बनाइएको
लो
लागिएको
त्रिभ
चढ
खतिव
प्ला
साझा
निकट
ऊर्जा
##्टा
व्यक्तिगत
युद्ध
समूहको
##सिस
सकि
सुरुवा
सपना
यथा
शू
पञ्च
चेता
##कला
गाउँपालिकाका
विनियोजन
केसीले
फा
विष्ट
यहाँका
राजस्व
##वाट
उपस्थिति
देखिए
विकासका
ब्याज
निषेधा
मास्क
नागरिकता
##क्रो
जनशक्ति
जेल
##र्या
##व्यक्ति
गरियो
##श्र
पृथ
निश्चित
नागरिकलाई
लगाए
हप्ता
##मको
म्य
बलमा
चेतावनी
फल
कम्तीमा
स्वय
पठाएको
प्रधानमन्त्रीको
सुवेदी
सहायक
अस्पतालका
अर्थमन्त्री
बाब
गोली
भग
टिप्पणी
पर्याप्त
आधा
प्रधानन्यायाधीश
##िटेड
##हे
##ंकर
त्रिभुवन
सजाय
बग
##ियाका
##िको
##ुराम
त्यसले
वर्षका
वास्त
##कका
उपयोग
ढुंग
##स्कृतिक
बालुवाट
स्थानीयवासी
गणेश
##न्दे
हुन्थ्यो
##हाल
पालना
##वनमा
उपमहानगरपालिका
फ्रा
क्षेत्रीय
समग्र
मिस
मगर
प्रशिक्षण
माया
##हरा
मल
आशा
गर्नुभयो
##दिने
नेताहरु
##ग्रा
शाक्य
मिलेर
वर्षअघि
वाय
भारतबाट
चलि
##दीप
##रका
४८
समितिमा
एक्स
रौ
बमोजिम
गुरुङले
##रीत
##िसकेको
##रोह
##मे
मेयर
खुसी
महानि
सिटी
पाठ
समृद्धि
उपयुक्त
अवरुद्ध
झन्
पहाडी
##र्प
राप्र
##िच
##गन्ज
विश्ले
उत्र
##ाँडा
##बुक
##नेछ
पार्न
पछा
मामिला
मलेस
लिमिटेड
##्वि
##्दो
प्रगति
निम्ति
पदमा
यद्यपि
थुप
##भरि
न्यौ
व्यक्तिलाई
४१
प्रसारण
अफगानि
बीचमा
##्याउन
तरिका
अने
##डिङ
एन्
मेला
स्वीकार
विष्णु
युरोप
उहाँको
असन्तु
ओभरमा
##स्को
निष्कर्ष
##ुञ्ज
तेल
बिदा
नजिकै
खस
मार्फत
सेन्टर
##मुक्त
##स्की
पहिला
एमालेले
##न्तव्य
५१
बर्
दुख
नदिने
डिभिजन
##रूप
राजेन्द्र
सबैले
खतिवडा
शून्य
तु
इन्ड
तो
##नुहुन्छ
फर्का
बलि
यौ
##तिको
छिटो
साधारण
पाइन्छ
विजेता
ते
##न्देही
भाषा
देखा
चुना
फाइदा
##बे
##ट्टा
व्यापारी
बन्दै
##फाइन
न्यौपा
लगाइएको
##एल
संकट
##ण्डा
##सू
सप्त
##्स
उत्प
##कुमारी
देखाएको
गोरखा
##मार्ट
हवाई
७७
४३
जर्म
ध्याना
##धुनिक
उचित
निरन्तरता
३९
क्रा
##छु
##नाका
सुनस
निःशुल्क
अक्सिजन
##्लो
##सर
राजदूत
मोड
गाउँपालिकामा
##मका
##ज्ञानिक
##ोत्त
मोर्च
४४
थोर
##र्घ
##यन्त्र
अस्पतालको
राप्रपा
निर्माणमा
रमा
चीनले
सेनाले
उपकरण
निवेदन
नगरपालिकाको
तलब
##द्रा
घटनामा
ज्ञान
##ित्ता
हेर्ने
गठबन्धन
करी
बालिका
प्रवाह
##कृष्ण
##ैमा
रोकथा
आयोगको
##रहे
होस्
##ाइँ
गरिन्
लैज
##्याल
अदालतको
##वस्तु
संसदमा
व्यवस्थित
आउँछ
एकजना
थान
ध्यानाकर्षण
आवाज
##आइ
५२
लाइन
अर्य
##तिहासिक
बेप
दर्जन
त्यसो
खर्ब
अभ्यास
आकर्ष
प्राथमिकता
सन्दर्भमा
बहुमत
महत्
औँ
##वत
अवै
##टु
##र्नु
##नीले
##सेवा
##ब्जा
बस्ती
खाद्य
राईले
ढंगले
पाण्डे
न्यु
नम्बरको
##हिल्यै
आस
गल्
पुँजी
नारा
##ंकन
भइरहेका
खनाल
सेत
श्रमिक
लिइ
व्यावसायिक
क्यान
उसको
फ्रान्स
चालु
##भार
पर्सा
निरीक्षक
डर
##विरुद्धको
ठाकुर
मतदाता
सही
##पे
अवरोध
द्वन्द
बढाएको
कमल
निकुञ्ज
##नालाई
फेसबुक
##चर
##धानमन्त्री
छलफलमा
दस
एजेन्
समयदेखि
##मल
राणा
मानसिक
भोट
##ाइनमा
इलाका
##ज्
त्यस्ता
दूतावास
पठाउने
##भूत
खतरा
एश
ऐतिहासिक
थिय
क्रान्ति
जय
अप्र
अस्पतालले
सल
आइपुग
अभिभाव
प्राकृतिक
सहयोगमा
##मेल
थोरै
समयमै
##ामर्श
छै
जनतालाई
२०७४
गाउँपालिकाको
म्याद
दीपक
जडान
भएकी
कतै
रावल
चिस
आफैँ
##ग्राही
##भे
रिज
जनकपुर
##चे
नसक्दा
कार्कीले
गाँ
उपत्यकामा
बहि
फोटो
बासि
नागरिकको
##षा
संघका
फूल
प्रयोगशाला
चुनावी
नेकपाका
एमालेको
विश्वकप
##कूल
मुद्दामा
पेट्रोल
ज्य
अभिने
गणतन्त्र
हिसाबले
बेपत्ता
नायब
पन्त
माध्यमबाट
##हरी
इच्छ
सक्छन्
##औँ
गृहमन्त्री
झु
##क्षी
##प्टर
##गु
चित्र
थालिएको
पर्यटकीय
स्वागत
##व्यापी
मू
न्यौपाने
लाग्यो
आर्म
कुरामा
##दिएको
मोह
लगाइ
हल
पार्टीमा
पु¥
बजेसम्म
##ुरू
##नय
बोल्दै
प्राधिकरणले
##ूट
##रूपमा
दावी
परामर्श
४६
सुन्दर
##स्वा
विगतमा
मण्ड
प्रवृत्ति
आयोगका
अमेरिकामा
हक
गराए
सीमित
विपक्षी
दौ
बर
श्रील
प्ले
ठेक
कार्ड
भएमा
पछाडि
##पूर्वक
##हरुसँग
व्यक्तिले
चोरी
द्वन्द्व
##ल्पा
##यौं
नाट
फ्र
वायु
खारेज
आधिका
५६
बोल
##विन्द
##पात
##घन
हेट
आवेद
आइसोले
खोला
रिस
##जसो
ल्याइएको
पोज
अन्न
##ानले
##ेन्टि
एवम्
वृद्ध
४७
गौतमले
गइ
काठमाडौंको
२०७६
७२
##विन
चुनावमा
##ोस
डेढ
बुटवल
जापान
प्याक
##वर्ष
धनु
##शाली
सर्वाधिक
उदय
५३
आउट
खोजेको
सत
##जुली
सब
बार्सि
भारतका
लक्षण
डुब
बम
महोत्
सरकारसँग
दशक
लक्षित
सांस्कृतिक
गरिनेछ
##टीमा
##गण
पोल
जरि
हाफ
##हरूका
प्रकृति
##जस्तै
बार्सिलो
बेलामा
सिद्धान्त
उत्सा
##ेकाले
भोलि
उत्पन्न
##न्यास
कूल
टाइ
करीब
खेल्न
गाई
नवल
दुरुपयोग
स्वास्थ्यकर्मी
##द्र्
अप्
प्रबन्ध
महोत्सव
##निया
महिनाको
ज्व
आरोपमा
नेप्
बाँड
लागु
गाउँपालिकाले
अग्
४९
रेग्
##ध्यापक
अवार्ड
##रल
भक्तपुर
पुर्याउने
##सुकै
गाह
नियमा
गराइ
रमेश
स्थल
शैली
उपाय
हिउँ
सेट
पशुपति
चेक
##गढ
महानगरी
सत्तारु
##धुरा
सदस्यीय
थु
देखिने
सिंहले
केन्द्रले
समृद्ध
##कारण
मूल्या
##र्पा
हिम
सत्तारुढ
५४
##ठन
##ल्का
उनीहरूलाई
आवास
नगरपालिकामा
जितेको
अभिव्यक्ति
##ारीमा
संख्यामा
तथ्याङ्क
वर्षसम्म
जनाए
महानगरीय
##पर्यो
सुनुवाइ
पुस्तक
##जको
बराम
राजपा
नेताले
मुक्त
संकेत
##र्यात
भागमा
##श्रम
##तिका
स्थानीयले
आधारित
गन्तव्य
इतिहास
चाप
२०५
च्याम्पियन
हालै
महसु
चालू
अष्ट्र
##नीको
##घा
विसं
खुलेको
प्रिम
चाम
विक्र
नभएका
भएकोले
##ममा
##फो
परिवारका
##नारायण
स्वर्ण
##किङ
ब्याटिङ
ललितपुर
तयारीमा
दम
खड्काले
मेट
नगर्न
निर्यात
गावि
असफल
ठेकेदार
##म्स
पानीको
##जन्य
बच्चा
मसा
दायर
हस्त
##क्षेत्र
लेखा
बस्दै
भो
बेल
##लेट
फैलिएको
हुनेको
समारोह
अत्यन्त
हुनुहुन्छ
परिच
ओलीलाई
बेलु
पुलिस
५८
भेटिएको
संगीत
सकेका
जात
विदेशमा
##वाना
जसपा
##क्सी
लगानीकर्ता
##रुवा
##लोकन
शासन
राज्यको
यौन
निरा
अलग
बरामद
विप्
किम
जुम्
सरुवा
सन्तोष
##जिलो
संस्थाले
##ेनि
ल्याइ
संक्रमणको
##स्थान
बढेर
गाह्रो
लक्ष्मी
##रहँदा
रोकिएको
##जनक
सेवन
पीडा
भत्ता
सामना
##खण्ड
नवी
##वालाई
कार्यालयको
महतो
दीर्घ
पशु
रुपन्देही
##रिङ
##नीतिक
उदाहरण
पाइने
##नित
धनगढी
मधेसी
कर्मचारीको
पर्न
कार्यविधि
मौका
क्वारेन्टाइनमा
परिवारलाई
सफलता
प्रजातन्त्र
२०७७
स्वीकृति
स्कुल
पठाइएको
मर्मत
##िकार
पाउँ
घटनाको
आधिकारिक
##किलो
##एई
हाँ
##वश्यक
६३
विषयलाई
##्छन्
७४
##ङ्गल
महसुस
एकल
चौकी
गौर
विभाजन
६४
राष्ट्रियसभा
कहिल्यै
२०२०
##िसे
फर्किएका
राजनीतिमा
परम्परा
चाहिँ
दूध
शंका
मन्त्रालयमा
कार्यान्वयनमा
सँगै
स्रोतले
७८
महत्त्व
प्रतिपक्षी
काराग
मानिसको
मजदुर
##पत्रमा
##गोल
##टिल
यसबाट
ह्या
सेनाको
##िब
क्यान्स
सम्पाद
##रोधी
टीका
##म्बु
८५
लामि
मी
विप्लव
##धिकार
टिकट
संविधानसभा
सुत्
तिर
##क्कै
५७
पहिलोपटक
यसबारे
पाण्डेले
खाली
##ियत
लागेर
कक्ष
प्रदीप
मसान्त
जसरी
वैज्ञानिक
चाड
डोज
संवाद
##इँ
भरतपुर
आगलाग
मक
##विद्
तथ्य
उड
##गरमा
कास्की
उद्देश्यले
काली
जोश
विकासको
सडकको
हुनेछन्
##प्ले
राख्दै
दिनसम्म
थुप्रै
ल्याएर
##न्टा
स्वाब
पूर्वी
पारे
भएसँगै
नक्सा
१००
##थम
कामको
##खित
हुनसक्ने
गोविन्द
परे
भीड
लैजाने
ग्राहक
अलि
नभएर
खाद्या
अस्ट्र
मेसिन
भइसकेका
निर्वाचनको
##भेद
प्रारम्भिक
क्षेत्रलाई
##र्दै
बौ
##काे
##धीन
##शासन
नाफा
बिजुली
नियमावली
आउँदा
##योजना
बासिन्दा
लामिछा
अमेरिकाको
ठहर
हुँदैछ
इर
कोइरालाले
##वद्ध
वृ
चिया
सुनिश्चित
अपा
आवेदन
सुनाए
##तीको
प्रतियोगिताको
इन्जि
भुस
रगत
खाँ
पछिल्ला
प्रतिवेदनमा
अष्ट्रेल
हतियार
##नेन्द्र
अवैध
ढकालले
##वनको
##फोट
विज्ञप्ति
कन्ट
लाग्न
टुंगो
##ाए
सिँ
##भाइरस
यसपटक
विद्युतीय
कर्मचारीलाई
कठिन
जोडिएको
##यले
रोज
७३
अस्था
तोकेको
बारा
##ालका
सिने
खण्डमा
सजिलो
##सक्छ
##टेड
##राष्ट्रिय
तोड
समाजमा
##्यता
नदीमा
कित्ता
स्वीकृत
हावा
चलाउन
शेर्पा
मञ्च
काँ
नेपालीको
भोज
तल
मिश्र
निम
पुगे
रक्त
वर्षपछि
##र्दा
##भाविक
##द्योग
जरिवाना
लघ
##ीप
आत
परिचय
बोकेर
बहादुर
६१
अन्
चौधरीले
अत्यावश्यक
प्राय
कोठ
##र्को
फोहोर
टोल
पर्ख
केन्द्रको
बसो
बैंकका
गुट
सरोकारवाला
सुनको
६२
##दीको
नदि
##्र्
प्रशासनले
बाढ
संस्थागत
विकासमा
खाद्यान्न
निकालेको
बढ्दो
प्रहरीका
कोरोनाभाइरस
जटिल
##लुङ
स्वयं
##क्ल
##िएन
पालिका
सवारीसा
पीसी
आउँदै
##ालगायत
लेखेका
मकवान
काभ
जोड्ने
पाउ
५९
रात
समूहमा
साझेद
अभिनय
रहेर
प्रक्रियामा
##ाममा
##जुर
अफ्र
विना
##पर्छ
शिक्षण
असह
सरस
विश्लेषण
कार्यक्रमको
महिलालाई
पिस
##ौल
जलविद्युत्
पस
चोक
शुरू
नदिन
##यल
सिन्धु
##सीय
औद्योग
प्रतिनिधित्व
##ाउको
आधुनिक
दीप
दरबार
##स्वास्थ्य
##घर
##जनमा
कतार
आगो
गर्नेछन्
बाध्यता
तनाव
नपाउने
माथिल्लो
आन्दोलनमा
##यान
नेताहरुले
अस्ट्रेल
छुट्टै
प्रकाशन
स्मार्ट
बाँध
##ेवार
त्यतिबेला
बराबरी
२०७२
##ुवानी
रेक
निर्वाह
सल्लाहकार
विश्वासको
सङ्कलन
तस्क
##बजार
उपप्रमुख
रातो
न्यूनतम
बिरामीको
बुझ्न
बाबु
निषेधाज्ञा
बाँच
##कल्प
गरिसकेका
मिल
ढुवानी
एण्ड
बाबुराम
स्वार्थ
कसैलाई
रामचन्द्र
##झदारी
घो
आयोजनामा
बनि
दायित्व
अस्वी
##रहने
रौतह
उता
अस्थायी
आउनु
जोखिममा
झर
##म्बुले
##क्कर
सफा
७१
##चु
##ुरो
##विहीन
घरको
कपिल
विश्वका
रहन
##ल्स
स्टार
६६
अन्तरि
चलाउने
छि
कन्
सभामा
##हिर
##थी
##द्रो
स्मरण
गएपछि
##ानै
खासै
कार्यसमिति
वर्षे
एकद
##फर
##तडी
##त्वमा
बजेदेखि
आशंका
६८
##धारित
अर्जुन
कम्पनीका
माछा
हिन्द
निज
घाँ
संघले
बौद्ध
##ियाँ
नल
क्रियाशील
आफु
तस्
पीसीआर
नदेख
##मुना
##ारीले
देखियो
दलले
##टाएर
दिनदेखि
६७
भावना
सेमि
रह्यो
क्रमश
झन्ड
पार्टीलाई
एप
##लाइन्स
आचार्यले
९५
इंग
लामिछाने
##उड
गुणस्तर
कैद
प्रष्ट
##र्फत्
##भु
##कामना
##राव
चल्ने
एल
बैतडी
आधारभूत
सिम
नोट
बर्द
##नीय
##टि
##फ्ट
सिरि
पार्टीभित्र
कपडा
##ताब
##हत्या
##वार्ता
पुराना
बागमती
चर्चित
##फ्
कूट
##ठो
फरार
ज्ञानेन्द्र
अमेरिकाले
##सङ्घ
##हरूसँग
माधवकुमार
##र्देश
कर्मचारीले
मासु
झन्डै
सङ्ग
तन
हैन
राखे
अभियोग
##टरमा
##नन्द
औद्योगिक
सन्दीप
पश्च
रणनीति
एमसीसी
##सीमा
##चोक
इलाम
अनुहार
##्याएको
मात्रा
##ल्पना
प्रथम
प्रिमियर
अलपत्र
प्रोत्
गर्द
महिलाले
विविध
घुम्
##दरबार
अप्ठ
चिकित्सा
##एसपी
श्रीलंका
नेपालगञ्ज
प्रहरीलाई
म्याग्
राना
शरीर
दफा
ट्रम्पले
भन्नु
##दृ
##्चोक
मिल्ने
राज्यले
पूर
##डाइ
कार्यकाल
समी
छाप
##र्तालाई
तिहार
बुढा
हुनेमा
यसैबीच
पत्
प्रोत्सा
सञ्चारमा
खनालले
बरु
बाटोमा
नरेन्द्र
##करणमा
जान्छ
नसकिने
उत्त
एन्फा
बस्नेत
साउदी
प्राथमिकतामा
वास्तविक
सिन्धुपाल
प्रवद्र्
दरले
##गमा
##जमा
विश्वभर
सेवाग्राही
परिसू
व्यवसायीले
##सम्
व्यस्त
स्कु
पढाइ
##परा
समायोजन
मूल्यमा
पोस्ट
##ँदे
इन्द्र
व्यापक
अधिवक्ता
केहि
हटाउन
##भने
चर
मधेश
भेटघाट
सतर्क
शुभकामना
##िनो
##ुप्
क्षेत्रबाट
रंगशाला
घरमै
थिएनन्
##यनको
२०४
चलन
दिएपछि
##वहार
##दिए
सिमा
##र्ना
##प्ने
एन्ड
ताप
सुरुमा
पाकिस्त
##खन
महामन्त्री
##जात
केश
पृथ्वी
यहाँको
ब्राजिल
बिता
##ञ्चल
नियन्त्रणका
सिन्धुपाल्चोक
पत्रिका
बन्दा
रेकर्ड
मात्रामा
सङ्घीय
प्रतिपक्ष
हाउ
सेमिफाइन
चोट
विव
आउँ
साध
बिग्र
लागत
१९९
##हिरो
##िँदै
##ेन्ड
##न्सि
डिस्
पुर्याउन
एफ
सकेनन्
पुस्ता
टाउको
रोकथाम
##स्पद
कविता
##्दैन
मासिक
भत्का
##वृद्धि
इन
टाढा
##ल्दा
##नुपा
##जे
##सम्मका
##टीको
सुरुवात
समझदारी
हेरेर
रनमा
##लिङ
जोशी
चिसो
परिवारको
मदन
कार्यमा
महामारीको
खरी
##स्ने
##टका
कोरोनाका
अर्थात
९९
एकीकरण
##िनमा
सम्पदा
चलिरहेको
महोत्त
पात्र
वटै
विस्
बस्नेतले
##पुल
रुकु
ग्रामी
##००
सगरमा
जनस्वास्थ्य
नपुग
##र्की
मित्र
ग्यास
##नुपातिक
गुल्
तालिका
अथ
पाल्
सूचीमा
रेडियो
हात्ती
सञ्चारमाध्यम
दाजु
##ह्न
नच
शास
##्नुपर्छ
संस्थाको
प्रादेशिक
सञ्चालित
##पोख
आकाश
##पार्क
अडान
खुशी
##पाट
##लाही
आत्महत्या
एम्बुले
करण
##यको
कीर्ति
मेलम्
अश
अबको
सामूह
६९
संचालन
ग्रामीण
निर्मा
निर्धारित
सहसचिव
हैसिय
उपचारको
सामूहिक
##निय
उज
##िसकेका
शाहीले
बिना
पु¥य
रुपैयाँको
##क्सन
सिँचाइ
##यमित
बसि
महाशाखाले
हातमा
##कल्पिक
जंग
##ितो
समानुपातिक
ग्रहण
थपिएका
पदक
अभियानमा
##सकेपछि
##फोन
सगरमाथा
ज्या
विमानस्थलमा
युवराज
आइसोलेस
##क्रा
निगर
लिखित
ज्ञवालीले
संक्रमणबाट
पक्षका
तनहुँ
मल्ल
##स्यौ
एम्बुलेन्स
##ण्ट
नलाग
सुरक्षाकर्मी
पठाउन
उल्ल
अविश्वास
##नीमा
##ाधीन
सर्लाही
७९
भूभाग
निगरानी
ठीक
अनेक
अल्
जोडि
गाय
##निर्वा
##सम्ममा
फुटब
मौलिक
##ालमा
घिमिरे
आपत्ति
प्रसाद
कमजोरी
तरिकाले
##िआर
विद्यार्थीलाई
वडामा
##विप
##ानका
##नाइटेड
लहर
किसानले
सिजन
खुट
खरीद
चलेको
गरिए
##औष
दिनअघि
लकडाउ
हुनाले
उपचारमा
चक्र
परम्पर
##ङक
मुस्
एनआर
##डै
तल्लो
गर्छु
दुईवटा
खेलेको
सालको
क्रियाकला
##हीँ
चेत
##डको
काठ
##ारण
##प्रिय
##राले
##न्थे
जिम्मेवार
रहँदा
मिडिया
##रामा
##र्जी
##ड्ड
रेख
नेकपाको
साझेदारी
कालोपत्र
मन्त्रिपरिषद
मङ्गल
##हारी
ग्या
##फे
##औषध
नवलपरा
नेप्से
##जनालाई
बेड
भारी
##जत
रहनेछ
त्रास
किसिमको
मल्
##स्थापित
##ामक
मानिन्छ
अत्यधिक
बढिरहेको
पढ्न
मस्यौ
ढोका
मोहन
पर्यो
##नस
गयो
गरेकाले
##कोण
परिसूचक
टेलिक
संसदको
महामारीका
सहयोगी
फोरम
माटो
सदस्यको
पारेर
शेख
नष्ट
मेगावाट
रुपैयाँमा
##भूति
##रिक्त
##स्थापना
##नोद
मदि
बुढ
##ारको
किनभने
बसोबास
विज्ञा
प्रकारका
सिक
भ्रमणमा
८४
पूँजी
खुवा
बताइ
महाकाली
दिनेश
##धारा
टो
८२
विशेषज्ञ
पूर्वप्र
##न्ह
क्यान्सर
##ाल्डो
मद्द
सञ्जालमा
युनाइटेड
एयरलाइन्स
खाता
##क्षम
सुपर
घन्टा
सदस्यले
ठक्कर
टन
नपर्ने
इम
मही
बिमा
जाँदै
##कां
##ंख
संविधानले
बाँक
९२
नेताहरू
विश्वव्यापी
गोपाल
गल्ती
दूरी
फिल्ममा
##शेर
प्रमाणपत्र
कोरिया
लम्ब
सिंहदरबार
अतिरिक्त
संघको
परीक्षणका
जनाउँदै
आसपा
##लगत्तै
सघ
##न्या
विद्यादेवी
हजारभन्दा
वीरेन्द्र
##डामा
##कालमा
पर्दा
यतिबेला
उपेन्द्र
अगुवा
खतिवडाले
##कर्तालाई
##र्देशक
परिवारले
दिइने
विभेद
महर्जन
##चो
अल्प
रियल
युनियन
वीरगञ्ज
सहायता
##ट्या
##बुझ
विद्रो
तुलसी
इन्ध
समीक्षा
विपद्
८८
विनोद
बनाउनु
हिमाली
देख्न
##बाबु
भुट
##क्रममा
देखिएपछि
समुदायको
##न्डर
बेलायत
##किल
तहले
आगलागी
गै
छाडेर
##ाइज
संयन्त्र
हकमा
युवती
##रास
आइसोलेसनमा
८१
मातह
लाभा
दे
नक्क
जोगाउन
##लम्बन
##ित्तिकै
काला
ट्वी
सकिनेछ
##ेरु
##मण्ड
##्वाइ
५००
नक्कली
उपलब्धि
९१
जागिर
आजै
वैकल्पिक
पुरुषको
९८
##शास्त्र
चामल
पुग्यो
जसको
कुक
##सेव
##भक्त
##दिङ
प्याकेज
##युद्ध
नमा
##पालाई
##पुग्
अच
प्रकारको
##क्ष्
##माल
##िसी
##ैया
अनियमित
अस्वीकार
फाइनल
खेलाडीले
रानी
कसले
छिट्टै
##स्तरमा
दिनभित्र
##र्द्ध
अनौ
सिरहा
दुर्गा
टेक
मस्यौदा
परिषद
##स्सा
समयसम्म
निगमले
ड्र
ढिलाइ
##ृति
##क्की
##जय
डिजिट
ज्वरो
##सेल
##हाइ
रिल
सुरू
मानवीय
खालको
८३
रामबहादुर
पोष्ट
बस्त
फलफ
पछ
##ौली
##होला
महर
भाउ
सहि
##्रिक
सिल
##राको
##भल
हल्का
##िसम्म
लुका
नामा
पोजेटिभ
दशैं
##सन्त
##ासहित
भेन्टि
##नीकरण
छोटो
##पोर्ट
लिइएको
##संस्था
##नाम
८६
सत्
नामक
गुमाएका
एसियाली
बन्यो
चरि
##खो
शो
##फाँ
बाहिरि
असन्तुष्टि
कुँ
शंकर
उपभोग
कसैको
##वती
महारा
सवारीसाधन
पर्दैन
सम्पर्कमा
नाच
घिमिरेले
किशोरी
##बिर
आइसोलेसन
##स्थालाई
बदली
बरा
सुरेन्द्र
दिदी
मेरा
बित
बुधवार
##पक्षीय
गौरव
८७
##कुरा
पेन
एन्ट
जिक
##मात्रै
फाइनलमा
बजेटमा
२०१९
आयोगमा
नमुना
सुरुङ
शिवि
विशाल
संचाल
विभागको
कामका
हस्तक्षेप
##गन
भैरह
बुझाइ
##वरी
नपाएको
किरण
धादिङ
##रे
पारेका
भेन्टिले
##श्रमिक
##एच
गायक
हङक
क्रमशः
मुटु
श्रीमा
##प्रकाश
बनाउँदै
हुनसक्छ
फाउ
##ब्बा
गरिब
आइरहेको
हल्ला
खोज्ने
##ंशिक
शारी
हाइड
मनाइ
महँग
चाहना
ल्याएका
हाराह
जीवनमा
मार्च
२०७३
शरीरमा
चुर
वर्षभित्र
कार्यद
ओल
सिलि
ईश्वर
लिगमा
##मीले
महाधिवेशनमा
जित्ने
बुबा
नभएकाले
अफगानिस्तान
योसँगै
केजी
त्रिवि
##लिम
पराजुली
विपक्ष
गराइएको
धन्य
##साई
आक्रो
##मणि
इच्छा
चीनमा
##लक
बाली
आयु
##बमोजिम
विस्तृत
##द्वय
सके
किताब
विक्री
##शल
शारीरिक
विवेक
दुर्ग
सन्तुल
कोठा
इन्टरनेट
राय
बुँदे
देशलाई
सेवामा
##खोला
आनन्द
##ड्रि
##ङ्ग्र
##तु
खराब
जोशीले
९३
लैजान
##बापत
श्रेष्ठको
टेस्ट
साथमा
आएकी
मुलुकका
बैंकिङ
रवि
शिक्ष
##करणको
नभएपछि
क्वा
##िरमा
ओभर
##ेरी
आकर्षण
तीनै
लोकप्रिय
मुम्ब
हौं
खटिएका
दर्शन
योजनामा
एकताको
वास
##ख्य
संस्कार
यसो
शौ
##ण्डर
##स्कृत
##धै
बालुवाटारमा
दृष्टिकोण
सभाको
एसपी
२०१८
बगा
मध्यम
पुर्याएको
अवलोकन
उपाध्या
##न्ती
##जीवन
कमिटीको
शाहले
नमिल्
जै
नमू
हाइड्रो
##नेका
##णि
##पीडित
रसुवा
##ल्नु
कान्ति
##धामा
पारिश्रमिक
दृश्य
परम्परागत
९४
छात्र
देवको
९६
##लीले
##ेनले
लडा
##खुरा
मुक्ति
घर्ती
##त्तर
थियौं
संवेदन
##म्वा
गिरी
##मूलक
पठाइ
मनाङ
काय
सधैं
##रीक्षण
विद्यार्थीको
तिमी
उभ
##कस्
रिलिज
प्रतिवद्ध
दिइन्
दिँदा
कल्या
##ारू
पाठक
##गणना
भैरहवा
##ङ्गो
##िष्ट
सापकोटा
मन्त्रिपरिषद्को
पक्षको
क्षमताको
बाढीले
संविधानमा
त्यहाँको
भट्टले
काउन्सि
भनिन्छ
##ालु
अथवा
मावि
##टीले
पूरै
खिच
साब
उड्ड
##म्की
पाएपछि
##म्मद
नागरिकले
कार्यदल
##स्थलको
मनोन
ज्येष्ठ
महानिर्देशक
बाघ
पोखरामा
सूची
रोपनी
##भग
##हिँ
देखिन
ओलम्प
जिकिर
बैठकको
बनाई
अह
निकायले
प्रमाणित
ग्लो
##र्खा
##मुखी
लेखक
आंशिक
विहान
देवी
स्तर
सुरक्षाका
वर
##डाको
डाइ
अन्तरिम
भेट्न
गतिमा
निर्देशिका
८९
नुवा
अन्नपूर्ण
हाइ
जित्न
प्रको
प्रेर
लेखिएको
हराएको
वाग्
तामाङले
अनुप
राष्ट्रसंघ
खुट्टा
छेउ
##लिन
##तक
भेटवार्ता
रुख
##्यौं
किशोर
सम्मा
चौका
संयोजकत्वमा
अभिभावक
बुझाएको
##एकी
स्थिर
लेखेको
खेल्दै
बिस्त
##ियु
##समक्ष
##रहेकी
९७
तीमध्ये
भन्नेमा
##नुभएका
जोडी
फलफूल
दिन्छ
एसिया
लम
डिजिटल
खेलेका
सांसदले
भर्खर
उन्
सापकोटाले
डिप
##हाव
मोरङ
##खेर
चर्को
डाय
कर्त
सस्तो
##गल
कपिलवस्तु
##उनुपर्छ
अफ्रिका
आफै
##छोरी
विस्थापित
समस्याको
##योग्य
##र्नुपर्ने
##हरुबाट
विकसित
मनाउने
##अल
##ंगो
परीक्षणमा
बेलुका
लुट
##ोस्
भन्यो
सिनेमा
दाइ
रोन
नेट
##लेपछि
पुग्दा
रिय
पद्ध
अधिवेश
समाप्त
खेलाडीको
विज्ञापन
##यौँ
धन्यवाद
आबद्ध
राखी
##जन्तु
विपरीत
##ड्दै
कार्यक्रमका
##ारोप
कार्यक्रमलाई
टोलीका
टोलीको
उड्डयन
##ियार
नर्स
लिभर
महासङ्घ
##र्थी
सीप
संशोध
फिट
##ेमी
थापाको
##लाग्
ढिला
घरबाट
##ेँ
आरोहण
गर्भ
मुद्रा
मिलाउन
विरुद्धको
विश्वमा
बारे
दोषी
अपहरण
महत्त्वपूर्ण
पाल्पा
शुक्रवार
प्राधिकरणका
प्रोत्साहन
वु
गुप्
टेलिभिजन
कानूनी
वर्षाको
तिव
कूटनीतिक
##बो
##डोर
प्रविधिको
लिटर
एजेन्सी
लघुव
प्रो
##वादको
सरकारबाट
दाङ
अरब
परेपछि
##ञ्जन
कुटपिट
##ाल्ड
भेटिएका
भत्क
एकपटक
नज
न्यूनीकरण
किने
समस्यामा
आक्रोश
स्वास्थ्यमा
सैन्य
पाइप
बाज
मृतक
##हुन्थ्यो
दियो
बिरामीलाई
कारागार
##ट्स
लिगको
##बाहिर
सुदृ
चाँडै
पेट्रोलियम
जसका
घटनास्थल
##डेल्
अङ्क
##र्सन
साविक
काठमाण्ड
प्रान्त
##्रु
विद्यालयको
##पश्च
##्याइ
उसलाई
##शै
चाहेको
शौच
##विपरीत
बलिउड
सुरक्षाको
##टार
बिज
##सहितका
जुनसुकै
इन्जिनियर
##वमा
##राय
क्याम्पस
खुकु
प्रालि
##च्चा
सेल्
आन्दोलनको
राजश्व
##कृत
बयान
अर्यालले
नेपालबाट
नकारात्मक
सिमेन्ट
बोर्डले
कल्याण
गुणस्तरीय
कोठामा
छक्का
कृष्णप्रसाद
रहन्छ
महिनादेखि
नदिएको
पुनले
सम्व
थाइ
राख्नु
आतंक
##प्रमुख
##वास्ता
निवेद
घाटा
शक्तिशाली
मदिरा
स्वतन्त्रता
##सभ
कटौती
उखु
तापक्रम
आल
वसन्त
##सिना
##जुङ
बेस
पाठ्य
##म्बार
मुम्बई
कब्जा
जितेका
निर्माता
सुवास
अध्यक्षमा
सरसफाइ
आकर्षक
टोलीमा
डडेल्
आयोजनाले
विपन्न
नेपालीले
##पान्तरण
लगभग
प्रकट
सहुल
निर्णायक
गराउँदै
स्वस्थ
प्रवद्र्धन
##हिता
गाउँका
##टाएको
##िङमा
##िनको
आवत
ओटा
खपत
##मित्व
कामलाई
स्तरो
त्यहाँका
तातो
क्षेत्रफल
खोल्न
नेग
##आउ
खडा
##ल्छ
जनजा
खसेको
परेर
##भूमि
चित्त
गरिबी
कुखुरा
बिहानै
प्रणालीमा
सन
काल
अन्यो
परिसर
रुकुम
भन्छिन्
छोराछोरी
खटिएको
हृ
निजाम
पिसिआर
क्षतिपूर्ति
युएई
नमूना
सुत्के
उचाइ
ठु
सदस्यमा
दैले
सर्वे
पुग्छ
नराम
रमाइ
स्रोतका
दैलेख
अभावमा
त्याग
##तन
विरोधमा
दोहोरो
निर्देशनालय
##ण्डित
##प्ती
रहि
दर्शक
सर्भ
गेट
अफिस
अधिकारीको
संवेदनशील
बढेपछि
माओवादीले
हाफमा
डडेल्धुरा
सुवेदीले
##ङ्का
ठप्प
जाह
रत्न
##वटै
##सेन
##एनन्
थाल्यो
कडाइ
स्वामित्व
नह
देखेर
तट
विद्यार्थीले
मोहम्मद
बेहो
स्तरोन्न
##ेश्व
गीतमा
उमेरमा
##टीका
एपी
औस
टिप
तालिब
किसानलाई
सुशील
आकार
##मुनि
ऋष
थपे
समयको
बढे
नेपालीलाई
किट
##नेस
श्रे
अध्यक्षतामा
जला
अनुमो
वीरगन्ज
सदस्यता
देशले
वाग्मती
डिसे
##िल्ली
##िलै
##पट
खोलामा
##¥यो
बालबालिकालाई
माध्य
क्रियाकलाप
विस्फोट
##्यारो
कालि
धनकु
संसद्मा
साय
उद्योगी
##परिवार
२०३
झनै
नेम्वा
२०१७
जातीय
ज्ञापन
सेवाको
उत्साह
##हिने
म्यु
##ब्बर
नाटक
राजकुमार
हुम्
सोमवार
ओम
लागे
वन्य
##बई
पर्नेमा
ग्राम
हेलिक
सर्वसम्म
मलेसिया
प्रशासकीय
पश्चिमी
##मेत
तस्बिर
रूपैयाँ
##खत
बिस्तार
दिगो
फरा
दास
दरबन्दी
प्राध्यापक
पत्रमा
पेनाल्
##गाउँ
पहाड
काभ्र
विदेशबाट
वकिल
दार्चु
पह
रही
##जले
कर्तव्य
ओलम्पिक
गरौं
कुव
सम्भावित
एसो
फिल्मको
हेलिकप्टर
पत्नी
खेलबाट
किस्ता
२०७८
##रात
धरान
बजेटको
शिला
गर्थे
शपथ
लिभरपुल
नैतिक
हेक्टर
उपप्रधानमन्त्री
##किन
चरित्र
अनिल
##धर
धनुष
मनस
खेलाडीलाई
पैदल
निवासी
##िफ
मन्दिरमा
खुल्ला
लगत्तै
नाघ
##दको
कुकुर
निमित्त
एच
देउवालाई
##ाउनुपर्छ
धितो
##खबर
आवको
उभि
मर
भेर
उनकी
भद्र
डब्
खोल्ने
शल्य
अधि
राइ
चाहने
मस्
क्वारेन्टाइन
बुवा
मनाउन
तै
##घरमा
प्रतिनिधिसभाको
##जरको
धेरैले
संस्थापक
आइतवार
##भित्रको
हेटौं
बताएकी
राजेश
गर्छौं
दै
अधिकतम
लकडाउनको
श्याम
मुस्ता
पुगेपछि
महासंघका
##िसन
रोनाल्डो
##ेलको
दिनपछि
प्रयोगकर्ता
रावलले
शनिवार
##िएम
नीतिगत
बोल्न
नमिल्ने
नेगेटिभ
पाट
उस्तै
##स्ट्र
डिएस
बचत
संस्थाका
काठमाडौंका
##घाख
शाक्यले
थपिएको
##्याएर
त्यसरी
प्रकोप
सक्नेछन्
व्यवस्थापनमा
थ्री
अतिक्रमण
०६
केसीको
सिद्ध
झड
छाया
##दत्त
##राष्ट्रपति
शौचालय
हटाउने
##्यानल
##नान्स
कुरालाई
इंग्
उत्तिकै
डिस्चार्ज
स्ना
दिनुपर्छ
##बुल
बस्नु
राष्ट्रपतिले
देखाउन
कम्पनीलाई
केवल
##दायी
मुस्लिम
##थर
व्याख्या
उत्पादनमा
मानिसलाई
हिन्दु
जितेर
मनमा
##समध्ये
नेवि
धनी
हजुर
संघीयता
सञ्चालनका
##ियन्स
आकर्षित
गज
खोल
कल्पना
अर्ध
समाधानका
##दलीय
कुराको
नेपालगन्ज
##नलाई
बिहे
डिजाइन
सन्तान
परा
चाहिने
##प्रतिको
पुरानै
##न्थी
##शनल
मूर्ति
नुवाकोट
कोषमा
विष्टले
निर्वाचनका
उल्लं
नेताको
यथार्थ
नेताहरूले
जसलाई
##कू
सामग्र
तपाईंको
मानिसले
उठाउन
सचिवालयले
##छौं
सतर्कता
बढाइएको
डिएसपी
मर्या
बिष
श्रीमान्
खरेल
##कर्मीको
गतेको
वन्यजन्तु
योग्य
मङ्गलबार
तिर्न
गिरि
चलचित्रमा
अधिकारीहरुले
##तर्फको
२०१६
##क्वा
##वरले
माध्यमिक
जलवा
उठाउने
बृह
अमर
##पार
नदीको
होटलमा
##ायाँ
पक्षलाई
नराख
अफगानिस्त
बनाउनुपर्ने
टस
खोपको
मिले
पटकपटक
##ेरोजग
दीर्घकालीन
महेश
परीक्षणको
भवनमा
##विना
आयुक्त
##काजी
मद्दत
झल
##िनु
ढा
##ढुंग
##लाले
##सामा
प्रायः
##भाष
प्रती
##ाध्यक्ष
##माथिको
तत्कालै
##मिट
गरेमा
आयोजनाका
समारोहमा
प्रि
परिमा
रोगको
भेटमा
आफूहरु
मेलम्ची
जोडेर
महाशाखाका
##मय
कन्स
बढुवा
किन्न
राज्यमन्त्री
व्यापारिक
लाग्दा
सृ
##ाउँछन्
महानगरपालिकाले
मिर्ग
प्राधिकरणको
दाउ
लगिएको
साहले
टाँ
अभियोगमा
समुह
नायिका
क्रान्तिकारी
जग्गाको
##ियालाई
सत्र
##ञ्चित
भनेपछि
पर्दछ
बालुवाटार
संस्थामा
मानिसहरु
बिल
लगेर
प्रवर्द्ध
आर्मी
भन्छ
मैत्री
ढिलो
प्रदू
मधु
##्रत
रिक्त
शिशु
##धाम
सङ्क्रमितको
अनाव
##अधिकार
अस्ति
धनकुटा
##ह्र
##माओवादी
भ्याक्स
कृषक
दसैं
अड्
लामाले
सहजी
लगानीमा
बङ्ग
राजधानीमा
रहेछन्
फौ
##ारोपण
कँ
गुणा
ट्रक
रोल्पा
घुस
समृद्धिको
हिस्सा
रास
बू
चेल्
##टले
क्लबले
सुशासन
फैला
बचाउन
जमा
शिखर
##एक
नसकेपछि
डोन
अरुण
##जीको
पट
असन्तुष्ट
जसमध्ये
प्राप्
सिन्धुली
स्थानीयको
केशव
मङ्
दोल
फराकिलो
किनकि
उका
##धारणा
बनेर
शल्यक्रिया
सद्
अखिल
##गडा
लियो
भाषामा
मिच
##स्न
देशभरका
आफैंले
गाविस
##मीको
समाजको
लाइस
मिल्दैन
जाप
विद्यालयका
##ब्ब
चाहन्छु
##ुप्र
बराबरीमा
ग्लोबल
सक्षम
लिनुपर्ने
सुत्केरी
एनआरएन
साँच
सवार
लक्ष्मण
त्यसबेला
मुआ
सधैँ
सशक्त
टिमले
समुदायका
खानेकुरा
च्याम्पियनसि
नेत्र
##ामै
अभियुक्त
##कर्मीले
रद्द
सहुलियत
##दैनन्
आकस्
##दर्शी
आवतजा
##ड्रिड
##निङ
अनावश्यक
मूल्यांकन
जग्गामा
##तालिका
##दले
माझ
म्याच
प्रशंसा
##शैली
यसपाल
##ग्रस्त
कोरोनाबाट
सफाइ
उपत्यकाका
घन
तब
उच्चस्तरीय
कार्ययोजना
परिणत
हेड
उत्पादक
बेरोजग
थारु
कार्यालयबाट
पठन
सुन्त
##वर्ती
भरमा
कैदी
##वधि
तीनवटा
देखिँदैन
राखिएका
निकायको
##काले
##गण्डकी
पण्डित
बेवास्ता
आकस्मिक
ओर
##बहि
सहितको
सर्वेक्षण
मनोनयन
भविष्यमा
रोक्
प्रतिवद्धता
##िपि
उपहार
खोज्न
बेइ
स्वच्छ
पारिएको
भएकै
डोल्पा
##िनै
नु
फर्किने
वार
ताप्ले
हेल्
छैन्
मकै
सिंगा
आमाको
##्यान्ड
विशिष्ट
पारी
ठगी
उत्तरी
##प्टे
साइकल
जोडिएका
गणना
##न्धि
टोलीलाई
विवादमा
सीता
लगाउँदै
इजलासले
महानिरीक्षक
उहाँलाई
गराएर
##डीमा
पूर्वप्रधानमन्त्री
आया
अटो
विरामी
राष्ट्रपतिको
##निर्भर
##न्नु
हुन्न
नोक्स
त्यसकारण
फर्कने
नवराज
रोक्ने
गर्भव
##भरी
प्रस्ट
खालका
लोड
20
कञ्चनपुर
इस्
निर्माणाधीन
पुनःनिर्माण
##पर्व
अग्नि
अनुमोदन
ज्यो
निकाल
मनोज
स्वदेशी
शरण
बढि
विघट
##ण्ठ
म्याग्दी
परिक
##न्दुमा
जलवायु
##गाई
धेरैजसो
अवधारणा
जित्
##ेटर
सजिलै
अभिनेत्री
##वत्
##आउट
तपाईंले
##सीका
##माया
एपीएफ
सडकखण्ड
कोट
फार्म
##बाजी
रेग्मी
##ालामा
स्ट्र
##शरण
निधि
##ौलाले
अन्यत्र
चर्चामा
निजामती
##नात्मक
पाउनु
बहुम
##लागि
विक्रम
२०१५
वक्त
##पश्चिम
निषेध
##थान
बढीको
ओपन
बनाउँदा
##पोखरी
लिनु
पहिरोले
बसपार्क
लागी
इन्धन
पावर
##निकी
सन्धि
अपनाउन
सहरी
बनायो
बिहीवार
नामावली
किसानको
इटाली
##र्पोर
परराष्ट्रमन्त्री
भारतसँग
##वर्क
मैन
##शास
भिडियोमा
बजारको
पका
##क्व
##ेषण
पक्का
कँडेल
महाधिवेशनको
मुआब्जा
अपिल
##िला
कुमारी
अगाडी
प्रदर्शनमा
वैशाखमा
लिई
फर्म
महासंघले
रहँदै
धो
चो
पाटन
##पछिको
##सक्यो
##ोषण
पर्यटकको
कागजात
दोब्बर
##ेती
खासगरी
कौ
एजे
न्यौपानेले
##सभापति
##र्इ
सहमत
बराबर
स्याउ
ग्रुप
प्रयोगमा
मौन
उपचाररत
पेर
##मशेर
##खाना
तिल
##विक्रम
##ेयर
ध्व
मनोर
समावेशी
ब्ल
##पावर
##वक्ता
भानु
संग्रह
##ंगी
राप्ती
किसिमका
बाँके
बच्न
##जिङ
एक्लै
गइरहेको
उठेको
बाइड
जन्मा
अभिनेता
प्रस्तावित
चाहन्छ
गिरीले
##ड्दा
दिएकी
अक्ट
धमा
तेज
निरीक्षण
समाजका
नारायणी
प्रिय
भोक
उल्लंघन
जाजरको
##हुँदै
##पालन
असं
बुझाउन
राजु
त्यसअघि
आकां
सवाल
##भाड
##जीले
पाउँदा
##सनल
मुस्क
त्यसबाट
पृष्ठ
सहभागि
महिनाभित्र
प्रशासनिक
छानविन
पढ्ने
##सक्नु
आन्दोलनका
बागलुङ
अस्थ
प्रधानमन्त्रीलाई
##मूल्य
##वित
उस
स्वरुप
ठोस
वी
भरि
भन्नेबारे
स्मृति
जानुपर्ने
##भित्रका
हिरास
तारा
त्यहाँबाट
मार्क
संसद्को
पोखरी
श्रीमान
अनियमितता
कर्पोर
##ंदै
एकदमै
मुलुकलाई
सेप्टे
दान
भेरी
सहजीकरण
देउवाको
##दित
भाइरसका
##राति
गर्नै
##तया
##धनी
पार्क
चलाएको
##िल्ड
तपाईँ
उद्योगमा
##परित
गर्दछन्
विमानस्थलको
नायव
रोहित
अशोक
##बीचमा
माल्
##्याली
आउँदो
##्याण्ड
##खल
भएकोमा
मनि
अड
वेला
पाउनेछन्
पार्किङ
पारिवार
रुट
अट
लघुवित्त
खानी
चलचित्रको
जनताका
##रहित
बत्ती
हेम
कम्प्यु
पार्दै
सतह
##गाह
गरेपनि
निकाल्न
##चाहिँ
विषा
दौड
जीवनको
धामी
रमाइलो
काठमाण्डौ
सर्त
धम्की
कहिलेका
मातृ
अनुगम
वक्तव्य
सेन्ट
व्यहो
एसोस
आफूहरुले
सामाग्री
चिनी
जनसङ्
##अध्यक्ष
सान
##केट
स्थानको
बोलाएर
तुरु
अनुसन्धानमा
ठग
गर्नुपर्नेमा
विस्तारै
भलि
मानिएको
##लीको
समुदायमा
आश्वास
##नासाथ
बाह्य
##अगा
जिल्लाबाट
##चारु
हाराहारीमा
नबुझ
बालबालिकाको
परियार
कायमै
##डाँडा
अप्रिल
नेविसंघ
पला
उत्तम
सद्भाव
युट
##िश
इन्चार्ज
##रोग
उत्पादित
नाइ
नोभे
##र्सी
कसुर
मकवानपुर
##भियोग
##दमा
कागज
तिनै
निकास
हामीसँग
##अघ
ट्वि
फार
इजलासमा
##वृत्ति
##ानुमान
बढ्छ
##ौटी
फिल
##ुलु
नवीकरण
आवमा
##्युब
तुरुन्त
##क्रामक
एड
पारिवारिक
दशैँ
बारम्बार
भाडामा
युरो
ट्रया
##प्ट
अन्तरराष्ट्रिय
छापा
विरोधी
सचेतक
##ञ्चार
##िनले
न्यायिक
विधेयकमा
फ्
भाषण
छोडेर
##वान्
जानकार
लागुऔषध
##चेस्टर
##मिता
कान्छ
बोल्ने
आचार
##ाइमा
शीत
शुद्ध
##धम
प्रहरीमा
सदुपयोग
स्याङ्
गीतको
##यरमा
हिन्दू
##उँछिन्
प्रत्या
खोज्दा
##पाठ
जनतामा
दिनका
आयल
त्यहीँ
त्रैमा
##गोलिक
स्टा
झलनाथ
जनजाति
लापर
गर्भवती
##थु
लाभांश
द्वि
खातामा
सरस्व
खोटा
कोषाध्यक्ष
गरिदि
डिग्री
सायद
अदालतका
नेदर
जोन
कालापानी
भिसा
बेलायती
##सुल
तप
चल्न
संस्थापन
निर्मला
सहमतिमा
##ेलमा
व्यवस्थापनका
पदार्थको
प्रस्तावमा
नख
##ताल
डल
##ग्राम
सिरिज
निक्षेप
##मैत्री
##र्नर
बोलाइएको
सुरेश
राष्ट्रको
##ृंख
भूमिकामा
##यू
राम्रा
उनकै
##ड्नु
चितवनको
##रथ
##ङ्कन
मङ्सिर
हराउँदै
आईपी
##काउ
फैलि
##तर्फी
##पन्थी
##खामा
##दियो
स्वि
ट्रान्स
माइती
गर्दैन
मालपो
सावधान
##िख
जोडेको
##ड्य
नियमन
चाहिन्छ
##स्थापन
उल्लेख्य
रोजगारीका
बेल्
अनुसन्धानका
पति
महिनासम्म
महिनाअघि
##सिद्ध
##काइ
नसकिएको
वृत्त
##भौ
विश्वको
भौगोलिक
##काई
अस्थिर
लाग्
संकल
बोकेको
एकेड
भिन्न
सकिँदैन
जाडो
घाट
अलिक
पूर्वानुमान
बोलाएको
##जनी
चुक्ता
##नेश्वर
बैंकमा
क्लि
##जिअ
राजन
अंग्रे
सिस्ट
ली
आदिवासी
सकिएपछि
##लोक
भोलिप
सेती
गाली
##हाले
अछ
##मस
उप्र
बझा
##िँदा
प्रजिअ
रोमा
जनसङ्ख्या
##ेलो
धमाधम
शहरी
##सम्यान
आपसी
घटेर
गठित
प्रदूषण
रचना
##लेले
##्यवहार
सुनिल
खै
जनयुद्ध
मेची
##मोहन
जर्मनी
डेब
सकेसम्म
पर्वत
##त्मा
भ्रमणका
##जाको
##वारण
सहिद
ताला
हान
शही
समितिलाई
बाग्
##लास
चीनबाट
दिई
बन्दी
मेघ
मोदीले
राम्रोसँग
मंगलवार
चितवनमा
##वाको
##जारी
##कता
परिमार्जन
रवी
महिनापछि
सोलु
प्रयोजन
दिल
रोजगारीमा
##अप
राज्यका
##्यमा
गर्नेलाई
विशेषगरी
##िकरण
निकायमा
स्रोतको
बानी
गोलको
##ह्
शता
बिच
मन्त्रालयलाई
तिब्ब
बाख
बाइ
वेब
##ेनन्
##रोप
सल्यान
गर्दैछ
##हरूबाट
कान्तिपुर
मान्ने
सुनसरी
१९८
##ाग्र
बल्ल
अंग्रेजी
अंकले
हद
पत्राचार
##ेन्डर
रेमिट
सम्पादन
हेलि
कामना
##श्रो
##ँदैछ
प्रतिस्पर्धी
##िन्छन्
रजि
लाइसेन्स
कुवेत
अपर
चरम
##प्य
##्याइएको
##फ्ले
शान्तिपूर्ण
आलु
बलिङ
सुचारु
औसत
ठो
सोझ
अक्टो
देखाउने
अनुभूति
ब्
गरिरह
उम
मुद्दाको
आइपुग्
मेस्
गौरी
उपसभापति
दिवसको
##मन्त्र
प्रत्यारोपण
नाकामा
बिरुवा
##ुरेन्ट
सहकार्यमा
लाखभन्दा
जगत
सेमिफाइनलमा
कार्यान्वयनका
सहजै
अत्यन्तै
इले
##रलाई
##ज्यू
क्रि
अभिलेख
फाइनान्स
दिश
महीना
दुईजना
आश्वासन
बहान
उपराष्ट्रपति
##सभामुख
परिचयपत्र
##ाइरहेका
घोषित
##स्योर
बुद्धि
२०१४
स्थितिमा
गुमाउने
स्क
बाँस्को
##लीमा
आप्र
##िएकी
डोनाल्ड
मतगणना
नआएको
##्याक
परिसरमा
केटा
मध्यन
लाखको
मानिने
##ण्डमा
नेतालाई
बीबी
समाजवाद
##जस्ती
कमला
नम्बरमा
सेनाका
सुदृढ
सम्झौतामा
बीउ
हेर्नु
भर्खरै
कठि
##क्ष्मी
निवारण
टोक
##ष्कार
प्रविध
सांसदहरुले
हेलिको
एकातिर
रेग्मीले
गभ
ब्याट्
हौ
दोलखा
मोर्चा
##थोकी
देखाएर
कार्यकर्तालाई
अधिकारको
अवतरण
भुसालले
सञ्चारकर्मी
मध्यनजर
फस
##विज
स्पष्टीकरण
लागेपछि
पदबाट
प्रजातान्त्रिक
श्रद्धा
जात्रा
##चाप
छैट
अर्याल
स्क्र
बैशाख
कम्तिमा
हतार
काँग्रेसका
लागतमा
स्वाभाविक
हेलिकोप्टर
छुट्टा
राती
उद
वान
##ञ्जी
##छुट
च्याम्पियन्स
बनाउँछ
##ायर
लिँदै
मेट्रिक
लगायतको
##दायक
लेन
रिहा
सकिन
##र्टर
तौल
अविश्वासको
हेटौंडा
सट्टा
बाजुरा
सरस्वती
आजदेखि
##ाउँमा
कम्पनीमा
गर्नुको
मुना
प्रचण्डको
जबर
गहिरो
ठिक
प्रतिशतभन्दा
पौडेलको
##राहा
बालक
##ात्
ट्रेड
चाडपर्व
एसएसपी
##दिभ
सिस
कृष्णबहादुर
इतिहासमा
##घात
सागर
रेखा
नराम्रो
लाइफ
एनसेल
ग्राहकले
##ब्लिक
गैरआ
बस्तीमा
कालोपत्रे
दिशा
सुकु
पैदा
सम्मानित
टिका
अभिवृद्धि
मापन
माइक्रो
अंश
सना
##फ्र
लाग्दैन
चाइ
गरेसँगै
कार्यतालिका
सुमन
##हरि
भेन्टिलेटर
कोरियाली
गतेबाट
गुमाएर
पर्नेछ
हजारौं
प्रभु
रहेकी
भैरहेको
##म्बरमा
##स्तरको
##न्तिक
म्याने
सार्वभौ
##िएफ
प्रतितो
##किएको
निष्कास
डिल
दलहरु
करोडको
नेताहरुको
हेल्थ
राउत
छाला
ज्याला
अनौपचारिक
उपन्यास
करिव
वैद्य
नायक
##बेर
बोनस
निर्णयमा
बजेतिर
विभागमा
##बित्तिकै
मार्ने
ध्यानमा
##आमा
पदका
##ड्ने
कम्प्युटर
महँगो
गुज
शताब्
बन्ध
##ुअ
उपसमिति
झरेको
मानन्ध
निराश
न्य
##ाध्यापक
निम्त्या
तीर्थ
युरोपेली
अक्ष
##तेको
खत्र
उठाएका
बाँडफाँ
उठाएको
##देख
मस
घिस
##ईको
सवै
उपनिर्वा
##धनको
##शेष
लगानीको
रङ्ग
हजारको
नगरप्रमुख
वर्षभन्दा
पेनाल्टी
बुढाथोकी
वस्तुको
आदान
इण्ड
##त्तिकै
कच्चा
दुइ
##क्ला
गोक
फुटबलमा
ढुंगा
घरपरिवार
ज्योति
फोहर
प्रयोगशालामा
रोका
पोर्चु
वामदेव
होइनन्
##मह
##मोर्च
अन्तराष्ट्रिय
प्रश्नको
गाडीमा
सार्क
प्रशोधन
इन्स्योर
मल्लले
##बासी
##ेसी
##ञ्जा
पद्धति
##पुले
प्रणालीको
शास्त्र
बन
##गृह
सुब्बा
२०७१
धनगढ
हङकङ
हस्
शिक्षाको
नगरे
अस्पताललाई
##विश्वास
बाह्र
खत्री
लकडाउनका
सयभन्दा
गरेकोमा
ताली
इञ्ज
हौँ
बेनी
खाएर
विद्यालयले
क्षण
नवलपरासी
कलेजमा
भ्याक्सिन
##्र्यो
जनमत
काफ्ले
##बिना
मिलेको
महाशाखा
जेठमा
सिफारिसमा
आत्मनिर्भर
##िमि
पक्कै
गैरका
##नुपर्दछ
चाँडो
समस्य
क्वारेन्टिनमा
चीनका
प्रकरणमा
##स्टिक
##जियम
जलविद्युत
##राग
विश्वकर्मा
अवकाश
भगवान
गोल्
##ंस
##वीर
जिप
लोकतन्त्रको
गुमाएको
आइरहेका
राख्नुपर्ने
प्रचलन
तारिख
##णु
##याम
दूतावासले
सारेको
ल्याए
निषेधाज्ञ
##च्छेद
प्रयत्न
##ेन्सन
जोड्न
प्रतितोला
व्यवसायीको
बाहिरबाट
स्तरमा
##ारीको
दैनिकमा
तान
पत्रकारिता
घेर
ब्याट्सम्यान
बढीमा
बीपी
कारोवार
##्ररी
हालको
##ाइरहेको
पुलको
व्यवसायीलाई
गगन
स्वीका
##हको
इन्स्ट
जुलाई
उत्साहित
##ेग
समर्थक
डाँ
बनेपछि
गराई
गुर
चिर
निगमको
देखिन्छन्
नन्द
##ग्रहण
##ारो
अनुरुप
नेकपाले
गराउनु
रोजगारीको
दुबई
शहीद
डिफ
##िमण्ड
##न्टी
जवान
गैरस
केदार
प्रक्रिय
##स्वीर
ख्याल
झापाको
पं
रुपैयाँसम्म
##ेच्छ
##ियन्ट
दीपेन्द्र
मालपोत
विदा
इमा
समाजले
तस्वीर
शिलान्यास
दिलाए
भुसाल
निश
##ुग
लगाउनु
##चेत
गर्दछु
जुम्ला
नेटवर्क
आर्जन
##पेट
केन्द्रबाट
प्ल
##क्लो
##स्रोत
घाम
प्लान्ट
२०२१
गोकर्ण
जीत
##एमई
बाख्रा
परिक्षण
##प्रसार
समुदायले
बेलायतमा
टर्की
गृहकार्य
निकाल्ने
##षक
साउनमा
फर्
नपाइने
भवनको
##भावी
व्यवसायिक
##द्धान्तिक
सम्हाल
यात्रामा
गे
गोप्य
##केश
नसके
परिमाण
##वाहक
जथा
##फेर
पाहु
अख्तियारले
बाहिरी
बड
श्वास
प्रशस्त
##य्या
लगेको
तालमेल
जनवरी
ल्याब
चट्या
##कुलपति
हृदय
फ्या
##श्याम
पारस
##रकारी
सेतो
##द्रिक
पठाएका
भूकम्पले
मृ
डाँडा
##क्ताको
##खास्त
खुकुलो
##वासीय
संचार
मानवअधिकार
सिलव
मिर्गौला
ललितपुरको
##साम
अग्रसर
जनमोर्च
अनशन
विगतका
सप्तरी
छवि
सर्वसम्मत
वेस्ट
सिं
राम्रै
भलिबल
मुस्किल
नहुनु
कार्यकर्ताले
##चाँ
##निस
स्थलगत
सैद्धान्तिक
सर्वोच्चले
करिडोर
गर्नुका
रंगशालामा
##म्बू
योगेश
##ुलि
परिवर्तनको
कोषको
##आत
व्यक्तित्व
शैलीमा
रामे
विद्यमान
तस्करी
आख
गएराति
पाइँदैन
पेरिस
हेल
नवीन
सकिए
मागेको
छठ
आवतजावत
सपथ
पहलमा
उर्जा
बुझ्ने
आदर्श
उम्मे
स्वर
ठाउँबाट
धनुषा
##ासमेत
पन्तले
भक्तपुरमा
बिभिन्न
उत्पादनको
डिसेम्बर
रुपियाँ
गाउ
परिस्थितिमा
बिर
जिन्द
##सीयू
सहमतिको
क्यामेर
##रेड
आर्य
##लाग्दो
बादल
भर्चु
हुला
मसान्तसम्म
रहेन
बिस्तारै
अनुकूल
##योर्क
##विका
संक्रमणका
##नियाँ
##ेन्सी
ढुक्क
जाति
बढाएर
##र्भिक
यससँगै
##लोमा
##च्
गैरआवासीय
##र्पण
बुझाउने
ठुलो
दवा
खानु
नार
##ण्डी
माल्दिभ
बजेर
मिलन
नेतृत्वले
३००
वाल
तत्व
बैङ्कको
औषध
प्रधानमन्त्रीका
इजलास
धितोपत्र
दोश्रो
लुक
प्रतिशतसम्म
स्को
नहर
भण्डारण
##ङ्गले
झडप
प्रचारप्रसार
##सके
मर्
##ंकी
##चौर
राखिने
दशरथ
अन्तरले
बताउनुभएको
व्यवसायमा
##िलो
##धाई
अपरि
झाले
रामेछा
कार्यपालिका
सिकाइ
युवालाई
कपाल
बार्सिलोना
संगठनले
नाकाबाट
आवद्ध
किनारमा
ह्वा
##द्वन्द
उमेश
कारबाहीको
फाल
##ण्डको
सङ्क्रमणको
मार्
छर
हेटौँ
##ेन्ज
##ट्टी
##थ्य
ओखल
युभ
असारमा
सांसदको
परिवारमा
म्युजिक
व्यवस्थापनको
कोटा
टिभ
विदेशमन्त्री
##भिर
छलफलका
##लभ
बताउँछिन्
##वरको
उहाँका
औचित
##तारमा
ब्याजदर
##जल
फेब्र
रवीन्द्र
अर्काे
सिद्धार्थ
आचारसं
खोजिएको
गरिस
सुनार
उदयपुर
निकायका
वार्तामा
नरो
निवासमा
बुँदा
अपाङ्ग
साधनको
दिनुभएको
##कहाँ
व्रत
बढेका
छनौ
अध्ययनरत
कैलालीको
महाअ
थियौँ
खि
कतिपयले
विश्वकपमा
विभागीय
समाचारमा
##िङ्ग
गुल्मी
रौतहट
विभाजित
कमाइ
संस्थालाई
सकियो
घिसिङ
औषधी
विपरित
##ब्य
फर्केका
उद्योगले
भोलिपल्ट
छाड्ने
शत
हिरासतमा
क्रिकेटमा
प्रकृ
खेर
निकालेर
गोर्खा
न्यायालय
इलेक्ट
गह
##केको
घनश्याम
नगर्दा
आउँछन्
यादवको
सम्बन्धलाई
चलाइ
अभ्या
चिन्ति
पश्चिमा
सिधै
एकअ
केर
साताको
##ललाई
रायमा
मैनाली
सूचीकृत
##कलमा
बोहर
खुल्ने
सञ्चालनको
वाग
प्रदेशसभामा
यूएई
##वानी
खुल्न
तिम्रो
ब्रो
भर्चुअल
जवाफमा
नभएसम्म
लिपुले
अवस्थाको
##मन्त्रालय
अस्पतालबाट
पर्यट
योजनाको
सिलसि
##ृत्य
नस
चिन्तित
छाउ
##खुवास
संगी
तातोपानी
बिर्स
१९७
लडाइँ
सहरमा
यकिन
सत्तामा
##नमार्फत
स्टक
उक्ल
जंगल
चिन
उपाध्यक्षमा
गर्नुपरेको
बढ्नु
वर्षाका
उन्न
काठमाडौंबाट
गठबन्धनको
बस्दा
प्रतिस्पर्धामा
विश्वकै
##सम्पाद
रहनु
गैरसरकारी
टेकु
पिप
अन्तर्वा
मनसुन
रिजालले
उत्खन
आराम
संगठनको
महन्थ
मिलाएर
ट्याक्सी
आयोजकले
तहलाई
दिलाउन
उद्यमी
चुरे
उसका
विवादित
औचित्य
पल्ट
क्ल
विपक्षमा
लिम्बू
##्यालो
समेटिएको
गुठी
समेटेर
जाहेरी
उपधारा
समूहलाई
वार्ड
हनु
##मर
मन्त्रीले
तत्कालिन
निष्पक्ष
बुटव
शर्त
दाजुभाइ
##ेब
खुद
चरा
कारोबारमा
##खुवासभा
अप्ठ्यारो
जिता
सामान्यतया
हँ
पन्
विश्वविद्यालयका
##गुन
हिमालयन
माउ
प्रदर्शनी
##ईमा
अध्यक्षको
त्रिव
##र्दन
जानकी
गोठ
चिकित्सकले
त्यसमध्ये
भेरियन्ट
जापानी
कार्यलाई
##्याङ
स्तरोन्नति
प्रयोजनका
बदर
लेखि
घुम्न
रायमाझ
बधाई
सङ्क
##ङ्ग्रेस
अर्थतन्त्रमा
गायिका
##ओस्
##राही
नामको
परीक्षामा
उद्यम
##जाँच
शहरमा
सयौं
गच्छ
रेष्ट
रथ
मध्या
##ुङ
सदस्यलाई
पसलमा
पार्व
पूर्णता
कुशल
बेलुकी
भारतलाई
##चनामा
रेश
कीर्तिमान
##विजेता
##एचओ
शर
शेखर
तिमिल्
बङ्गलादेश
##रूद्ध
थाल्
##नीति
हस्पिट
नारायणकाजी
देवकोटा
##पल्ट
एकदिव
पवि
उपसचिव
टेलिफोन
भाइरसबाट
##पाले
##देन
प्रमुखको
अन्योल
##घ्र
पथ
##सिनाले
मरि
जिज्ञा
रै
##अर
फागु
सम्मको
##स्वरुप
##त्रै
##ताप
आश्र
रोकि
एभर
सलमान
##एमा
##परी
गाँउ
विघटनको
सभापतिमा
##तापूर्वक
संकटमा
##डीको
##लट
पर्यटकलाई
डीएसपी
लाखौं
बालकृष्ण
सहयोगको
२०७०
लोप
##ें
राशि
भित्री
शान्त
इँ
श्रेष्ठलाई
बन्दुक
फर्कन
विद्रोही
उपत्यकाको
नाकाबन्दी
निकायलाई
प्रस्थान
हिमपात
रेलमार्ग
कार्यदलले
टिममा
पाउँछन्
साझेदार
प्रोट
सामग्रीको
लोभ
गरेँ
सदन
अनुसारको
किर
सृजना
एकअर्का
संशोधनको
सेवाका
सुविध
झगडा
##मेट
शक्तिको
प्रसंग
##क्षामन्त्री
नेपालमै
होलान्
लामिछानेले
सुधारका
आमाले
थापालाई
बन्छ
महतले
विषयको
एट
उपसभामुख
स्पेन
नसक्नु
जनआ
शिविर
मुलुकले
झाँ
##ेश्वरी
इरा
चारै
लड्न
##शिल
लुगा
##पाठन
सरि
विकेटले
नहोस्
उपकुलपति
फौज
टावर
##ान्त
कुनैपनि
नखु
महराले
खल
मर्यादा
एमाओवादी
निर्देशनमा
समन्वयमा
झण्डा
##हुन्न
##हिबार
लिमिटेडले
म्यानचेस्टर
खोज्दै
पक्षबाट
दिप
सदा
नुन
##ढुंगा
सामेल
जथाभावी
भण्डारीको
याताया
विमा
एएफ
सावधानी
फेसबुकमा
टिमको
प्रतिद्वन्द
न्युजिल
रनले
अना
सदस्यहरु
पठनपाठन
##ाएपछि
उद्योगको
##पछ
##फर्म
अन्तरक्रिया
अपराह्न
एसि
चुनावको
मृतकको
डिल्ली
उज्यालो
कृति
बैङ्कले
माओवादीका
कथ
महानगरले
थो
देखाउँदै
कोहल
कार्यान्वयनको
##चौकी
##लगायतले
हरियो
##िएल
मोडल
नसकेका
##सिसी
पाकिस्तानी
##विवाह
महोत्तरी
अष्ट्रेलिया
आफैँले
धुलो
तिनी
स्वर्ग
भेग
इन्ट
स्टोर
सीमामा
##तीले
अन्तर्वार्ता
##यात्रा
सङ्ख्यामा
शंकास्पद
गर्नुहुन्छ
विकृति
कष्ट
##ेनी
##बाटो
व्यवस्थापिका
संस्थान
##लगायतको
बनाउ
मालिक
बेर
##र्सले
अध्ययनले
शोक
विल
चितवनका
अन्याय
पक्की
सन्तु
ब्रेक
तरल
साहित्यकार
सक्नु
अछाम
मिल्छ
##अगाडि
अर्जेन्टि
अस्तित्व
असुर
आस्था
प्रदेशसभाको
रजत
पिता
राव
करणी
सङ्गठ
वेबसाइ
छौ
राणाले
कोषले
र्या
##गं
दिइरहेका
बन्दर
फुटबलको
वाट
छुट्टाछुट
भनिए
सालदेखि
##िड
खेले
ढुंगाना
रुपान्तरण
##प्ता
सबभन्दा
##ेजमा
बर्दिया
मन्त्रीको
साधारणसभा
फर्किएको
उम्मेदवारको
गठबन्धनका
देख्दा
हालतमा
सरोज
असहज
##बुटी
मान्न
रेस्ट
ऐनको
पाँचौं
विच
किन्ने
अधिकारीलाई
जबरजस्ती
बर्स
बेल्जियम
आइपुगेको
टेवा
##ुङ्गा
सङ्कट
समक्ष
सङ्घका
हुनै
पात
बाला
अदालतबाट
हुँदाहुँदै
बक्स
##र्दिक
बल्
झार
प्रतिशतको
फुल
जङ्ग
घोराही
असल
राहु
माने
महतोले
गठबन्धनले
संक्रमणमुक्त
कोइरालाको
पारदर्शी
वाइ
##फोड
देखेपछि
हिमालय
प्रकरण
##मालले
मौद्रिक
स्थानीयवासीले
१५०
##र्वेद
बढ्यो
अस्व
युग
रहर
इरान
वायुसेवा
##ङ्ख
छैनौं
अपराधी
मिलाउने
गई
आश्रम
भेटेर
अनलाइनखबर
सुनुवाई
वास्तवमा
हलमा
खोजीमा
हाउस
प्रस्तुति
महाराजग
अवलम्बन
उकालो
पाउनुपर्ने
##लोजी
डाटा
हार्दिक
##्याग
शर्माको
जुलु
##हिक
नभइ
शीर्षकमा
##छिन्द्र
इन्डो
##हानी
उपविजेता
साँच्च
बाधा
##प्रेषण
अन्त्यमा
##बाली
##वालले
बहिनी
अनुशासन
दुर्गम
कता
रकमको
पन्छ
फेब्रुअ
माओवादीको
राईको
अचान
मानेर
कार्यसू
न्यायपालिका
अन्ध
##डालाई
उमा
छोरीको
##्नुभएको
निमा
स्थानबाट
असंवैधानिक
पटकको
भ्रमणको
चार्ज
अञ्चल
स्थलमा
खग
समयपछि
ब्रिट
सस
व्यवस्थापक
##ंले
साफ
परिचित
दायरामा
सचेतना
क्षेत्रले
छुट्टाछुट्टै
फाउन्ड
ओरालो
पञ्चायत
##सेना
घरधु
निकासी
गरौँ
अध्ययनका
देखाउँछ
##ागर
शरणा
फ्रेन्
##ुको
स्थाय
महासंघको
सिंगापुर
थप्
##डले
गरिदिएको
अभियानको
बिपी
कमरेड
##ईन
धौ
अचानक
खाजा
##विरोध
सेप्टेम्बर
मुगु
कांग्रेसलाई
सरल
भइन्
छात्रवृत्ति
बन्दरगाह
नृत्य
अफर
जबर्ज
नलाग्ने
घटनाका
सुन्न
अपांग
बोट
##विराज
ऐनमा
प्रतिशतमा
तपाईंलाई
परिषद्को
मन्दिरको
शाखाका
बागलु
बिति
बुझाएका
##कान्त
लिएपछि
उनीसँग
सुरुवाती
छायांकन
मिथि
##यात्र
निष्कासन
##भाग्य
जन्मि
रिजाल
प्रतिभा
सङ्गठन
आइसकेको
##िङको
क्यापिट
छुट्ट
मानिसमा
धेरैको
प्रधानाध्यापक
तीव्रता
काङ्ग्रेस
इङ्
०५
ग्यार
भनिने
घटनाबारे
##बन
ओसार
##स्टार
सारिएको
प्रतिष्ठानका
उत्रिएका
फ्लो
एकदिवसीय
भुटान
सभाका
शय्या
चारवटा
##दिनँ
मगरले
अमृत
सिंगो
##सिरमा
ललितपुरमा
ओलीसँग
राजधानीको
तोडफोड
दिइरहेको
धुलि
##डाले
##भिल
जनचेत
दिनमै
प्रश्नमा
मान्छेले
अमेरिकाका
राज्यमा
स्मार
कार्यालयलाई
कामदारको
कोशी
रहेकोमा
राजविराज
##निकट
खानेपानीको
वर्षौं
भाइरल
##ागि
कार्यसम्पाद
बिग
##कुवा
हुनेगरी
वर्
लोकसेवा
##ङ्कर
उतार
##र्तामो
संघसंस्था
कुराले
विशेषता
##शनमा
##ुण
जुत्ता
इंग्ल्यान्ड
गोल्ड
##वले
महालेख
पाठ्यक्रम
मड्रिड
महानगरपालिकाका
धुलिखेल
आक्रमणमा
सास्ती
मतदा
सेटमा
स्वयंसेव
पीडितलाई
अर्कै
सुरक्षामा
आयुर्वेद
देवेन्द्र
किनार
कठिनाइ
निलम्बन
ढुङ्गा
तुला
दस्ताव
वञ्चित
रणनीतिक
विराट
विश्वविद्यालयको
ओपनर
थन्
समग्रमा
सर्ज
दम्प
##न्च
दिलाएका
##ुप्रसाद
यम
स्याङ्जा
फलाम
सक्दैनन्
डेभल
खसी
##हाल्
सचिवालयमा
झि
##ेन्टी
बर्दि
प्रवर्द्धन
दृढ
बनाउनका
थिइन
पच
स्थानिय
##वृद्ध
आफैले
ल्
रेस
##्टी
दिशामा
थारू
बाक्लो
अन्ततः
अवस्थालाई
कार्तिक
चेतना
सचिवालयका
पुनराव
भिट
##पास
जाम
##ेक्ट
बृद्धि
दाँ
अस्ट्रेलिया
गरेन
छिर
आर्सन
आठौं
गाउँको
##ञ्चोक
पु¥या
पाँचौ
##सय
औंल्या
##वियु
राहदानी
##न्टल
तिनको
गच्छदार
##न्दर्य
हालेर
मेलामा
लम्स
घट्दै
फिफा
पूर्वमन्त्री
छोराको
हिँड्ने
खाडी
इन्जिनिय
बैठकबाट
##त्रो
##ंदा
रोय
दाहालको
लेख्न
मेलमिला
दुव
नेपालकै
##िटिभ
##तिष्
अजय
चिन्त
भूगोल
अन्तर्गतको
गतवर्ष
सबैमा
सर्वसाधारणलाई
##अनुसारको
प्रदर्शनकारी
तुलसीपुर
ऋषि
हुन्थे
##चीमा
काठमाडौँमा
ल्याउनु
गम्
रेट
##00
गर्नुपर्नेछ
##पाइ
कटान
शुक्ल
मच्च
१९६
##दिनु
राजतन्त्र
देखेको
##रास्व
##बडी
गुरुङको
इजराय
सिस्टम
मिलाइएको
काठमाडौ
##स्थानमा
सौन्दर्य
नलि
२०१३
विधिबाट
गहुँ
##बाद
आफूहरू
अतिथि
##िकन
##काको
सारा
होटेल
शरीरको
##लेश्वर
तस
वैधानिक
ट्रे
तीनजना
उपाध्याय
सकेर
मान्छेको
##निज
आश्च
फर्किन
अविजित
##याको
अनिश्चित
देखाएका
अनेरास्व
##न्मुख
दिवसका
पूर्णिमा
दलीय
जैविक
##दर्शन
##वात
तिहाइ
गभर्नर
हैसियत
माला
निर्णयको
नपाउँदा
बेच्ने
##मिल
स्वतः
चम्
सम्ममा
लिपुलेक
सिजनमा
सुने
मृत्युको
चोले
प्रतिफल
##न्जेल
चिकित्सकको
हिरो
प्रस
एजेण्डा
बिक्र
##दश
रघ
##संर
प्रक्षेप
परिरहेको
असहमति
भेष
मजदू
हितमा
ताइ
पर्खाल
लिम्प
विकेटको
१९५
संलग्नता
##स्प
पायो
महाप्र
##सनीय
स्पेनि
प्रेरणा
मुद्द
स्थायित्व
लाइनमा
दिनभर
महसुल
जितसँगै
चल्
युनिभ
शिक्षामा
शार
जनकपुरधाम
बट
ताम
प्रयासमा
##त्सा
##किप
राउतले
नजिकैको
##तेर
जनजीवन
चोलेन्द्र
कक्षमा
##हिन
सम्हा
सम्झना
क्लबका
कार्कीको
निष्कर्षमा
गिर
आजसम्म
फर्किए
कानुनको
##महामन्त्री
पदको
##अनुरुप
दुर्व
व्यक्तिमा
प्रतिष्ठानमा
वडाका
आयोगलाई
टोट
इँटा
एकैपटक
ट्वा
गंगा
गराइने
जलस्रोत
महादेव
तराईका
विराटनगरमा
##चरण
मिलियन
अभियन्ता
छनौट
अर्घाख
पुनःस्थापना
गाडीको
०७५
पदम
सिक्
विवा
मारिएका
मझ
हेरफेर
टेष्ट
बोर्डका
टिमका
##जिन
##न्दर
४००
पूर्णरुपमा
वाइड
हटाएर
कालीगण्डकी
##डिओ
डेमो
साउथ
दक्षिणी
उपचारपछि
अलिकति
##लान
प्यार
प्रज्ञा
अग्लो
छाडेको
काँग्रेसले
शीतल
##ेजले
आपत
##धारी
##्यान्स
सीसी
चुक
क्रो
सातादेखि
सर्वसाधारणको
तसर्थ
##ज्ज
बान
##प्रदान
पञ्जा
कहिलेकाहीँ
##न्यायाधि
##ौता
सम्बद्ध
थुनामा
##कक्ष
महर्जनले
नचाह
इनि
पेशा
सिटौला
क्षेत्री
##जका
संज
दूरस
आसपासका
आइसिय
सांसदलाई
चाहे
झापाका
सदस्यका
रक्षामन्त्री
एकताका
बढाएका
मारमा
भव्य
क्य
सेमिफाइनल
दाल
पोखराको
जर्मन
##ामगर
बाबा
हुनुको
मण्डल
प्रक्षेपण
खोलाको
बसे
बोल्
मजबु
साट
हावाहु
निर्म
गर्नको
##बारीमा
मामि
तिर्नुपर्ने
हुनुहुन्थ्यो
जुवा
##ासु
सचिवमा
आश्चर्य
वरिपरि
नेताहरुलाई
मिश्रले
नबढ
पम्प
ढुङ्ग
दिपा
सर्भिस
आफ्
पानीमा
समुदायलाई
##र्ल
बगाएको
झोल
अष्ट
भित्रिने
लिम्पिया
लाग्नु
सेक
गैँ
निकाल्दै
##बन्दीको
नजाने
खत्रीले
##ञ्जु
क्षेत्रफलमा
वर्ण
मर्ज
भैर
हुर्क
टाढ
##ोको
एमालेमा
बेच्न
दिदीबहि
प्रसिद्ध
##मध्य
##विरोधी
दिमा
पु¥याउने
लेख्ने
बढेसँगै
सुनाइ
##गाड
एथ
जुटाउन
बहाव
##न्डा
निर्भर
अर्घाखाँच
##्नो
जबर्जस्ती
बेरोजगार
त्यसमाथि
##ायो
स्वभाव
चोर
भुइँ
रहस्य
असु
##रक्षा
##हुँदैन
राम्ररी
ब्यवस्था
एपिएफ
जीप
खेल्नेछ
नगर्नु
परिचाल
##वर्ग
कमिटीमा
रुच
##३०
विश्वस्त
निगमका
मैत्रीपूर्ण
बाम
दरमा
##ष्टिक
##चाई
सुखी
सिलसिलामा
यज्ञ
रिसोर्ट
हमला
##त्सव
##नुभएन
प्रचण्डलाई
सिलिन्डर
दायरा
अनुमतिपत्र
राख्दा
बसिरहेका
##र्तिमा
उपभोग्य
##बेल
पार्टीबाट
आएकाले
प्रतिकूल
##रहनु
द्विपक्षीय
डब्ल
##रात्र
सफ्ट
##धमा
नदेखिएको
खेल्
दूरसञ्चार
चेकजाँच
युट्युब
##पश्चात्
##कुटी
यसपालि
पद्
द्रु
राजनीतिको
क्वि
आइपुगेका
चोकमा
वर्षयता
एशोस
नट
जिते
थालनी
##जाले
घटाउन
विद्रोह
संस्करण
रामप्रसाद
चैत्र
अर्कोतिर
आईसीयू
गाउँले
सर्वोच्चको
चलखेल
खेतमा
अचम्म
थाप
उद्धृत
तेह्र
नफ
सार्ने
उपस्थितिमा
एकाएक
भएकाे
कुराहरु
असा
घरका
चहल
समस्यालाई
क्यु
र्याली
प्रचलित
##ाटी
संरचनामा
कहीँ
##बीले
लड्ने
भक्तपुरको
##बिस
छोरीलाई
सातौं
योग्यता
नेपालसँग
चिह्न
जडी
रोड
दलहरुले
##पाटी
बताइन्छ
##डिट
वातावरणीय
सोलुखु
मुनाफा
##भेट
##्यूरो
सिनियर
अब्
##ुमा
छनोटमा
बिषयमा
नआउने
साँघ
पाहुना
किनेर
अक्टोबर
व्यवहारमा
कालिका
गोदा
यात्रुको
इमान्द
समस्याका
पानीले
नवनि
कमाएको
आफूसँग
तोक्ने
घण्टाको
युवक
##दीमा
पवन
बाँस्कोटाले
गोल्डक
##श्मा
भट्टराईको
##आईजी
##रक्षक
आद
रक्सी
खर
गर्यौं
स्पेनिस
यादवलाई
##ेजी
##म्मे
अभियानलाई
##लाय
बस्नुपर्ने
निकासा
##वेला
भन्नुहुन्छ
##रहन्छ
रुचि
कञ्चनपुरको
वृद्धिदर
महत
चीनसँग
नोभेम्बर
##आफ
कस्ता
##चको
तथ्यांकअनुसार
##खुट
##विधा
सहयोगका
चन्दले
##्छु
##जिर
विरुद्धमा
विनाश
अपमान
विश्लेषक
मनोरञ्जन
##पिङ
रहेकोले
व्यवस्थाको
जनार्दन
खोजेका
गराउ
कारागारमा
निरु
##गामी
दाना
##मद
चर्क
##जीवी
राखि
आक्रामक
##्याउँदै
पाई
जनरल
##केन्द्र
रूख
लगाई
सिमाना
ब्राण्ड
##ठ्
माथिको
डेमोक्र
प्रमो
##गरि
सेनालाई
##जुमा
निवर्त
##जान
डढ
गैं
दिनहुँ
भरपर्
नरेश
रेमिट्यान्स
नोक्सानी
##पुछ
स्तरीय
काटेर
उत्सव
मेहन
अफगानिस्तानमा
गरिदिन
लगायतले
साटो
काट्ने
कोरोनाले
जनआन्दोल
टुङ्गो
##जंग
रोशन
##थिन्
कसलाई
एशिया
मुलुकबाट
आईसीसी
जेलमा
प्रकृया
##ालगायतका
##न्दैन
सर्क
अनुसन्धानको
स्थाना
स्यान
##मतो
उनै
##नुपर्दा
पदमार्ग
ठूल
##ग्ग
फैलिन
शेर्पाले
संगठित
दिल्लीमा
अक्स
कोरियाले
धू
दिन्छन्
निवर्तमान
अत्याधुनिक
मूल्याङ्कन
रोकिएका
दुख्ने
फर्कि
##ालिटी
बौद्धिक
##परेका
क्लिनिक
भनिएका
##प्स
श्रो
अध्यक्षले
##ेटा
हेटौँडा
##ानुसार
नियोग
मानिसहरू
०७६
सुन्तला
##ुकी
नारायणगढ
करार
जीवित
##धनमा
मधुमे
एजेन्ट
प्रदेशले
प्रकाशमान
युवाको
##लान्
स्कूल
काउन्टर
रुपले
तिर्ने
संरक्षणमा
क्वारेन्टिन
उमेरका
चुप
##्रोन
चौधरीको
अभियानका
भीडभाड
जितमा
प्रेरित
बोकेका
माह
खर्चको
ओभरको
प्लेट
दललाई
प्राइ
जुटेका
प्रतिष्ठानले
जंगलमा
एजेन्डा
कुँवर
नापी
आदानप्रदान
नपाएर
भया
##मुक्ति
##ल्टी
सन्तुलन
सुस्ता
पर्छन्
बेग्
##लिया
कांग्रेसमा
उठ्ने
##नुनी
गरिँदै
दर्शकले
##स्वरूप
मनोबल
##िएसन
##ड्यन्त्र
संखुवासभा
बन्दाबन्दी
अनुबन्ध
केन्द्रिय
##रान
कारखाना
घुमा
सुनचाँ
##ढुङ्गा
दिपक
विश्वविद्यालयले
मौसममा
##ाइजर
गुरुयोजना
धर्ना
श्रद्धाञ्ज
गरेनन्
अवस्थाका
बराल
बीचको
सिंहको
दमक
घात
सम्बन्धि
##बस
जनावर
वेद
##ँदो
पुरस्कृत
षड्यन्त्र
हाे
जुटेको
ज्ञापनपत्र
##लाश
आवासीय
मृग
दुध
मान्छेलाई
छेउमा
पोलिट
ओमान
##उप
तर्
अधिकारीहरूले
##सभामा
आफन्तले
किनबे
आदेशमा
यतिखेर
मस्तिष्
अध्याग
अराज
जमिनमा
##ख्यक
गिरिजा
यसबाहेक
फागुनमा
महेन्द्रनगर
भय
चुहाव
पहिरोमा
जानेछ
भन्नुभएको
नत्र
तयारीका
आचारसंहिता
दसैँ
बस्य
मोरङको
लगानीकर्ताले
कर्णालीमा
सिफारिश
त्रिपुर
घटनास्थलमा
यिनै
##क्सिको
विगतको
##श्री
खुलेर
घटनाक्रम
##ौति
वैचारिक
##झैं
इटहरी
०४
बन्नु
टुट
हुदै
यात
नेशनल
लिगा
नीतिमा
बुहारी
गरिनुपर्ने
प्रोज
##चमा
परिकार
##आइजी
गम्भिर
ट्रम्पको
भूभागमा
चौत
##यिक
युनिट
भक्तजन
२०६४
आपसमा
हनुमान
##टिक
थाइल्याण्ड
पौडेललाई
गराउनुपर्ने
वुहान
गर्मी
##चीको
बोर्डको
ब्रान्ड
##२०
मंसिरमा
घटनालाई
चैतमा
डेभलप
प्यानल
नेताहरूको
##ामिन
पोषण
##ेनको
ग्री
भेगमा
##भावना
गोकुल
सम्मेलनको
##ेणी
##मलाई
निर्णयलाई
शिकार
लोग
महासमिति
फाँ
अन्स
गैरकानुनी
घाँस
स्थानान्तरण
घट्ने
चितुवा
##ृंखला
खड्ग
##ाराम
एभरे
संस्कृत
मिडियामा
भागब
पराजुलीले
##पदा
माग्न
प्रविधिम
फाइल
मीन
पुँजीगत
नमि
##ायन
राजमार्गको
सुस्त
सोधपुछ
##होरेको
गरिमा
जनचेतना
##फोर्ड
गुड
तालिबान
##बुद्ध
यात्रुलाई
##िन्थ्यो
भदौमा
##ागाई
महामारीले
किमी
बाँच्न
प्रकृतिको
मेक्सिको
चाहन्छन्
व्यवस्थामा
बिहिबार
लागूऔषध
पुस्तकाल
उत्खनन
लेक
सँगसँगै
##शंकर
विमल
बनाइने
रोब
बसमा
परिवेश
##िकै
नजर
##पले
##िसँग
##गंगा
डिजेल
जापानको
निर्णयले
अविरल
धर्मा
आफ्नी
पिक
हुनुपर्नेमा
आशि
##ानामा
युथ
प्रतिनिधिसभामा
त्यसयता
खुल
यसैले
प्रर्द
सम्झौताको
युरोपियन
##ोकी
सोलुखुम्बु
##नैतिक
वरपर
##वण
दैनिकी
युवाले
संयोजन
##दिएका
सरा
हिमपा
जीर्ण
मान्
आफूहरूले
खतर
आइपुग्दा
##ेजस्तो
शरद
दलहरू
दायाँ
क्यार
चुनि
गर्नुहोस्
सूचनाको
बार्सिलोनाले
कोसिस
मतपत्र
आत्मा
बेलायतको
##लिटर
भईरहेको
ब्यक्ति
नवौं
गोष्ठ
खेलकू
भीमदत्त
कुप
काभ्रे
व्यवस्थालाई
स्थगन
##जुद
वीरेन्द्रनगर
##र्मी
##किश
बताउनु
फाउण्ड
##पेक्ष
##वेयर
काट्न
अनसन
##डका
नाघेको
महानगरपालिकाको
बोलपत्र
सञ्जय
बृहत्
##योजित
आपरा
पवित्र
बसन्त
खानले
कृषिमा
जुध
सजग
बाहिरिएको
प्रभावशाली
अध्ययनमा
##शमशेर
##िएकाले
२०१२
महरा
##मरा
मौसमविद्
अब्द
२०११
एकेडेमी
जिज्ञासा
श्रा
##वरमा
गर्नसक्ने
भइसक्यो
फर्केर
खुलासा
सभामुखले
छैटौं
विष्
पीपी
ग¥यो
मोटरसाइकलमा
दण्ड
ट्वान्टी
हप्तामा
उपमेयर
विषादी
##प्रश्वास
च्यानल
##ङ्गी
वनमा
##पिड
छोर
##कोटमा
कमाउने
नगरि
बेइजिङ
जाजरकोट
उपाध्यायले
##दह
लोकमार्ग
##्यौँ
अरुलाई
कमिटीले
बिघा
प्रतिद्वन्द्वी
स्यानिट
बर्सेनि
सुरक्ष
अर्धशत
तिरेर
सदनमा
##ालालाई
ठाकुरले
घेरा
गार्ड
भर्न
खेलका
भगवान्
##रिया
माग्ने
चहलप
देवकोटाले
२००७
संचालनमा
पाउँछ
भेद
हर्ष
पीएस
दार्चुला
इन्स्योरेन्स
माफी
उठाउँदै
भानुभक्त
समूहबाट
स्नातक
झोला
आपराधिक
चिना
ठाउँको
गाँजा
कार्यकर्ताको
सर्वसाधारणले
सर्ट
##प्रद
धरा
##ङ्गे
बचाउ
थप्ने
##कारले
आरा
ट्याक्टर
##छिन
संगठनका
##धक
व्यक्तिका
भइसकेपछि
कार्यल
परिवर्तनका
बिष्ट
नेम्वाङले
विवेकशील
डेल
##ुश
बैठकपछि
उनीमाथि
##ग्ध
ढङ्गले
बरि
बुझेर
गोलले
##डास
सुक्
##ार्ज
प्रबन्धक
मुल्य
राखेप
गिराव
बहिष्कार
दुरी
मुहान
मोदीको
सम्वन्ध
मुलुकभर
##सेर
सकिन्न
##अनुरूप
फेरी
छात्रा
सत्तापक्ष
कप्तानी
भोजपुर
चन्दा
##नायक
ग्राहकलाई
काउन्सिल
अवध
कमिटीका
दुवैको
##ऊँ
राष्ट्रियता
रामेछाप
आप्रवासी
##भो
होमस्ट
नजिकको
देखिएन
चट्याङ
विषयवस्तु
पुगिसकेको
च्याले
##पहिरो
पशुपतिनाथ
##नर
गरिनु
देशबाट
झापामा
परिकल्पना
पुर्व
रुस
कोरियाको
हिँड्न
नारी
खर्चमा
##ायनिक
##लोड
अधिकारीका
निस्कने
०७४
विन्दुमा
आफुले
रारा
म्यान्
##समै
स्टेट
##स्दा
रेडक्र
विधा
गोरखापत्र
एन्टिज
पुरै
कामहरु
राष्ट्रका
##रहेकै
##मोर
##राखेको
कार्यकालमा
महाप्रबन्ध
ताप्लेजु
दुवैले
स्मारक
मुस्ताङ
कोषका
डिस
##कालिन
##फिल्
चालकलाई
संस्करणको
सघन
##अन्तर्गतको
लहान
सुम
##संरचना
डलरको
जमी
सिभिल
##राज्य
खण्डको
##सीलाई
बर्खास्त
भित्रै
धनगढीमा
व्यापारमा
ब्रह्
##्ध
स्कुटर
रोकथामका
क्यामेरा
पश्चात
लापरबाही
कोश
घटनाले
औषधिको
ढाका
मन्त्रालयबाट
भोग्नु
चार्ट
देशै
##ुटि
खुम्
ठाउँका
समापन
लाभग्राही
भंग
दिँदैन
हाल्ने
विवादका
हैसियतमा
मिथिला
अहिलेका
मातहतका
ढल
बाहेकका
सातदो
गएकाले
##लामी
हुनुका
बलर
नबना
उपयोगी
भित्रिएको
##नेता
हड्
##ीमाथि
##घाती
लाग्थ्यो
##सम्ब
##टाई
##नाक
चिन्ह
भाज
भुवन
##व्यवस्था
महिनावारी
तिनका
अर्थतन्त्रको
चढेर
प्रभा
कार्यसम्पादन
##किपर
##्याक्ट
लिम्पियाधुरा
उद्योगलाई
##लोभ
तिहा
कार्यको
क्रिस्ट
पालामा
स्वरूप
बालिकाको
गर्दैछन्
सम्मिल
सातै
भिज
आपू
ल्याउनुपर्ने
भूम
लिम्बु
राजव
काठमाडौँको
प्रसाई
निकालिएको
गंग
सुरज
दस्तावेज
अवस्थित
लैजानु
##वहारिक
भित्र्याउने
सता
फैस
असुल
सातामा
##प्राप्त
पीडितको
##दरमा
महिलामा
बायो
खटिने
शैले
झुण्ड
##डीले
##प्रतिशत
तत्कालका
दृष्टिले
महोत्सवमा
पाकिस्तानको
जिस
घटनास्थलमै
अवस्थाबारे
संस्कृतिको
##ंै
हत्य
चाँदी
मुग्
##शान्त
पोख्र
जता
काभ्रेप
बताउने
##त्तिको
खरिददर
##संगै
##वह
दिदै
कोह
आमालाई
ध्वस्त
प्रदायक
सेन्स
सवालमा
अन्तिममा
यिनी
वर्षकी
जाय
शुभारम्भ
सभ्य
घाँटी
परिषद्ले
प्रतिष्ठानको
##क्षेत्रमा
कार्यक्रमले
सदस्यहरुले
तामाको
ट्वीट
गरिदिने
डुबानमा
मेलमिलाप
निम्न
बच्चाको
एकाइ
कुरै
देखिएकाले
##नियम
##ड्स
##िनेछ
##निर्वाचित
भन
सर्ने
सक्नेछ
कक्षामा
साथबाट
भेलामा
कीर्तिपुर
क्याम्पसमा
उठ्न
एकज
राजमार्गमा
उत्तरा
बनाउनुपर्छ
कोलका
बुझिएको
##सियस
बढाउनुपर्ने
ठकु
एक्का
##णले
बरालले
स्वभाविक
सूचनामा
सोसाइ
##शांक
बेचबि
खड्काको
##दिप
स्वास्थ्यका
खाँच
खुले
बहानामा
खाएको
##षित
रूपले
उन्मुख
##म्क
आफूहरुको
खोलेर
दुर्व्यवहार
भिडन्त
क्रिकेटको
सार्थ
हरायो
डोजर
किनबेच
चहलपहल
आइएमई
स्वास्थ
दोहोर्य
क्षेत्रीले
पूर्वअध्यक्ष
चुहावट
##िक्स
##ाँउ
##रहेछ
शत्र
दाम
अँ
पक्षधर
व्यास
रोचक
उहाँहरुले
##काउने
दाङको
भावी
आना
उही
पाकिस्तानले
एनआरएनए
##ानि
भाग्य
भित्र्याउन
टीकापुर
विकट
##ालयमा
##कारको
##ल्ब
##चाह
##मलेन्द्र
##सहर
नर्सि
शम्भ
म्यारा
घटाउने
वंश
अभावले
जोडे
हजारौँ
कुँवरले
नगरको
लोह
तहबाट
##इरहेका
##वधिक
सुनचाँदी
##तीर्ण
दलाल
बासिन्दाले
दबाबमा
स्कोर
##स्पति
कुर्
नेवार
समृद्धिका
उत्स
##पसार
##सेको
मोट
सक्यो
##रन
शिविरमा
##हाङ
बाहिरका
ह्वाइ
अन्यथा
##क्दा
गरेकै
आर्ट
अव्य
त्यसबारे
मणि
उठेका
##पेर
पुगेकी
हत्याको
सोल
सत्तारू
##ुरे
##ुड
सांसदहरूले
##बाहक
आआफ
विधेयकको
भाषाको
हर्क
सुधारको
सक्रियता
ब्याट
मृतकका
राख्
फ्रि
##न्त्रण
काठमाडा
पाएनन्
आन्दोलनलाई
कोण
कैलाश
गराउँदा
जनप्रतिनिधिले
पुग्नु
पाइयो
सत्तारूढ
प्रशासनको
##मानी
दिइसकेको
बोक्ने
प्रियंका
##वाटको
##खाले
सुटिङ
छायाँ
गिरावट
##लाञ्चोक
सम्मिलित
मुखमा
अवधिको
हदसम्म
केटी
लिँदा
उद्दार
मधुमेह
##माई
##म्भव
देशबीच
सीमावर्ती
शेयरमूल्य
पर्दै
लघु
बोग
##जगढ
क्लबलाई
इच्छुक
यहीँ
जेष्ठ
रूपान्तरण
पढ्नु
भूमिगत
नहुन
बानेश्वर
मनाइने
उठाएर
छाडेका
बिस
संक्रमितमध्ये
संरक्षणका
आक्रोशित
पालन
तपाईको
एसियन
सूचक
##ेकै
भर्ने
नेम्वाङ
सत्ताको
##धना
सम्भाव्यता
आगमन
डोटी
बालविवाह
परेकाले
गर्नेगरी
पृष्ठभूमि
स्तरको
##ँडा
सिकार
काठमाडौंः
ओसारपसार
##श्म
सर्वोच्चमा
तर्जुमा
हेर्दै
मिहिने
नाति
##ङ्दी
डाउन
बोलाउने
##वट
हाइड्रोपावर
तुलना
अप्ठेरो
बढाइ
##श्वरी
एकजुट
असोजमा
उपनिर्वाच
अक्सिजनको
पोजिटिभ
शाहको
विस्तारका
शासक
##क्सो
सङ्घर्ष
डरले
##गत्तै
दोषीलाई
डेंग
जीवनशैली
टिभी
हत्यामा
मजबुत
##पाती
##लाउने
उनीहरूका
अभावका
भएँ
सक्छौं
तटबन्ध
##भण्ड
रोकेको
उचाइमा
लेखन
ध्र
##फाई
धरौटी
झन्झ
##वस्थित
प्राची
पोशा
बरिष्ठ
##छौँ
मिलेमतो
##ख्
बोहराले
बताउनुहुन्छ
पुर्न
निमो
##िएसँगै
मिलाइ
क्रिस
गुठ
निजगढ
##नजिक
बुटवलमा
देशव्यापी
इभ
चन्द्रागि
नेताका
खाँचो
बोले
मातहत
बिस्
झन
प्रमाणीकरण
भक्तपुरका
दूर
इन्स
##ितीय
लाग्दै
ड्राइ
पोखरेलको
खरिदमा
सन्दीपले
ओलीका
बालिकालाई
##फामा
##क्तालाई
ल्याई
कसको
सेन्टरमा
##रायल
पाएर
कामले
कुश
पुनर्ग
रङ
जानुपर्छ
भरपर्दो
ताजा
टिमलाई
##घाखोकी
करोडौं
लागिरहेको
बिहार
यद्यपी
कोहलपुर
##पुरी
शाल
स्कट
छाड्न
हिँडेका
##निका
सुधा
एशियाली
लोडसे
महाप्रबन्धक
मारेको
होली
आरोही
##खर्क
ढाँच
##गोपाल
सप्तरीको
##न्दि
##समूह
##निट
प्रणालीलाई
भेन्टिलेटरमा
स्वाद
बस्तु
सहमतिका
सावित
२०१०
बहर
हुम्ला
बोहरा
सास
चाहिएको
परियोजनाको
कैलालीका
चक्रपथ
गीता
मामिलामा
##तामाथि
##दुरी
दुनियाँ
स्थानहरुमा
##ूर
जनस
कोरियामा
एसिड
##क्षे
कैयौं
शतक
एकताबद्ध
##तर्फबाट
अनौठो
##पल
लालबाबु
##हुने
सिजनको
गजुर
बाँकेका
२०६३
विचाराधीन
##कुण्ड
सहारा
च्याम्पियनसिप
##त्विक
गोलरक्षक
निर्मित
अपनाएर
भनेकै
लगाइने
सेवालाई
##िनर
##ोकल
कालिकोट
तुलनात्मक
##ोदय
सुन्ने
वामपन्थी
महान्यायाधि
भगवती
तेक्वा
ताप्लेजुङ
गाड
##इस
##हुनेछ
जन्मदिन
काभ्रेपलाञ्चोक
क्रस
प्रतिष्
ह्वाइट
श्वासप्रश्वास
खरेलले
ट्रयाक
किनकी
२०६८
इन्जिनियरिङ
मार्केट
गर्नुस्
##ाइल
बुक
बिहानैदेखि
अफगानिस्तानको
गुम
इमान
बढाउनु
एयरपोर्ट
त्यसतर्फ
जुलुस
##दिन्छ
मधेसमा
प्रतिकिलो
अपाङ्गता
ओझा
उपभोक्ताले
अज्ञ
तालीम
नक
लगानीका
बिका
मिटरको
कार्यसूची
रक्तचाप
जन्मिएका
##सेनापति
बनाइएका
डब्लु
री
फरवार्ड
लेखेर
मेह
भरिएको
विकासमन्त्री
आगजनी
पित
छोरालाई
##पण
प्रकृतिका
वर्षाले
अल्ट
नसकेर
बानियाँ
एकको
##यात्री
##ट्रिक
प्रस्तावलाई
जर्ज
ट्रेस
त्रुटि
आयातमा
क्वाटर
धक
यसअघ
पुस्तकमा
व्यापारीले
##िच्यु
उप्रेत
पासपोर्ट
##ंशी
अपरान्ह
हारेर
टेलिकम
महाअभियोग
##हाली
प्रसू
बैंकबाट
ब्यु
अधिवेशनमा
बढ्नुपर्ने
प्रक्रियालाई
कोभ
रेस्टुरेन्ट
विस्तारको
बित्तिकै
सम्बन्धन
पुग्नेछ
रुपैया
##नुको
सुपरि
धान्न
अगस्ट
नाराबाजी
न्युजिल्यान्ड
निराशा
बच्चालाई
प्रशारण
उठेर
आउँदैन
बजेटले
प्रदेशबाट
##मेण्ट
##्र्या
बहुमतको
लमजु
ठूलै
दीपा
##सै
शोषण
आवागमन
आफुलाई
सभासद
अर्कोतर्फ
##र्माले
कार्यक्रमअन्तर्गत
##जति
कोरोनाविरुद्धको
दूरीमा
##लार्इ
राजनैतिक
उनीहरुका
मसँग
##पामा
पाँचथ
संसारमा
खोज्नु
भूमिमा
एमबी
भैरव
हैद
हुनुभएको
एकपछि
सङ्क्रमणबाट
फेल
फोनमा
नसु
ध्रुव
भिर
लाखौँ
मन्त्रिपरिषद्ले
उत्तीर्ण
तेक्वान्द
एन्टिजेन
परिषद्का
जागरण
रासायनिक
सबैजसो
पोर्चुग
सन्तुष्ट
केहीबेर
मस्जि
प्रतिष्पर्
##विज्ञ
तीनवटै
##22
प्रब
काँग्रेसको
सेभ
दाब
अरुको
अर्काको
सानै
मेरी
प्रवि
अधिकृतको
##र्जित
गफ
फर्काउन
##म्यान
यहि
##दास
##वन्ध
विन्दु
रुघाखोकी
सर्वदलीय
इन्डियन
बेलाबेला
२००८
##बरमा
रानाले
पाइलट
गाउँमै
##देशीय
सुन्
त्रिवेणी
गोरु
डीपी
उल्टै
सम्पादक
कोरोनाभाइरसको
##योजक
भान्
त्योभन्दा
विश्वविद्यालयमा
हुनुअघि
##िणी
विमलेन्द्र
धक्का
उर्
एमालेलाई
पुर्
##च्ची
##विरूद्ध
गौरवको
असुरक्षित
निर्या
##हेल
अत्याधिक
गरेकाे
##ायल
भाद्र
नेदरल्यान्ड
उनि
कोभिडको
क्लबमा
रोपाइँ
सुनसरीको
उहाँहरु
घोडा
तरुण
प्राचीन
विश्वप्रकाश
अला
सकिएन
गोद
भाँडा
गतिविधिमा
परीक्षाको
फाल्
मुलुकी
##ाउन्ड
सक्नुहुन्छ
जसो
साल्
सुकुम्बा
सयौँ
##लेन्स
एकमात्र
##क्यौता
पृथ्व
प्रमुखले
उम्मेद्वार
प्रथा
प्रतिवादी
##ण्टर
भरो
तिनलाई
विद्यालयलाई
खेलाडीमा
स्पर्
सोमपाल
पदाधिकारीको
प्रधानले
##पीको
स्थानका
नपाएपछि
बाहु
गोदावरी
तेलको
श्रृ
##रोजग
सुग
भएकामा
शशांक
पाटो
##पनीय
सबैका
टुर
प्रतिश
करको
##नमार्क
मार्न
एन्फाले
बित्
##डल
सडकबाट
जापानमा
तुरुन्तै
दुर्भाग्य
अनुदानमा
ब्यार
कठोर
कोटेश्वर
अन्दा
चारजना
टेलिकमले
लमजुङ
बालकको
दिनयता
हिँडेको
प्रलोभ
##बन्दीका
प्रधानसेनापति
कित्
बिरामीले
##ागा
कफी
##धुर
स्कुलमा
उनमा
गर्व
गर्नेको
उमेद
##चल
##न्द्रा
अज्ञात
##पाका
##प्रेस
केहीले
त्रिपाठ
##इमा
कँडेलले
समयअघि
लगाएपछि
जलेर
शोध
हेरिएको
चेन्न
धमला
##तय
##माको
समया
गौतमलाई
अस्त
भनेकी
खेलकूद
गर्भपत
समस्याले
सुन्दरी
अज
##ीन
##न्वित
##मीमा
पृथ्वीनारायण
मनमोहन
बाहिरिने
सुनेर
क्ला
निधिले
प्रे
प्रतिव्यक्ति
मौज
कने
प्लस
बर्षीय
दाङमा
##ोलमा
घाउ
##यन्त्रित
पढेर
##ूत
##वलम्ब
देखाइ
पुसमा
प्रालिले
केरा
सभापतिको
वर्गका
घातक
अनुपात
घरज
२०२२
##ेनमा
गर्नुपर्यो
सुनाएको
रोजगारदाता
प्रशिक्षणमा
पराजय
सांसदहरु
विवादको
##रोस्
फेर्न
सव
सन्तुलित
संज्ञा
झाँक्र
जनही
फारम
##क्षि
रोनाल्डोले
प्राण
व्यक्तिहरु
##पश्चात
खाइ
बर्षको
प्रेममा
टुक्र
पाएँ
पर्वको
हिन्दी
##क्रान्ति
सँ
आत्ति
एमालेबाट
##प्रेर
दिदीबहिनी
कलेजले
##ँड
ब्यान
##फले
विजेताले
एयरलाइन्सले
जडीबुटी
अनुसन्धानबाट
##याले
पालो
तीब्र
नीतिको
आखिर
दमन
##लक्ष्मी
कुटनीतिक
यसकारण
पाँचथर
नेत्रविक्रम
##ब्रे
नपाएका
धोका
बुकिङ
##ासम्बन्धी
शाखाले
स्तम्भ
सधै
सांग
स्थापनाको
उक्लिएको
परेकी
बढ्दा
भूकम्पको
##ामध्ये
पुग्
इमान्दार
चिन्
पहिलेको
कर्जाको
लन्ड
सदस्यहरू
स्वास्थ्यकर्मीको
नागरिकका
व्यावहारिक
प्रतिक
बैंकिङ्ग
तिवारी
तला
जिल्
##नान्तर
निवेदनमा
##संख्यक
सिल्
मधेशी
संकल्प
शिक्षकको
सिटीले
##म्ने
बोलको
अम्ब
टेन्डर
मेगावाटको
क्षतिको
खुवाउने
वार्ताको
केस
एकसाथ
रहनेछन्
अनुशास
सक्नुपर्छ
अर्थमा
महाभियोग
विश्वसनीय
अर्थतन्त्रलाई
##लाइट
इञ्जिन
खोजे
##पछिका
नदिई
धारण
##्र्त
लख
देख्ने
संरचनाको
च्यालेन्ज
मोर्चाले
धेरैलाई
यातना
पदमुक्त
जनाभन्दा
अन्तरगत
म्यानमार
प्रतिवेदनले
निभ
##सामु
भाई
तेह्रथु
##घाटमा
स्वरोजग
केभी
बढाउँदै
असुली
गोला
सेल
##रीलाई
##इसकेको
नर्सिङ
##ंगिक
##पुर्जा
##ुराँ
प्लास्टिक
आकांक्षी
ब्याक
सिंहदरबारमा
अर्पण
##ज्य
प्रतिनिधिमण्ड
ठक्करबाट
मिना
घोषणापत्र
अस्थिरता
हैदरा
साबुन
लगाउँदा
##िपिन्स
कलाकारको
माथिका
बाय
साम्रा
जागेश्वर
मध्यपुर
##एँ
स्वेच्छ
नगरिएको
त्रिश
स्न
आइतबारदेखि
विमानस्थलबाट
##बजारी
गौशाला
अन्तरिक्ष
कमाउन
खेल्दा
##ष्टा
मर्का
रोकेर
मोटो
राख्छ
टुङ्ग
केसीलाई
पासमा
चिज
क्लबको
फिलिपिन्स
सुझ
मानबहादुर
भेदभाव
##ठू
रुपैयाँले
##र्सा
सम्मका
##ायी
भएनन्
समाजलाई
सक्दो
##उनुभयो
##पख
स्थानीयलाई
अखण्ड
##डिरहेका
दिइयो
ओग
किच
जान्छन्
लौ
स्वाय
पहिलेदेखि
वासि
डेब्यु
चुनौति
भयावह
विधामा
जितेन्द्र
##ूले
##्राचार्य
खर्चेर
भुज
बिर्तामो
आँग
तामाङको
गढ
उसै
##ाइको
क्रसर
##झैँ
झे
अङ्ग
नदेखि
##जहाज
##डिखेल
##तली
कञ्चनपुरका
काबुल
विश्वकपको
पुरुषमा
सिमित
##सिङ
चालकको
##कान
सुख्
##सम्पर्
प्रतियोगिताका
सौराहा
अनुपस्थित
मेहनत
बोलेको
अध्यागमन
रोक्का
##स्थितिमा
स्पोर्ट
मोर्चाका
गन्तव्यमा
तालाबन्दी
माई
##ष्णु
डेनमार्क
समसाम
खाँदा
कुरो
##विनायक
गर्नुअघि
तैपनि
युभेन्ट
प्रमुखमा
##इरहेको
माफ
नउ
अनियन्त्रित
त्यसैको
प्रोजेक्ट
उदार
मागेका
चुस्त
सुनी
कल्
जिति
क्व
वर्गको
बक्यौता
चार्टर्ड
सहमहामन्त्री
धानको
जोर
युनिभर्सि
##ब्ज
सरिता
पहे
कोलम्ब
केबल
पढाउने
##ोन्मुख
आँट
पढाई
##ाल्ने
रुपा
बूढ
साताअघि
नपुगेको
##स्तोल
०७७
आत्मसा
जाव
थाल्छ
पल
##वश
महाधिवेशनबाट
##िले
योजनाका
सनाखत
हानी
##प्पल
नाक
फेब्रुअरी
बेरु
##मारको
शरणार्थी
##फु
टाउकोमा
##ंगोल
रुसी
अधिवेशनको
मौज्दा
##षेक
किमि
महालेखा
मूल्यवृद्धि
##ठान
यथावत
हकप्रद
समानता
झ्याल
तालिव
कार्यक्रमहरु
हाफको
नेदरल्याण्ड
महानगरको
भूकम्पपीडित
##बाहेकका
आँखामा
रोगी
भिटामिन
पर्या
पुलिसले
सेन
गैँडा
##ियाे
बोलाएका
कर्मा
झैं
स्मार्टफोन
स्टेड
बाँकेमा
##रिस
औँल्या
नपुग्
किसिमले
सभाले
२५०
नलिने
फौजदारी
हुलाकी
##्ग
कार्यसमितिको
हड
निश्च
शुरुमा
नेपालीहरु
पु¥याउन
##गाना
बहुदलीय
भ्रष्टाचारको
जिन्दगी
बजा
गुमाउँदै
इकाई
फोक्सो
गठनको
यसपछि
माघमा
##िकृत
तराईमा
बुझेका
##ेजको
मार्ट
आयोजनालाई
लडाकु
नवनियुक्त
जोगाउने
कन्टेन
न्यायको
खोटाङ
आँधी
वडाको
##किशोर
शमशेर
##सुन्दर
साइबर
फुर्
वातावरणमा
हाजिर
##सिलो
##ण्य
ह्वात्तै
##यका
थलो
घले
स्वास्थ्यको
छोरो
##मना
सार्न
बचा
साक्षर
श्रेष्ठका
आरोपित
रुपैयाँभन्दा
भूकम्पपछि
आण
##मिन
भियत
##पनको
##रोधा
झो
स्ट्राइ
##नल
##निको
जोन्स
बोलाउन
##छी
##डिरहेको
ओझ
##म्पन्न
जटिलता
सुनसान
बढेकाले
पीडितले
भृ
अदुवा
क्षतिग्रस्त
एसएल
क्याच
साने
##्नै
उपभोक्तालाई
कलेजका
##बको
बद्री
##काएर
०००
तिमीलाई
श्रेण
छुट्याइएको
अयो
माओ
बुझेको
##म्वर
दलमा
व्यायाम
##्रमा
घरघरमा
गोलमा
भैं
सभामुखको
कार्यवाहक
चाइना
पन्तको
पब्लिक
असमान
अनलाइ
पत्रकारको
प्राप्ति
पौने
अनन्त
अद्या
##स्स
##च्या
न्यान
क्यास
समसामयिक
कार्यशैली
अण्डा
अंकसहित
न्युन
अधिग्रहण
हत्याका
पुर्याइ
##इङ
##बीको
विश्वकर्माले
##ेक्ष
महास
उम्मेदवारले
उपभोक्ताको
कुराकानीमा
शत्रु
##खुट्ट
दशकमा
ग्राहकको
टेल
०१
गुप्त
दर्शकको
ताना
घरदै
घुम
##क्नु
##यमान
हिट
कारबाहीमा
शतप्रतिशत
देशकै
समुद्र
##ईले
##प्लेक्स
##विज्ञान
झुट
ट्रफी
निस्कन
नामबाट
महत्वका
ब्यूरो
एमसिसी
रेशम
कहर
केरु
साबिक
वर्ल्ड
अघिल्ला
पुर्याएका
##ानाथ
साहु
लिमिटेडको
साँच्चै
पुनरावलोकन
प्रसूति
गराउँछ
रोगका
##विर
##टाएका
हिं
बाँझ
##क्षिप्त
##ेलाई
प्रमोद
चौधरीलाई
आयर
पहिल्यै
इन्भे
##नेट
##वामा
स्थापनाका
वितरणमा
आणविक
बैठकका
सुर्खेतमा
मितिमा
छे
बेग्लै
इञ्च
आफूमाथि
प्रदेशलाई
निम्तो
सौर्य
गिट
लण्ड
महाराजगञ्ज
समयका
सङ्ग्रह
फ्यान
मित
##डिज
स्वायत्त
सुन्दा
जिव
जवाफदे
उद्योगका
बोली
हिंसात्मक
##टाको
##तर्फका
बेन्
बझाङ
कं
भिस
##कामा
२०६९
स्टे
ब्रिफ
भाँच
सुरुङमार्ग
भ्रा
काठमाण्डा
कमिसन
##ूप
नेकपामा
आचरण
##सत्ता
मर्ने
टुँ
सुशी
विस्तारमा
संसारभर
रामशरण
अर्थशास्त्र
नेसनल
पर्साका
##दायित्व
आफूहरुलाई
पंक्ति
शालिक
दलहरूले
ढिलाई
कट्
शुक्रबारदेखि
फास्ट
##मञ्च
##ष्ठा
तरलता
करेन्ट
उद्देश्यका
आइप
प्रस्तावको
अरेब
ल्याउँदा
इन्टरनेशनल
##ेसनमा
निर्देशित
##ह्याम
पत्रकारलाई
पेसा
सिलिण्डर
दर्जनौं
छुवा
राधा
प्यान
##विको
##पहा
भेडा
गाँउपालिका
राईलाई
चाँदीको
रिटमा
प्रतिनिधिसभाका
गौतमको
केयर
पाइला
वृद्धवृद्ध
आङ
सङ्घले
कामदारलाई
गिरफ्
आर्मीले
श्रमिकको
##मगर
पोर्ट
##्वल
बजेको
नुह
ठमेल
इजा
किरा
##पनमा
रसुवागढी
##खेती
##हार्य
अग्रवाल
##क्या
##साङ
हम
एभ
हिँड्
कैलालीमा
संहिता
##नेश
भारु
गुजार
रक्षाका
थाइल्यान्ड
सुझाब
बडी
नियन्त्रणको
तिब्बत
तालिकाको
बाढीपहिरो
##पट्ट
मुग्लिन
सर्वाे
हाल्न
सुनाइन्
##पं
सुनिश्चितता
खाले
सार्की
स्वकीय
पितृ
##ाइट
वर्गीकरण
सावि
##ेसनले
मलेसियामा
एन्टी
यात्रुले
##आएको
##सम्पर्क
आन्दोलनकारी
गेम
अक्षर
पौडी
##भाषा
रामेश्वर
##स्मा
यातायातका
दुर्लभ
##र्टमेन्ट
##पूर
अर्बको
##हाल्छ
पहिरोको
##वाले
गजेन्द्र
फुर्सद
शारदा
तिनले
होल्
##पालो
सम्बन्धको
बोहो
चुनौतीपूर्ण
लिनुपर्छ
निरंक
##कर्ताले
##मू
##ाल्न
अख्तियारको
##फाइनलमा
कालोबजारी
१२०
गठबन्धनमा
चलेका
मनोनित
गरियोस्
##÷७
पुट
इटाल
मोरङका
जबकि
##फोटक
##ागु
##मानको
विविधता
ट्रेल
ताक
खरिदका
आजका
डेस्क
जनगणना
प्राथमिकताका
सुगर
रेल्
घराय
कार्यकार
बाँदर
रोगबाट
अध्यापन
##ानीको
बोरा
रुद्र
आशिष
फर्काउने
निमोनिया
##ेसो
साहित्यिक
जसपाका
चलायमान
पूर्वाधारको
ऋणको
बढिरहेका
आत्मविश्वास
दुईपटक
##एमएस
छाएको
##र्छ
स्नातको
काफ्लेले
पुनर्स्थापना
##बन्दीमा
##दण्ड
छलफलपछि
यसवर्ष
मन्त्रिपरिषदको
घरभित्र
हँु
अधिकारकर्मी
एले
हिड
तोकिए
स्वास्थ्यमन्त्री
साथीहरु
समर्थनमा
इको
खासमा
रूपन्देही
स्थानीयवासीको
उत्पादनका
##गंज
महिलाका
पैसाको
पाठकले
यात्राको
जातको
सेनामा
एसएस
##्राम
विष्णुप्रसाद
पाकिस्तानका
पार्टीभित्रको
पुरात
सबल
बडा
बटु
उति
बढाइने
विषयगत
माट
##ल्पमा
१९४
हमाल
प्रतिनिधिले
गर्नेमा
बहाल
##णमा
##बले
इन्टरनेसनल
भैसकेको
आईपीओ
झिक
संकटको
त्यसबाहेक
साक्षा
जोहो
पिउने
सबस्ट
रविन्द्र
गाउँग
क्विन्टल
पूर्णरूपमा
गणेशमान
प्रतिदिन
खगेन्द्र
अक
सकु
क्षमतामा
##वाङ
##फत
पुछ
राष्ट्रवादी
##कासहित
##ुपमा
सबैतिर
महाल
खोल्
सुरुआत
सरेको
पठाएर
कन्स्ट्र
नाता
उत्तरदायित्व
वल
लाज
पदाधिकारीले
महिलाहरु
संसदबाट
एकतर्फी
धित
गरिदिए
सवा
अपरिहार्य
##क्ष्म
छनोटको
टेक्न
##त्साहित
##ठूला
##न्ध्या
भोजन
##ईओ
रजिष्ट्र
ललितपुरका
अवधिभर
खुलेका
असम
लडेर
प्राज्ञ
##वासमा
सोमबारदेखि
प्रशान्त
तैनाथ
स्टेडियम
मुकु
कार्यभार
माननीय
मिडफिल्
##हरुख
सङ्केत
यहाँबाट
कम्पनीसँग
##मीका
खतरनाक
सञ्चारमाध्यमले
भेने
ठेकेदारले
हराएका
##थली
प्रतिस्थापन
उपप्रधान
रुपन्देहीको
सुम्प
गिरिजाप्रसाद
नपरेको
##भएको
##र्सका
रातको
बनाएपछि
तिमल्
व्याज
मजदुरी
ग्रेड
##प्रा
हैर
हुँदो
मनी
टोकियो
हौसला
आएन
क्यानडा
सारेका
चुल
विमला
बितिसक्दा
प्रतिरोध
सुखद
अल्पम
गरेकामा
अव्यवस्थित
परमा
नियत
##ीराम
विकेटका
##परिषद्
दिली
घरायसी
जनकपुरमा
नाइट
ठेगाना
##लकण्ठ
भिम
स्पेस
फिल्मले
क्लव
बाँकेको
चेपा
राष्ट्रियसभाको
डोर
आश्रित
##ग्न
आँसु
यूरोप
##ः३०
बसिरहेको
हाम्रै
डेरा
दुवैलाई
राजभण्ड
##र्ते
ह्याट्रिक
नलग
जनशक्तिको
गुल
##लेटिको
खुम्च
##भरको
राष्ट्रपतिलाई
इंग्ल्याण्ड
##बाबा
भद्रपुर
घरजग्गा
आक्रमणबाट
च्याउ
##चालक
माल्दिभ्स
राहुल
मता
बास्को
##खी
तापनि
##डेट
##च्छे
क्लो
गरिएकोमा
भण्डारीलाई
हिउँदे
निर्द
कम्ब
लभ
##काउन
आन्दोलनरत
नेपालीहरुको
##इन्ट
टेलिभि
पर्यटकले
आधु
##फि
जबराले
संविधानसभाको
६००
दुव्र
रिपब्लिक
##स्पो
सोझै
प्
सडकका
##फुट
टाइम
सांसद्
मौसमी
बदल
कर्णालीका
सचिवको
सट
ब्ल्या
##द्दा
कटुव
काट्
कलेजको
काठमाडौंले
अनुगमनका
##ख्यात
आकांक्षा
##अफ
क्षतिमा
##दाँ
अध्ययनको
पेस्तोल
भेटिए
बजारबाट
अवश्य
हाई
स्वाभि
निकायबाट
खानप
##व्यस्त
थाल्ने
देखाइएको
साइट
अा
काठमाण्डाै
नेतृत्वलाई
पण्डितले
स्नान
अफ्रिकी
सप्
दुर्घटनाको
डाक्टरले
संचालक
भवानी
बिचौ
घर्तीले
निरुप
यसबीचमा
बाबजुद
लस
विड
दवाव
##ष्मा
पाउँदैन
चेल्सी
भरोसा
पर्नु
पोखराका
चौतर्फी
बुढी
सोचे
सचिवालयको
पार्वती
चुरोट
टुँडिखेल
लगाउ
निर्विरोध
सन्देशमा
प्रतिलिटर
नदिए
द्रुत
तेजा
बेचेर
म्यानेजर
अली
##िग
धनबहादुर
निर्णयअनुसार
नोक्सान
शम्भु
न्यानो
तपाईले
राख्नुपर्छ
क्रे
बुलेट
समाधानको
शरीरलाई
अनुभ
मानिसहरुले
इकाइ
एकैदिन
चौर
##राजले
##क्सले
##शीलता
लाग्नुपर्ने
##ारीका
##नीलाई
केटाके
पोखरीमा
##पुर्ण
##ञ्जित
पढाउन
निकालेका
घटनापछि
अधिकारका
छुट्याएको
अठ
अधिनायक
तिलक
बसाइँ
सर्किट
कोसी
खुलाउन
##ब्ध
मौज्दात
सघाउने
बतायो
##हाय
उग्र
दाउरा
सेतोप
यसअघिको
इजाजत
ल्याइने
पठाए
##िताको
नभेट
वाग्ले
प्याले
फर्नि
सर्वाेच्च
हटाइ
अन्दाजी
सिग्
##लमाथि
महाशाखाको
गोरख
गैंडा
करोडभन्दा
एभरेष्ट
लाभान्वित
##पुस्त
अमित
गर्छिन्
कानुनले
वितरणको
कारवाहीको
##नबाट
सक्छु
प्रधानमन्त्रीमा
जिन
छैनौँ
गरिसकेपछि
माथिबाट
२००९
आइस
बोलेका
एकलौटी
रामकृष्ण
वेष्ट
बाँस
अद्यावधिक
पाँचवटा
इन्डोनेस
टंक
##करणका
पूर्वस
देखेका
##लाखेल
अध्यक्षद्वय
परिक्रमा
निरंकुश
आयोजनाबाट
तपाइँ
सेर
##ागो
##डिटी
##र्सको
नानी
जबरा
##खे
मिडियाले
समाजसेव
जोखिमपूर्ण
बनेकी
##र्गा
हेरचाह
कट्ट
कहाँबाट
जोशीको
प्रविधिमन्त्री
खुद्रा
रेष्टुरेन्ट
इजरायल
महामारीबाट
बढीले
सगरमाथाको
अनुहारमा
लाइभ
करा
##त्रिम
दह
हुँदैनन्
पुराता
उल्लेखित
म्यास
सांगी
गरिरहँदा
डुबान
अपांगता
मुद्दालाई
मिसा
तोकिएका
मिनेटको
आराधना
##मार्फत्
पाएन
विकल्पमा
मौला
रामकुमार
##लिएका
ओगट
भ्रातृ
सुल्
##र्जनको
चाहियो
मिहिनेत
तिवारीले
नरहने
गरिन
मरेको
आरोपी
हप्ताको
प्रदीपकुमार
विधानमा
स्वरोजगार
कस्
##ाचारी
##शुराम
कपुर
रामा
##स्र्
वर्क
चीनलाई
फेड
जातका
##न्टन
##्यारा
गोलरहित
जहिले
पिएस
धर्मावलम्ब
सदस्यहरुको
##ुवाँ
स्तन
##पक्षका
##बामा
गर्दैनन्
शिक्षकले
सुदूरपश्चिममा
भ्यान
युक्र
होस
लडाकू
आधुनिकी
न्यूयोर्क
भेनेजु
##ेसनको
##सरो
घण्ट
इमेल
अंकको
##जाउ
नगरेका
छुटेका
अभिषेक
डेभलपमेन्ट
तिहाई
सांगीतिक
कास्य
फाले
सिटौलाले
गरेरै
जम्म
नमान्ने
सुनाउँदै
मेर
उल्लेखनीय
खण्डन
##ार्थ
खेप्
ढोर
प्रदेशसभाका
जसअनुसार
अध्यक्षका
पुनरा
बजारका
बुढाले
कार्यकक्ष
नियामक
तनहुँको
एक्लो
तेश
बलात्
गड
बेचबिखन
बताउँछ
यस्तोमा
विवादा
नल्या
किलोमिटरको
मानिसहरुको
स्नातकोत्तर
खेम
##ोषित
सुनेको
भृकुटी
हल्कादेखि
थोक
शर्मालाई
मन्तव्य
मेश
अहिलेसम्मकै
उपद
हटाइएको
##ब्रा
न्युयोर्क
सेकेन्ड
शताब्दी
इलेक्ट्रो
लगन
ट्राभल
दस्त
म्यानेज
लोका
वर्षमान
चम
विम
##एसम्म
##पाको
लोडसेडिङ
##डिया
खाका
##म्न
##िकोत्सव
वनस्पति
नियो
लय
आसपास
##रहेकाले
निलम्ब
गृहमन्त्रालय
##ष्टर
सोमबारको
लाइनको
लामाको
जुम्लामा
स्थिरता
निगरानीमा
प्रतिरक्षा
दमकल
##मामा
एनएम
धनुषाको
संभावना
बिन्दु
टिकटक
विही
क्षय
उभिएर
पाकिस्तानमा
भिडभाड
लगाउनुपर्ने
तेश्रो
सुख्खा
##सत्र
##लागाई
केन्द्रलाई
##ङ्की
चौकीमा
तीज
##लिस
##डिएका
प्रक्रियाबाट
##त्कृष्ट
पुर्याइएको
पार्छ
लकडाउनमा
गस्ती
प्रर्दशन
युवकको
##माटी
सिटमा
महाराष्ट्र
०७२
अमा
पेन्सन
सेल्सियस
निद्रा
कोभिडका
रुपन्देहीका
##म्र
आफन्तको
विवादास्पद
अपुग
डुबेर
माहोल
प्रेमी
कृत्रिम
##्लिस
अभियानले
साँघुरो
चाउ
##बराब
##कक्षी
मिथ
अरुले
##रिक्षक
रिसर्च
मञ्चमा
गोलकिपर
ब्राजिलमा
हावाहुरी
सिलवाल
जुनियर
##्र्तगत
नेपालीमा
देशबीचको
बैंकलाई
पर्यटनको
समकक्षी
क्षेत्रभित्र
नेताहरूलाई
पिट
तौ
प्यु
विस
थपल
समयावधि
डुंग
हटाएको
##उडमा
कुर्सी
गर्भपतन
दाबेदार
##र्ह
ग्यारेन्टी
संघीयताको
उल्टो
एटी
साक्षात्कार
प्रजन
कार्यकारिणी
माद
निरुपण
सुव
पुग्दैन
##न्दी
संक्रमितलाई
तहसम्म
##वासीले
लेखनाथ
मुक्तिनाथ
वर्षेनी
उप्रेती
पुरुषले
लक्ष्यका
श्रीमतीको
महशु
खोलेको
सोहीअनुसार
सामानको
कञ्चनपुरमा
२०६२
गएकी
एसोसिएस
ल्हो
##बराबरको
##नाउ
भैँ
रायमाझी
वक्तव्यमा
आसन्न
संग्रहालय
##निएको
##ट्जर
सम्झौताअनुसार
कार्यदलको
लापरवाही
यसअघिका
हिम्म
स्वतन्त्रताको
सार्थक
त्रसित
##ेक्स
आँकलन
आचार्यको
मिन
काण्ड
##चन्द
जोड्दै
नबिल
अलग्ग
म्याड्रिड
मतले
बितेको
पुस्तकालय
##थिका
हुनबाट
श्रीकृष्ण
मञ्जु
एक्कासी
एएफसी
टेक्
पुनर्निर्माणको
दिएन
गिरोह
शिक्षकलाई
पसिना
कोर्ट
जात्र
सच्याउन
सातदोबाटो
निष्क्रिय
यातायातको
मध्यपहा
हवाइ
जेस
विहार
संयोग
कुलमान
##ानीले
त्रिशू
दिलीप
चरणका
##न्डो
गुज्र
पक्षसँग
धरहरा
##ाही
दुग्ध
आले
##रह्यो
ट्र्या
पत्या
समयसीमा
नौलो
निमार्ण
उपदफा
##ैपर्ने
पर्सामा
सुक
फेस्ट
आयाम
##िसकेपछि
सफलताको
##मिना
महासङ्घका
##लाभ
जानकारीअनुसार
डढेलो
भुमिका
काठमाडाैं
##डिय
माइतीघर
बेरुजु
टप
श्व
##्याट
भात
लेग
विषयले
##किँदा
##डब्
बसी
जनाउने
दोहोरि
सहन
कार्कीलाई
चिन्तन
भूकम्पबाट
यन्त्र
##वृ
पुर्याएर
कैयौँ
फर्काए
किनारा
समितिबाट
##वाहिक
दशकदेखि
महाभार
अभिभावकले
खस्क
बताएपछि
##ालीमा
विवरणअनुसार
तथ्यांकले
विवाहको
भाँ
पार्टन
साथीभाइ
रहेकामा
सिग्द
याम
निर्देशनालयले
सफ
अगावै
##बारेमा
आवश्यकताअनुसार
##न्ना
कार्ट
सुरक्षाकर्मीले
##वापत
दाहाललाई
कपको
##भेल
उपमहा
बाराको
आजबाट
##नाश
बन्धक
सिन्ड
इन्जिन
##धारमा
##्रास
मुटुको
संसारका
दिनेछ
लीला
फस्ट
##तित
दिएनन्
मुख्यालय
##जिकल
##न्दर्भिक
प्रमुखलाई
तिमीले
विन
निश्
बज्राचार्य
सूत्र
निष्काश
जनादेश
बग्ने
##ून
##ेललाई
##पाटन
गणित
सिन्धुपाल्चोकको
गर्नसमेत
निर्मल
##संस्कार
जोगिन
०२
सुशान्त
खेलेर
अंकमा
नाज
स्पो
युद्धमा
छाता
सभ्यता
बुधबारदेखि
नामले
गठनका
##ढोका
बेहोस
भ्याट
महोत्तरीको
##र्डिङ
विकले
##प्न
##डेन
सेक्य
फला
##द्वारी
घाइतेको
थाह
##पथ्र्यो
बलात्कारपछि
##र्मिला
वार्ताका
सहप्र
थपिने
विजयकुमार
प्रताप
##पाठी
जीवनका
##स्टेक
एट्
आम्दानीको
प्रोड
वर्षौंदेखि
मुख्यमन्त्रीको
बनिरहेको
गिट्टी
अख्तिय
मोबाइलमा
##ियानो
डम्बर
सिक्न
जगे
इटालियन
मधेसको
##विन्दु
राजपाका
क्षमताका
आँखाको
हजारसम्म
नोबेल
इञ्जिनीय
रिपोर्टमा
मझौला
शोभा
अर्धशतक
##ग्व
असम्भव
##भिट्टा
आरम्भ
इंग्लिस
माग्दै
ग्रन्थ
##िदै
सुप
##णात्मक
जिल्लालाई
##न्छिन्
##पत्रिका
आइतबारको
आरक्षण
आशावादी
सफ्टवेयर
अस्तव्यस्त
आकलन
बापत
पम्
नपर
हजारदेखि
गरें
रियाल
इस्ट
##त्स
राज्यलाई
कमै
महार
म्याराथ
आक्रमणको
संसदले
बिरोध
बाहिरिएका
अघिदेखि
मृत्युदर
मनसाय
गराइरहेका
स्वरमा
##न्दालाई
हजारमा
निस्
##योजनको
मेक
राजदूतावास
##्वाइस
पुग्छन्
माल्दिभ्
##चले
##ञ्जना
शृ
शुक्ला
व्यवसायीहरुले
##ूको
उपर
केरुङ
टोलमा
फोट
०३
असाध्य
पोखरेललाई
आउजाउ
चापागाई
चलाएका
नसो
ठाँउ
उचा
०७३
क्वार्टर
##कप
##नीका
वाई
जंगली
जायज
ल्याउँदै
शिल्
ड्यु
रज
नित
##सकेकाले
मागलाई
##िरेट
रक्तदान
##सेक
परिपत्र
आउनेछ
हुनुभन्दा
अब्बल
##जिल्ला
##नुका
भित्
##बोल
साधनमा
गुरुङलाई
वार्षिकोत्सव
##दिएपछि
भूमिस
बसाइ
लेखाप
भास
बिन्दुमा
संग्र
समीकरण
स्टाफ
पन
कमि
ठाडो
पकाउने
कदर
गुमाए
खुकुरी
सम्हालेका
त्रिपाठीले
##बजारमा
धुर्
##पक्व
एल्ब
सुक्खा
नपुग्ने
थापाका
सोन
##ोत्तम
मकवानपुरको
##ेनिङ
ढल्क
ननि
अनुवाद
होटलको
अश्
पक्षीय
छलफलको
सिरहाको
चट्ट
##ालाल
बैठकलाई
निशुल्क
जितको
तिर्
महालक्ष्मी
भेल
सोच्न
राजीव
सोधे
म्याग्दीको
कारबाहीका
शब्दमा
माडी
अनेरास्ववियु
मास
महान्यायाधिवक्ता
इन्स्टिच्यु
बिषय
एक्सन
म्यानपावर
##ौलाको
##सकिएको
लैजाँ
##चुली
बिह
जोड्दा
साविकको
एशोसिए
सेवास
उद्धारका
२०४६
चाहेका
गुप्ता
गान्धी
दाङका
चालकले
काँधमा
उडानमा
कतारमा
भाट
हटेको
ल्याइएका
विष्फोट
##पंक्ति
कात्तिकमा
उजागर
आन्दोलित
जफत
महानगरका
शाखामा
अन्योलमा
सरह
विभाजनको
प्रभावकार
सम्भवतः
##ेरिया
कामी
एकदिन
र्
भित्रिएका
परित
हामीकहाँ
##ोलि
थियाे
सीडी
जिम्बा
सुदूरपश्चिमका
अनुमा
छोड्न
##इट
##म्शेर
आत्मघाती
टेकेर
अनलाइनखबरसँग
लगेका
प्रभावले
फड्
##विचार
परेन
पाण्डेको
वीरबहादुर
सम्पत्तिको
स्टेशन
केन्द्रीत
मिडफिल्डर
पलायन
फिल्मका
भेगका
महान्
घोषण
सिक्क
बिक्रीदर
मग
घन्टामा
प्रतिगमन
धके
ऐनले
भइरहँदा
##ध्व
##ष्टी
सिंग
तथापि
##सनले
नजिकबाट
रुपमै
यसबारेमा
##षि
दुल
भएदेखि
लिन्छ
भित्रको
समानान्तर
शिक्षाका
रौतहटको
लाखमा
निकुञ्जको
पूजाआ
आउनुभएको
##तीका
मिसन
बायाँ
होमस्टे
उतै
बढा
##हले
सूचनाका
पाइपलाइन
मुकेश
सिक्किम
चलाएर
वरिय
विषम
रिचार्ज
स्वामित्वमा
पचास
दिक्त
##धिन
सङ्क्रमणका
##वेल
व्यवस्थाले
आपतकालीन
अनुपा
##जीलाई
राखेपछि
##्याएका
नेतृत्वका
चेम्बर
नक्
गरिरहेकी
##डासै
सुशीला
##स्का
##बर्ग
##नुपर्थ्यो
रक्स
आइसोलेशन
जिम्मेवारीमा
गाउँबाट
पख
##स्र्था
सभापतिका
उन्नत
नेपालसहित
##चोकमा
प्रतीक
भान
बाइडेनले
बलको
माता
संस्थाबाट
ट्र्याक
पुनर्गठन
सिधा
परिमाणमा
पुडासै
याे
लेख्दै
सेक्युर
किनेको
देखाए
समाजसेवी
बोध
हिँडेर
सर्वोत्कृष्ट
कलंकी
खसेर
सिन्
जनसम्पर्क
भन्थे
टुक्रा
धै
##ओपी
गर्नाले
##म्पा
दब
ब्युरो
##नुपर्दैन
प्रणालीबाट
मध्यपहाडी
##ाधिकार
गरिएपछि
बर्ख
##फाँटा
डाइभ
##कर्ताको
##राजा
नपर्
शाहीको
प्रविधिमा
शीर्षक
मालिका
क्यापिटल
पल्
त्रैमासमा
रङ्गशाला
खोजेर
सुर्खेतका
##ँद
रुम
ग्वा
पहिरोका
जाल
बचाउने
##शय
व्यवस्थाका
थर
##तिहाइ
सन्तोषजनक
मेलम्चीको
फस्
रिया
मधेसका
व्यवहारिक
नगरपालिकालाई
गतिलो
पूर्ति
##ठाउँमा
घिसिङले
प्रतिवाद
##बोध
खुश
तिलो
राप्रपाका
##इओ
जनामध्ये
दातृ
ट्वीटर
##लागिरि
आतङ्क
##रहन
लेखकले
##पनामा
अँध्य
##पञ्च
हुनासाथ
टेबल
चौलागाई
मच्
सोलार
सुत्ने
राजधानीका
पुनस्र्था
अलैँ
मुसल
उमेदवार
संविधानलाई
अचेल
वाह
##जनले
प्रतीक्षा
मुद्धा
संस्करणमा
हितका
पुर्याए
##िस्तान
जनसंख्याको
नवनिर्वाचित
अग्निप्रसाद
##टालाई
बनिसकेको
छोड्ने
नरोक
पोर्चुगल
मठ
भोली
सोधेको
बाँडफाँट
##लेश
तमा
##नेश्व
लोकेन्द्र
सीईओ
साम्य
चितवनले
लाखसम्म
गाविसमा
उभिएका
##नेल
जुट्न
थन्क
कक्षाको
सुकुम्बासी
बस्छन्
आएमा
वास्ता
पुलमा
संवत्
दिपेन्द्र
गहन
##खमा
##तल
##खेत
बैतडीको
गहना
##दिम
अनुभवी
##ेन्सको
राजाको
नीतिले
लज्
मन्त्रीलाई
दर्जनभन्दा
मानन्धरले
##ाग्लाइ
कूटनीति
११०
##पाली
##लाङ
पढ्दा
कलेजो
क्रेडिट
बिहानको
बजारी
पन्जा
स्वास्थ्यचौकी
महीनामा
##लीका
उदयपुरको
##हरूबीच
##्र्य
शिर्ष
त्यतिखेर
साइन्स
डेंगु
नागरिकताको
निकायसँग
सम्झनामा
##्यारी
राजकीय
सागमा
क्यू
शुभेच्छ
नेप्स
उत्रिएको
गोपनीय
सहाय
स्वीकार्य
मच्छिन्द्र
अबेर
देखिन्थ्यो
त्रिपुरेश्वर
बनेपा
सभालाई
इतिहासको
बिहीबारदेखि
थप्न
बूढी
समि
खेलिरहेको
ओमिक
##खाने
उल्लङ्
मानसिकता
अल्झ
सोझो
##गि
##ष्णा
शान
धरौ
मजदूर
मतदानमा
राजनीतिज्ञ
जोगा
समर्
##क्नुपर्ने
श्रीलङ्का
पिसाब
विपद
जोडिने
##सिल
पु¥याएको
परियोजनामा
एस्ट
एकतालाई
तस्कर
सिड्
महोत्सवको
नआउँदा
वचन
पाखा
##ईन्
उजु
रकममा
बैतडीका
उनीसँगै
पड्
माछ
अडियो
##बहादुरले
पुरुषोत्तम
पढ्दै
तेक्वान्दो
छँदै
साधनलाई
##वासीलाई
##ेरापी
फ्रान्सेली
शुद्धीकरण
##िङका
##वासीको
##चनले
लागेन
प्रतिस्पर्धात्मक
पाएकी
##ोटि
मिलाएको
हव
##भिङ
भेट्ने
कर्मचारीहरु
हिम्मत
दही
भड्
##दछन्
निर्दोष
व्यक्तिहरुको
सूर्यविनायक
मानन्धर
तिलोत्त
##धिकृत
खोकी
भत्किएको
वनको
आउनुपर्ने
कागजपत्र
ठोक्क
राश
सुदृढी
कारोबारको
बाघको
बाल्य
##चिलो
सुदुर
घिमिरेको
साइन
##सरह
धावनमा
नाराका
##सेठ
फैलाउने
##तुन
चपेट
अशक्त
बिशेष
शङ्का
##मसो
सकस
विवरणमा
तिथि
रहेकोछ
मम
दिन्छु
##भास
दबाव
जावलाखेल
लिभरपुलले
सुध
घरधुरी
गुमाउनु
लाह
##धनीले
##बस्त
##मन्द
००
##वरीमा
अन्व
वकाल
मनिष
##किम
खानाको
स्र
अवस्थ
रुपैयाँका
अर्डर
रेल्वे
धावनमार्ग
##वेदना
ढंगबाट
दिमाग
##द्री
भण्डार
खनालको
महिने
महासेठ
##विकोपा
लाग्नेछ
मुर
प्रतिनिधिको
समर्पित
वैवाहिक
ओसा
खप्त
##मोचन
##नेपछि
##डेरी
छाड्
##स्तरका
सङ्कल
संगीतकार
मार्क्स
उहाँहरूले
एसई
मार्गमा
##द्दी
एनस
अर्कालाई
##ुदेव
पाउँदैनन्
##क्ज
10
##डुल
जनप्रतिनिधिको
##ेटमा
कानुनमा
प्रदिप
हरिप्रसाद
एसोसिएसन
##डोल
गल्फ
बाजा
अगाडिको
मन्त्रिमण्ड
प्रतिबन्धित
कार्वा
बढ्नेछ
पूर्णबहादुर
स्टल
अस्वस्थ
हमालले
बढाउँछ
##बीमा
ल्यापट
##स्तिका
कम्प्लेक्स
माझी
उपमहानगरपालिकाले
##बत्ती
महशुस
सूर्योदय
गाइड
गोल्डकप
युवतीको
धैर्य
आन्दोलनले
प्लाष्टिक
सकिरहेको
जोर्ड
##ूलक
जिम
घट्न
भाइरसले
##्र्ड
बलिउडमा
समस्याबाट
पक्षबीच
दाता
मछिन्द्र
खुमल
कन्ट्रोल
मुख्यसचिव
##हरुबीच
मोडेल
##क्सिङ
निकुञ्जमा
सर्भे
गन्ध
८००
तिमिल्सिनाले
प्यू
##न्ध्र
माउन्ट
व्यवस्थाअनुसार
हरिक
आर्मीका
पत्रपत्रिका
मेस्सीले
तले
बिगो
साथीहरू
##र्जिल
निर्देशनालयका
##बलमा
उपलव
पर्साको
##ठनिक
लकडाउनले
असाध्यै
मेघग
राजि
जोमसो
वैठक
७००
प्रगतिशील
##प्ताहिक
कांग्रेसबाट
मलको
प्रेमिका
तोकेर
हिसा
कच्ची
नजा
प्रम
हावी
कष्टकर
पूर्वतय
पाँचौँ
भट्टराईलाई
मनका
शिल
तुम्बा
टोप
पाठ्यपुस्त
जेभ
बहाना
परमादेश
##हरुमध्ये
होस्ट
तामाङलाई
##सीन
मुकुन्द
ब्लक
ऋणपत्र
##िराम
##विय
आशंकामा
त्रियु
बहुमुखी
साहको
महंगो
स्टो
चल्दै
ग्रह
मेघगर्जन
जान्न
सेवाबाट
एकदम
मेस्सी
आठौँ
##सिएको
##उदै
##्याए
योगेन्द्र
संरक्षक
आलम
सहभागितामा
आधुनिकीकरण
वो
सुह
माछापु
##तिले
##ँस
प्रतिष्ठित
दिइनेछ
रहनुभएका
##णको
बुधबारको
उपनिर्वाचन
चल्छ
अलम
उपसमूह
नवलपरासीको
##दिक
##क्षीय
##त्ताको
खेलिरहेका
रूपमै
अर्कातिर
प्रजातिका
उपल्लो
फोरमका
आवि
पौडेलका
लामखुट्ट
##ैपर्छ
##ओटा
चर्का
कंग
चिने
##कालदेखि
व्यवसायलाई
सुमधुर
इञ्चार्ज
अपेक्षित
दृष्टिकोणले
बिछ
उपे
निर्वाचनलाई
राहतको
पिछ
औजार
अरूलाई
स्वास्थ्यकर्मीलाई
##खोलामा
जलेश्वर
सङ्घको
##्थे
##ब्रो
क्यामरा
शाखाको
एन्ज
बाँधेर
##सिप
छँदा
मण्डलले
आईत
मर्यादित
गुमाउनेको
टेक्नो
झुक
प्रोफ
दमौली
##ागाउँ
चलाइएको
##त्तो
इतर
##ढाव
##इसकेका
सेक्स
संघमा
रोयल
##ः४
साप्ताहिक
दर्शकलाई
बस्तीका
भारतबीच
त्रियुगा
बय
गर्नुभन्दा
पठाइने
पश्चिममा
शुक्रराज
राष्ट्रसङ्घ
धरानमा
बृद्ध
कार्यका
सिमकोट
नपाउँदै
##न्ते
गरिएकाले
आयक
##लिखित
वर्षिय
##पसमा
रोमाञ्च
प्रान्तमा
##होस
##याे
ताज
बिक्रि
बबई
फुकुवा
##भरा
बदनाम
एथ्ले
भारततर्फ
नारायणप्रसाद
बिड
विहीबार
अमेरिकन
जिन्दग
नपरोस्
##पटी
##िकर
हुर्का
रित्
व्यवसायको
आफनो
##ेलगत्तै
ओछ
हरु
##्याई
लागिपरेको
##लामिक
##डु
पर्वमा
##ङ्ग्रा
##वाकां
बृ
शाहरुख
दिवा
विनय
वेबसाइट
विषयका
सरसफाई
उप्रेतीले
बजेपछि
तेजबहादुर
हिजोको
रामपुर
पुष्पा
दिनलाई
फ्रिज
डरलाग्दो
भएलगत्तै
##नीत
चलान
भएकालाई
शब्दको
डोरी
बिगा
##रभ
निरुत्साहित
##वीच
बलात्कारको
कामदारले
राप्रपाले
हट्
क्लिन
सडकलाई
कन्टेनर
शिवराज
आरडिटी
मुद्दाका
सोसल
##जिम्म
बसको
अपडेट
राजनीतिलाई
अंकका
दिलाउने
##ूँ
अर्घाखाँची
##सिफिक
निषेधाज्ञाको
कलम
महिनाका
चढ्ने
##सिया
उम्मेदवारलाई
##ेना
विभागलाई
महेन्द्रबहादुर
कुराहरू
टोटन
बाग्मती
##इने
दौडमा
राजवंशी
गौरा
नहुँदै
##एनए
पोष्टमार्ट
शीघ्र
प्याराग्लाइ
घोर
##खुसी
हेमन्त
##ङ्गिक
विधिको
जस्तोसुकै
इजि
हरियाली
अन्तर्गतका
कृषकले
बनाइरहेको
##नसकेको
बिउ
##ुत
स्टाट
पहुँचमा
हत्यारा
भनेजस्तो
राष्ट्रसंघीय
डेलिभ
फाट
ऐरी
स्टेसन
गइसकेको
##म्मर
बोर्डमा
स्तब्ध
धरौटीमा
नंको
त्रिप
तँ
स्वास्थ्यकर्मीले
झुन्ड
दुरु
प्रिन्
##जनाको
रान
बिदाइ
अलोक
##तारो
कारक
हाराहारी
नक्स
कोड
नियन्त्रक
पत्रकारले
वकालत
नाइज
धनुषाका
जनआन्दोलन
##अघिसम्म
ज्वा
##द्धारा
साउद
चलचित्रका
च्याम्पियनसिपमा
सर्प
##खान
##ंगे
नाम्
डब्लुएचओ
स्पिनर
पुतली
युवतीलाई
##डाँडामा
मिठ
खिम
स्याहार
खाल्डो
घटाएर
पार्दा
दोहा
##त्वको
अवैधानिक
विद्
##ेडी
पुनरावेदन
दंग
बेथ
##वाज
स्ट्राइकर
राष्ट्रसंघको
साइड
बिजुलीको
रात्र
चलाउँदै
एटिएम
दोहन
कास्कीका
अनुचित
चल्यो
नछा
ब्वाइ
तथ्यांकमा
बर्दिवास
खानको
धुन
राजाले
सदस्यहरूले
प्याज
सुनुवार
बाद
विपत्ति
हस्पिटल
##ङ्स
मोरङमा
रेडक्रस
फर्किएपछि
पन्थ
##अन्तर्गतका
तटीय
##निकल
मैनालीले
त्रिशूली
पछ्याएको
बीबीसीले
##भरमा
##ल्दार
उपमहासचिव
धर्
फोरजी
मरा
नउठ
म्याग
डलरमा
अघिसम्म
वास्तविकता
##्याक्स
कामकार
##न्डी
पुस्ताले
हले
आकाशमा
पासवान
सहजता
##नगरमा
मनाउँदै
अङ्कले
##ियौं
पेटमा
##बाङ
पुरुषलाई
##हिद
डान्स
क्रोएस
प्रक्रियाको
बढाए
बहसमा
अत्तर
खस्दा
जयन
सञ्जी
थपेको
दिइन्छ
दर्जा
प्रयोगले
खड्कालाई
ज्यादै
वृक्ष
शिक्षामन्त्री
च्यान
कार्वाही
पारदर्श
प्याकुर
##टेक
सार्वभौम
##साको
चन्द्रागिरि
तान्ने
सुनील
विचारमा
मत्
छोडेको
न्यूनीकरणका
उब्ज
आहार
##१५
क्रु
अक्षय
निकुञ्जका
मन्त्रालयसँग
फड्को
पकड
एसएलसी
##नास
परिषदको
स्यानिटाइजर
##ियान
सरकारविरुद्ध
##स्ति
सयको
शेयरधनी
विमानमा
लालबहादुर
परित्याग
##बिज
फेरब
स्वयम्
प्रोत्साहित
##न्दुले
उपलब्धी
वीपी
योजनालाई
##सां
इञ्जि
शिष्ट
रिपोर्टर्स
नाथ
निरौलाले
परिवारसँग
##भत्ता
मिनी
समाजिक
भूत
मारिएको
एसएमएस
सान्
एट्लेटिको
ललि
गोर्ख
कलाकारले
व्यक्तिहरू
##चेको
संशोधनका
अगष्ट
पालिकामा
बाउ
बासिन्दालाई
अभ्यासमा
अल्पसंख्यक
##20
हातले
अंकित
संकटा
कथामा
टिपर
##िकाले
##लम
घृ
##ओले
मतको
बैंकहरुले
डेब्यू
सुशास
द्वितीय
राजपाले
नजिकका
दिवसीय
झल्क
मुहार
##घार
हिल्
इमिरेट
##फिल्ड
पछिल्लोपटक
विकासलाई
लयमा
ढिलासु
गिरफ्तार
देशभित्र
दिपायल
##डौं
गतेभित्र
डट
खेलाडीहरु
##त्ने
##ाउँदो
मुसहर
मरेका
त्यत्तिकै
उल
लोकमान
कनेक्ट
जमीन
बदला
अपराज
पारिएका
थपेर
पर्यावरण
कोदो
दिक्तेल
##ालाले
गरीब
कार्यलय
शुक्रबारको
मतदाताले
##लासी
महामारीमा
बाहिरको
##णाम
बाइडेन
तिहारमा
दोस्रोपटक
पौड
गुजारा
नगरका
अवधारण
हिंसाका
वर्षाय
महिन
साह्रै
संरक्षणको
ओझेलमा
##दीले
##कर्षमा
##िमिटर
पोशाक
##वानको
जिल्लास्थित
तरकारीको
लक
वाचन
काज
लगत
बालबालिकाले
विश्वमै
अढ
##डाका
ब्याट्री
चिट
हुनका
##म्बना
कोलकाता
##पीए
सिलवालले
##क्छ
हुनुभयो
सातौँ
ग्रिन
##हुन
लैजा
सदै
अपराधमा
बिल्
##ङ्खला
##श्रा
परेमा
ब्याड
बुढाथोकीले
मानिसहरुलाई
दया
पूर्वमाओवादी
इस्लामिक
##ोग्रा
वृद्धा
भइरहेकाले
गणतन्त्रको
लिनका
स्याट
सम्बन्धका
छाती
कानूनको
##िमेट
सामुहिक
भट्टको
अनुदानको
बाधक
लैंगिक
गर्छौँ
धर्मको
हिउँदमा
भृकुटीमण्ड
##न्सले
मन्त्रिपरिषद्मा
उक्
इटह
फलो
मादक
शरीरका
##्रय
तोक्न
एअर
चुनावका
ब्रे
शेरधन
राजिनामा
गान्ध
सुचना
बुझाइएको
सेक्युरिटी
राध
बिहानदेखि
सलह
परिचालित
उडेको
जस्ताको
##एमसी
शृंखला
भागेर
विवादले
ग्यासको
नम्वर
रञ्जित
विषयक
##उँथे
न्यायाधीशको
सदस्यसचिव
बन्देज
डिपिआर
एडी
##ष्म
प्रत्याभूति
निर्णयबाट
##दशी
गरु
चाहन्छौं
छाक
पार्ट
सेके
एयरलाइन्सको
युद्धको
महासङ्घले
##डिएको
दार्जिल
बुझाई
हात्तीको
डबल
##ाइनको
सीधै
राख्छन्
जनतासँग
दीक्षित
##सिन
अनुगमनमा
विनिमय
बाझ
श्रद्धाञ्जली
गिरिराज
दिव
चौडाइ
बुद्धको
वायुको
##स्केट
हातबाट
आइपुग्ने
बाग्लुङ
##मोल
तिब्र
फैलन
तिला
युवाहरु
महिनामै
उहाँहरू
मौरी
ओमप्रकाश
##्ठा
बुझ्दै
साक्षी
त्यहि
जेट
पोखे
धकेल
टहरा
सिमरा
कर्णालीको
बाटोमै
केसीका
जमिनको
मंगलबारको
नछ
##रिफ
हिना
##कित
गराएपछि
फिज
बुझ्नु
पिल
माछापुच्छ
खेतीमा
निरौला
अमिता
बञ्चित
बंगलादेशको
निन्दा
मूल्यको
बिकास
चलचित्रले
मनोविज्ञान
##भयो
महाधिवेशनका
सन्दिप
हातह
इन्डिया
चौमा
दुव्र्यवहार
बोका
बैतडीमा
युभेन्
अपराजित
इश
रमण
साउनदेखि
साबित
##वैज्ञानिक
मामा
##स्वी
एनआई
राजस्थान
राष्ट्रले
वक्ता
बालाजु
अस्वा
कान्छी
पूर्वपश्चिम
सुरक्षाकर्मीको
राउण्ड
थेग
निक्कै
छाँ
ल्याउँछ
इन्धनको
कर्मचारीका
प्रवेशमा
पोसा
गैरजिम्म
मेन
जितका
ट्रेक
अर्जेन्टिना
कान्छा
ईलाका
लास
कर्णले
##बिन्दु
आएसँगै
बंगलादेशमा
उहाँहरुको
##ूर्त
स्वयम्भ
उन्मुक्ति
कतिले
कडाई
आतंकवादी
##श्मी
मोती
फूलको
उत्प्रेर
##हाल्ने
खुवाउन
अनुपातमा
##एकै
पाउनेछ
##अधिका
बस्नेतको
सहयोगले
चेल्सीले
किंग
प्रयोगका
जापानले
अनुसन्धानले
लडाई
बगर
##हिल
परिव
शुरुवात
माले
युगमा
सत्याग्र
##ीया
प्रतिष्ठा
खेलकुदमा
##्रल
नआएपछि
नदिँदा
डीपीआर
टेलिकमको
चतु
लेखराज
जिताउन
##ायती
नागरिकसँग
इन्दि
जीवन्त
शास्त्रीय
गुला
स्वदेशमै
लुटपाट
##चोटि
##रातमा
सुर्खेतको
विद्यार्थीका
डेभिड
अल्पमतमा
गोरखाको
हरित
महत्वको
पाउँदै
अलावा
बेहु
##पार्
लम्बाइ
एनसेलले
चिनिने
कोइरालालाई
फैलिने
लाइट
वाइडबडी
उभिएको
##पदार्थ
सक्छौँ
चित्रण
समाजवादको
पुस्ताका
मिचेर
गुफा
अमेरिकालाई
बारीमा
पर्सन
खोलिएको
दाँत
माटोको
ढोरपाटन
कृषकलाई
##प्रदेश
डीआईजी
होईन
सदरमुकाममा
संका
मोर्चाको
चाहा
प्रशासक
एकले
जतिबेला
लेखे
अपनाउने
##लाउन
##कासि
सुनिता
चौडा
##हीं
हातहतियार
देखी
उपमहानगरपालिकाका
आंशिकदेखि
पटकसम्म
विराटनगरको
##जू
सेनिट
रोजेको
सिमानामा
विषेश
घण्टासम्म
खरा
##हक
खेलमै
आरडी
त्रैमासिक
##िकाको
विद्यार्थीहरु
सिराहा
##गोठ
##मौ
हालेको
##ोदर
कोषबाट
बन्नेछ
उल्लङ्घन
##वसहित
तिर्नु
नगरसभा
कन्ट्याक्ट
बिजनेस
बाहुल्य
मोति
धन्दा
सम्प्रेषण
पुर्पक्षका
ओबामा
देखे
बजेबाट
तिहारको
समेट्ने
अयोध्या
आइसीसी
माक्र
##कुट
##वक
##यौ
एक्सच
लाने
पप
हिरा
मृत्युपछि
सहरको
रगतको
##राली
२००६
एप्
डिआइजी
आफैंमा
##पट्टि
गाउन
आति
##ितालाई
अस्वाभाविक
चपेटामा
मोक्त
इन्स्टाग्र
उद्घाट
बाढीका
##दित्य
बाढीको
##राएको
योगदानको
बिरामीका
ब्यवसाय
क्वाल
देवता
बिन
रेणु
अन्त्यका
राष्ट्रपतिबाट
सार्वभौमस
परिर्व
निष्काशन
वेबसाइटमा
##र्वाद
चढेको
मियाँ
आशङ्का
प्रदर्शनका
##आरआई
आरक्ष
रानीपोखरी
निस्किएको
##न्छी
##बाल
लगानीकर्ताको
बिहीबारको
प्रदर्शनीमा
वितर
प्रिन्ट
कार्ग
सुलभ
भूकम्पका
धादिङको
सडकखण्डमा
राउन्ड
ही
##हारा
चलाउँदा
महिलाहरू
हैसियतले
ह्यु
बंगलादेशले
बताउछन्
बजेका
जीवनलाई
उपज
उडा
गतेका
एकमु
लालपुर्जा
फ्रान्समा
गौरवका
क्वालि
छोराले
डकु
२०६५
टार्न
लिइरहेका
टेकबहादुर
गुम्बा
##कडभिट्टा
पम्फा
हिंसाको
उदाहरणका
खेललाई
फर्निचर
पूजाआजा
ब्लड
##तथ्य
१३२
डिफेन्डर
पुरातात्विक
##१०
जसपाको
बगाएर
सेलि
##कालका
##कप्त
भीमसेन
कर्पोरेट
खल्
मर्कामा
नदिएपछि
जनगण
झै
कपमा
पानीका
राष्ट्रियसभामा
##टारमा
जनवाद
बदलि
विद्यार्थीहरुले
प्रशं
##स्दै
##कालको
बालबालिकामा
ओर्ल
कोरि
प्राधिकरणलाई
ट्रेडिङ
हानेर
रचनात्मक
##डार
सांसदहरू
लगातारको
बाँडफाँड
दस्तुर
पदाधिकारीलाई
कन्सल्ट
मर्स्या
शुक्लाफाँटा
बाइक
जितेकी
वैध
कार्यक्षेत्र
पुल्
##ंको
आइसोलेशनमा
खन्ने
##रीक
मंग
अध्यक्षता
कोरियाका
एकेडेम
संक्षिप्त
हेलम्बु
असहयोग
##बापतको
जबसम्म
भनिरहेका
दिल्लीको
शिशुको
नराख्ने
जसबाट
मिलेमतोमा
संरक्षित
डिन
##थरी
सुरुदेखि
एलि
अर्की
मान्दैन
सान्दर्भिक
मज्
##मन्ड
##दिन्छु
इङ्ल्यान्ड
बाथ
एकान्त
राकेश
भावुक
मुसलमान
कयौं
खेतीयोग्य
##द्र्धन
स्वयंसेवक
##हना
अस्पतालमै
लेखेकी
मेशिन
हुनुमा
फिदिम
ब्रिटिस
##पिच्छे
मागेर
डिपो
झैँ
गल्ली
##ेय
तत्पर
विच्छेद
पुनर्निर्माणका
##नुपर्नेमा
##बिच
तिलोत्तमा
##सिम
आशय
यूरो
सिक्ने
सदैव
##रणीय
##राइज
रिफर
सोको
बेलायतका
अटेर
पशुपालन
हुनेले
ठ्या
##भान
चौपा
किटानी
अन्सारी
चेपाङ
अधिकारीहरु
बेरोजगारी
जीविकोपा
११४
##सञ्चार
##शान्ति
चलिरहेका
ब्युँ
नदीले
गुनासा
झिका
सरकारबीच
भातृ
अन्त्ये
##सक्दो
पदपूर्ति
गजल
बेलैमा
राजसंस्था
मापदण्डको
साँचो
गाभ
चाँगुन
खटाइएको
बेहोरेको
ब्रु
अयोग्य
शिवाको
स्प्र
केटाकेटी
##साथै
भेनेजुए
प्रयोगकर्ताले
घुम्ती
टोपी
संस्थानले
तद
यती
साम्राज्य
चन्दन
ट्वीटरमा
भेटिएपछि
प्रभावकारिता
गर्नुपर्दछ
गर्नमा
सुरुमै
बेडको
एडि
##ण्टा
उपनेता
शाहीलाई
२०६७
डंगोल
जातिको
तालिबानले
रिक्सा
सप्तरीमा
बखत
बग्
रसि
धुवाँ
पुरातत्व
वैदिक
म्यानेजमेन्ट
जनमोर्चा
पाठे
सच्च
##मरी
रित
कोर्स
ताकेता
##म्व
सत्रमा
खुट्टामा
श्रीराम
निवेदक
परिभाष
जग्ग
बसेकी
नोक
नर्भिक
उत्ख
पार्यो
पछिको
बिर्तामोड
##च्यु
सोभ
रातिदेखि
##पेक्टर
इराक
फिल्मलाई
अहिलेसम्मको
दशमलब
विश्राम
जुटाउने
सत्यतथ्य
गीतकार
हेरि
मेडिस
रिमाल
एटीएम
ऐक्य
##हाल्यो
बहिस्कार
प्वा
सोध्ने
रुपन्देहीमा
ह्वि
स्विकार
आव्
प्रशासनलाई
मानेको
##गायतका
##रपेक्ष
प्यासिफिक
घरबाहिर
अभिभावकको
गोल्डेन
ढुंगानाले
मनोवैज्ञानिक
समयअनुसार
हराउन
लक्ष्यमा
उडानका
नविन
२०३०
जोको
रासस
धुर्मु
पुष्पलाल
##ल्ले
लम्सालले
नाप
कम्पनीहरूले
लिइने
फण्ड
##तम्
एकाउ
छिटै
पुस्तकको
अग्रिम
##हम
##ागर्दै
वल्र्ड
जतात
गाउने
माध्यमले
कलैया
##रहनुभएको
लत्ता
छट
##पत्
भन्दैमा
प्यालेस
चाँगुनारायण
शक्तिले
चले
स्का
विनियोजित
घि
राजपत्रमा
##ेप्या
##टिभ
##लीलाई
##ियोग्रा
उठाए
नहोला
##्नुभयो
दुइटा
दत्त
निर्वाचनबाट
##हेलना
भावनात्मक
ड्रा
अपनाएको
क्षेप्या
##विड
भइसकेकाले
कू
छिन
नियुक्तिको
##ियोस्
साँझसम्म
भारतसँगको
अनमोल
१९९०
स्वस्थ्य
धुने
पूर्वमा
निर्वाचनपछि
इज्
इन्टरनेटको
बर्दिबास
गरिनुपर्छ
रेखदेख
##रोधात्मक
रोगले
क्षयरोग
मिलान
तिरेको
कसैसँग
कदमको
वाचा
दाग
हालत
जताततै
कुरु
फर्किएर
हुँदैछन्
सुनाउँछन्
नबो
श्य
ठान
आजभ
एक्कासि
नियुक्तिका
प्रालिका
धर्मनि
ब्ल्याक
शिर
हजारका
अवधिसम्म
फ्रेन्च
गोष्ठी
ताइवान
संसारको
संविधानसभामा
देशभरि
##पीएल
सीतार
हरिबहादुर
तारिखमा
जतिसुकै
लिक
क्षेप्यास्त्र
षड
भागेका
काठको
गरोस्
उम्
##आज
द्र
समातेर
##हरुमाथि
फ्रान्सको
भोगेको
उत्तरदायी
जवाफदेही
सकेमा
##सनमा
##योजनमा
सिन्डिकेट
पुजारी
व्यक्तिहरुलाई
कल्याणकारी
निकाले
सातासम्म
पत्रिकामा
रत्नपार्क
नजिकिँदै
दलहरुको
युनाइटेडले
अहमद
ट्रेसिङ
तिम्
त्रिपाल
दिलिप
उछि
नपुग्दै
प्रेमबहादुर
एमए
टाइम्
प्रतिष्पर्धा
खबरदारी
चाहँदैन
##तान
विप्रेषण
##ँगा
अलआउट
इलामको
उल्ट
उतारच
यत्रो
फाई
प्रजापति
पूँजीगत
पश्चिमाञ्चल
##ितामा
##उँदो
प्रवन्ध
बिक्रेता
##डाम
अन्तर्
शङ्कर
##ाउँथे
##ाउदै
##्सले
झोलु
निक्षे
जडि
धाँ
जोमसोम
बोलाइ
महिलामाथि
##्याउनु
रौतहटका
परामर्शदाता
गरिसकिएको
##जीपी
आर्क
गुरू
महिलातर्फ
विमानस्थलका
नलिई
वर्षमै
प्रान्तको
##ंग्य
आडमा
फायर
अन्वेषण
महिलासहित
##Œव
खुलेपछि
एकजनाको
श्रमिकलाई
नाला
##बुबा
मनपरी
सेवाग्राहीले
अनुमानित
जतिसक्दो
करदाता
भीर
समाजवादीका
संसो
सरकारकै
##बोका
नर्व
कुम्भ
लेखिएका
मार्स
इरानी
घडी
सहकर्मी
मौख
हास्य
यश
लिइन्छ
अर्ग
आफूहरूलाई
कोइला
काठमाडौँका
##्रान्त
निशान
बोक्न
करु
दाहसंस्कार
विधेयकलाई
##प्च
छोड्
पिच
गर्छौ
जर्न
बेद
हिमालको
गोपी
##वाका
सञ्चारमन्त्री
##ूष
राष्ट्रलाई
नयाँद
दुःखद
पहेँ
बेन
##र्दी
ऊर्ज
निर्माणलाई
रोमाञ्चक
आसपासमा
देशैभर
सबैसँग
तवरले
मङ्गलवार
कुश्मा
##ज्मा
भुक्तान
सम्बोध
आपत्
गर्दे
सुनाएका
बाँझो
आव्हान
जित्दै
ग्ला
जुम्लाको
##हरूमध्ये
विरोधका
सञ्जालमार्फत
कोराना
##हस
दशौं
मार्चमा
क्रान्तिको
कानुनमन्त्री
यसमध्ये
कमिट
ननिस्क
सुति
साहित्यमा
बहुमतले
स्ववियु
मिल्न
क्यालि
पुनको
कीर्तिमा
गाउँघरमा
हातपात
भविष्यको
आन्द्र
मीना
##क्रान्त
##भाई
सप्तरीका
##प्पु
हलि
परशुराम
म्याक्स
सकिन्थ्यो
##कप्तान
##गाढ
मतभेद
लमही
गाउँगाउँमा
##बन्दीले
सिंहलाई
मकवानपुरका
स्टेडियममा
##निकरण
जानेको
फू
भोकै
आदित्य
गाविसका
मस्यौदामा
कर्फ
डकुमेन्ट
छेड
टीम
भूमिहीन
आगलागीबाट
डिसेम्बरमा
खप्तड
अङ्ग्र
क्याट
छापिएको
ल्यापटप
दलसँग
क्याप्ट
छिमेक
हुवा
सिध्या
फुड
##िस्त
प्रख्यात
बलराम
सीमानाका
पञ्चा
दूधको
##मन्दिर
जमेको
नेताबीच
जनाउन
बेस्ट
सेल्फ
ठम
ह्रास
स्वर्गीय
चौमासिक
अन्र्तगत
फ्रन्ट
बिग्रिएको
खाल्
स्त्री
बिम
श्रीमतीलाई
नदीजन्य
शिक्षालाई
काका
मार्फत्
##सम्मत
रातभर
असन्त
##ध्वज
परिपक्व
छुटेको
ट्विटर
##जात्रा
कम्पनीहरुले
कसुरमा
##वस्थामा
दिनभित्रै
कमाण्ड
##नजिकै
रुपैं
मतलब
गरिन्थ्यो
भित्रका
मौखिक
तरंग
पाँचख
##बिक
पुण्य
ट्यांकर
बिदामा
धर्मनिरपेक्ष
##हट
##दुई
फोकल
रहेपनि
बीस
फाइबर
##क्दै
कथित
लोगो
सिप
बलिदान
ल्याएपछि
नाताले
उत्पादनलाई
देखिनु
विधानको
कालोसू
सिइओ
उठाइ
साहलाई
झडपमा
सनराइज
आफूहरूको
अग्रणी
वृद्धिको
नागरिकमा
सद्भावना
कार्यदि
##ंकित
नोभेम्बरमा
बेलाबेलामा
सर्लाहीको
षडयन्त्र
पर्वका
२००४
अत
फेरबदल
रोकिने
सिकाउने
##र्नी
कश्म
नेपालीका
भुष
पुनस्र्थापना
मर्न
गृहमा
सिरिजमा
विक्रेता
निध
##विद
##ेसनका
निकटतम
भाग्न
विश्वासमा
कोपा
कालीकोट
ज्यालादारी
##ालीको
##एफए
सम्पदाको
वय
उत्खनन्
##उपर
गर्दागर्दै
इन्दिरा
##बीका
##निर्देश
भ्वाइस
##ारामा
चेन्नई
मेरै
लोकतन्त्रमा
रकमबाट
##प्ला
भीमबहादुर
ढुङ्गाना
हाट
##सुर
सनातन
##पीड
##ञ्छ
बन्दो
##उद्
खानपान
सांसदहरुको
स्टुड
राष्ट्रियसभाका
कर्मचारीमा
विज्ञप्तिमार्फत
टाटा
प्रदु
थुनि
माविमा
आएकोमा
चौं
कास्कीको
अहम
विरुवा
पहाडमा
नयाँदिल्ली
मतदातालाई
अब्दुल
भेटेका
अध्यक्षसमेत
डेमोक्रेट
ढकालको
हालका
फाराम
कमर्स
पहिच
गौतमका
किनमेल
##चेञ्ज
टोखा
अनिता
सल्ला
##ित्दै
राउटे
२०४८
मल्ट
रोटी
एसइ
ब्युर
विमोचन
नक्सामा
##ृष्ण
सदस्यसमेत
सातवटा
प्रसङ्ग
शंख
खोलाले
फिर
टोलीबाट
लुकाएर
हिलो
आश्रय
१४औं
##कवि
तालमा
भिडिओ
गुराँ
गार्ह
चढ्न
कैदीबन्दी
२०६६
##ल्कमा
जन्मिएको
लखन
##फाइनल
बिद्य
स्वदेशमा
##टामा
गतिशील
लागेकाले
जाइ
गतिविधिलाई
##बमा
घरदैलो
ज्योतिष
प्रवासी
साकार
##नाथको
वाटर
तल्ला
##कुने
ब्राह्
थापाथली
जर्सी
सोचेको
वता
##पाथ
१०८
हट्ने
विराटनगरका
अबस्था
सङ्घसंस्था
बाराका
मध्यपूर्व
##सभालाई
##ासहितको
पकेट
समेट्न
##साध
थानको
सीमान्त
मेट्रो
खातुन
पानीजहाज
अप्रत्यक्ष
विनाशकारी
##नू
कामकाज
फिन
पठाउनु
##चालित
प्रक्रियाका
बुझाउनुपर्ने
कमेडी
साथीहरुले
##स्म
शक्तिका
प्रेमको
टेनिस
मनको
हिल
सहितका
लिङ्
लैङ्गिक
भेलाले
सहप्रवक्ता
आफन्तलाई
शय्याको
नवौँ
टेण्डर
ओखलढुंगा
प्रभावमा
अरूको
भेरो
##ग्य
साथीको
वर्षकै
थपलियाले
लम्साल
पुस्तालाई
लघुवित्
घाई
देखिन्थे
मलेसियाको
सेवाग्राहीको
##मबहादुर
१२५
वर्णन
प्रजनन
बेल्ट
२२०
दासले
न्यायका
संस्थाहरु
पर्वतारो
हुन्छु
अलमल
टहर
गर्नेले
शनिबारदेखि
अनुकुल
दिनभरि
ललिता
बिदेश
भीषण
खुलाउने
हवल्दार
अमिताभ
अर्व
मद
##नमाथि
सेवाग्राहीलाई
##हमा
भत्काउन
ठकुरी
धरापमा
रोहि
चन्द्रबहादुर
##्यौली
कन
पर्वतको
वर्षमुनि
आइओ
जिल्लाहरुमा
किशोरीलाई
लखेट
अधिकृतले
##नुपरेको
इनर्जी
वार्डमा
विश्वभरका
मीठो
##प¥यो
पदयात्रा
अपनाउनुपर्ने
काँकडभिट्टा
बहुप
सानु
माओवादीलाई
टू
##मिथ
बिरुद्ध
त्रिपाठी
##फिट
अधिकारलाई
स्पेनमा
स्पोर्
अपी
शैलेन्द्र
टर्म
ढाक
##िङले
सित
महाधिवेशनले
चैन
मान्दै
तथ्याङ्कअनुसार
सफलतापूर्वक
श्रवण
ट्रायल
सदस्यहरुलाई
क्वालिफ
बाटोबाट
भनेँ
फिचर
ह्वी
कार्यन्व
गर्नेहरु
जनवरीमा
हाकिम
पाठ्यपुस्तक
इप
प्याड
आआफ्नो
सडकमै
पाउनुपर्छ
कार्यदलका
एकछिन
चलाउनु
मन्त्रीहरु
भएयता
##तीकरण
आविष्कार
##ेलिग
अर्गान
हिँडडुल
समुद्री
##न्सी
मसान्तसम्ममा
साँस्कृतिक
बुँदामा
मातहतमा
परास्त
अलग्गै
कडाइका
डडेल
##पोज
छिरिङ
##ख्यालाई
हारेको
समेतको
पुर्ण
पुगी
बाँच्ने
चालेको
नेताहरुसँग
कप्तानीमा
बर्दघाट
वृह
छाना
न्यायाधीशले
सङ्गीत
खसीबोका
टक
बार्सिलोनाका
रातिको
इमर्ज
१४औँ
युनिभर्सिटी
भन्छु
दुःखी
सीताराम
स्वाधीन
पूर्वराजा
अधिकारीहरू
पुर्याउँछ
सोच्ने
हल्
मञ्चका
सञ्चित
##सुब्बा
एक्ल
लगानीकर्तालाई
बृहत
व्याप्त
रोकियो
स्वाभिमान
छत्र
सिङ्गो
सुर्ती
जोखिमलाई
कोच
बाँड्ने
रातारा
तटस्थ
##दूत
ह्यान्ड
शरि
संकलित
##आती
संविधानका
##तमार्ग
मेमोर
यीमध्ये
सुविधास
एयरको
ठुला
बालेर
यथावत्
सुविधाको
मोवाइ
##ारका
निस
रहँदैन
मुट
अहं
##जामा
##माइ
सुवर्ण
##हिटी
मापदण्डअनुसार
शुरुआत
रौतहटमा
झल्
अगुवाइमा
निष्ठा
जातजा
आमिर
तुइन
डेट
तास
जितपछि
विज्ञप्ती
जमान
##िनका
##िएमा
निस्किएका
सांगठनिक
अवस्थाले
मिलि
लिइरहेको
डटक
##र्निया
बोल्ड
छाडि
घाटामा
गतिका
प्रजातन्त्रको
फ्ल
होड
मंगलबारदेखि
मान्छन्
अलैं
बाहुन
ठ्याक्कै
इन्जुरी
हानेको
##बिसे
तोला
सुदर्शन
पेट्रो
प्रवेशद्वार
बन्दसत्र
निरपेक्ष
फोरमले
तोलामा
खेलहरु
अपनाउनु
आकृति
वरीय
गहिर
प्रिमियम
कार्यवि
हुनुपर्यो
च्यासल
घडीमा
समिट
जेनेर
##बोट
साल्ट
डेटा
बजारलाई
दिउ
क्रियाकलापमा
न्यूजिल
भाडादर
तिव्र
श्रोत
सुनेपछि
फाल्ने
आक्रान्त
लिलाम
गोठमा
रौन
बराह
##टरको
बेथिति
पुनराग
भागका
परीक्षक
वलीले
पाथी
शिश
मिनेटमै
##ून्
नेम
##बीएस
गरिसक्ने
आयकर
कुखुराको
प्यारा
खोजत
चीनबीच
रियलले
मुनि
सम्पति
नकआउट
कित्ताका
सेवासु
खटाएको
ब्रह्म
##तारी
विकासले
राजार
##प्रेमी
तानसेन
रोजाइमा
राष्ट्रियताको
प्रवाहमा
निर्जीवन
ल्यायो
लुम्बिनीमा
नेय
सादा
सजायको
साई
प्राडा
चाल्न
बताउन
झर्ने
देवीको
प्रतिकित्ता
क्याप्टेन
गर्नेतर्फ
मानेका
जिल्लाभर
देउसी
वितरणका
उपकरणको
थापामगर
श्राद्ध
वज
वीरगंज
हराएर
इनरुवा
दुईतिहाइ
आरडीटी
##चलन
उडानको
शुभेच्छुक
ट्विट
ओखलढुंग
रातारात
##भेटर
लागेकोे
##केजी
संशोधित
बैंग
सहकारीले
हिनामिना
असि
दिंदै
धातु
मनु
जङ्गल
रायमाझीले
बानेश्व
ओलम्पिकमा
धामीले
प्रतिरोधी
रोबर्ट
दर्ताको
##लाख
मधेसवादी
उपलव्ध
तपाईलाई
##रोगी
दरबारमार्ग
लिंग
अग्रज
ब्याडमि
पर्यटनमन्त्री
सतहमा
सम्मानमा
कन्या
##परिषद
गुप्तचर
लाय
साहसिक
त्यसभन्दा
गोलभे
कर्पोरेसन
सम्वाद
समस्याहरु
मानिन्छन्
विजया
खेलकुदको
फर्केको
पार्नु
खोजिरहेको
आईतबार
##मुलक
अविलम्ब
गीतले
पन्ध्र
गर्दछौं
पेन्ट
कामबाट
सोसाइटी
गोदाम
मतदाताको
नेयमार
खनि
##एमाले
ल्याण्ड
घोषणापत्रमा
शवको
प्लाज्मा
कतारको
भइसक्दा
प्राज्ञिक
कम्पनीबाट
बूढानी
पान
भाले
##र्डले
रुसले
प्रकाशशरण
तोकेका
सम्माननीय
जिल्लाकै
पेसी
हाललाई
लहरको
इनिङ
सुविधासम्पन्न
सजा
झोलुङ्गे
##गरिक
हरिहर
हाँसो
एसी
जग्गाधनी
हानिकार
चयनका
##केन्द्रित
तोरी
हतारमा
पैसाले
छैटौँ
देखाउनु
करारमा
जगदी
गर्नेछौं
हुलाक
झन्झट
रम
डाक्टरको
अर्बौं
मारेर
नेपालस्थित
थिइनँ
रघु
एघार
##िभि
दौरान
पीपीई
संस्थाहरुले
बंगलादेशका
थाहै
डेलिभरी
जनासम्म
फेसन
अहिलेकै
प्रदर्शनको
##स्कर
कहिलेसम्म
##डाँ
##जनाथ
कार्यशाला
खोजिरहेका
नलिएको
कार्बन
पुनर्संरचना
गिरिराजमणि
डाइरे
एसईई
ओहोर
ख्या
नरबहादुर
उरु
##ेन्डेन्ट
संक्रमणकालीन
विपी
थिच
गाइ
##देश्यीय
दर्शना
रक्सौल
अर्गानिक
किर्ते
लेस्टर
निर्णयहरु
नेकपाभित्र
मोडालिटी
प्रधानमन्त्रीसँग
एक्सचेञ्ज
##लीन
घरभित्रै
क्यान्सरको
कार्यले
नामका
बच्ने
जवाफी
परियारले
पिपि
मजा
सला
संक्रामक
##ेन्समा
##रेको
गिद्ध
सुल्झ
##मानव
हेर्नुहोस्
##यामा
##च्छा
##सकेकी
कटारी
राप्रपाको
चाइनिज
उपाधिका
कत्तिको
##िनँ
बेलायतले
हैरान
सञ्जीव
हेरेको
संसद्ले
दुखेसो
पर्थ
रातमा
टोटेन
##ेशनको
योजनाले
शिष्टाचार
परमाण
छली
कार्गो
तृत
कोमल
शुन्य
ब्राह्मण
स्मिथ
बोझ
चाल्
घाईते
शहरको
गाईको
एन्टो
अलैँची
वित्ति
प्लेअफ
रोम
प्रलोभनमा
स्मृ
राठ
##विच्छेद
अर्थपूर्ण
प्रतिवेदनअनुसार
अर्थमन्त्रालय
औसतमा
आवधिक
चलचित्रलाई
देशहरुमा
##र्धन
##उनुभएको
नखुलेको
जेन
डेड
सूक्ष्म
उदेश्य
##गाएको
निर्णयका
सेल्फी
##िएँ
माछापुच्छ्रे
इभेन्ट
भत्काउने
हानिकारक
विद्यार्थीहरुलाई
बाटोको
भन्द
लाठी
विज्ञप्तीमा
लन्डन
सोचमा
सङ
प्रतिक्षा
प्लेटफर्म
यसतर्फ
शिख
फुटपाथ
जोखिमका
मनोनीत
हिजोआज
पस्क
##घाटन
यात्री
जित्दा
डुंगा
निस्केको
##बासीले
वडाअध्यक्ष
विभागबाट
आमरण
ओमिक्रोन
जुम्लाका
हाबी
##्वाल
परदेश
नटआउट
##ाउण्ड
अन्तर्वार्तामा
चना
##करले
##ौडा
ट्रस्ट
सेन्ट्रल
खज
अनेरास्वविय
पाँचजना
सवारीको
काटेको
नलागेको
##वाहित
##सम्बन्ध
##णिक
विदुर
नगरेपछि
तलमाथि
##र्षिक
बिट
अस्वीकृत
गुप्ताले
धिमा
भोटेको
पीडक
छैठ
आयआ
सम्हाल्ने
भर्स
सीआई
मुख्यमन्त्रीले
फित
शवलाई
खाँद
उत्थान
विपिन
संख्याको
क्यानले
सुडान
यसपटकको
संव
लगाएकी
##साधरण
खेल्नु
ट्रान्सफर
छोराछोरीलाई
##चुङ
##त्तम
युरोपमा
##स्तरबाट
खाँणले
सस्तोमा
सक्थ्यो
प्राप्तिका
टोपबहादुर
सिनो
वापत
ओर्
सोधिएको
मोटरसाइकलको
रिभ
फ्याँ
##बढ
कोरोनाभाइरसबाट
जोडीले
चाबहि
अनुसन्धानकर्ता
तालको
जनमोर्चाका
सकिरहेका
तुम्बाहा
जङ्गलमा
महानगरपालिकामा
ढाँचा
त्यसपछिको
सदस्यहरूको
छोरीले
कुसु
टायर
मल्लको
निच
##ेखा
विधेयकले
घटे
फेर्ने
टमा
आत्मसम
साझेदारीमा
एमालेसँग
अरनिको
त्यसक्रममा
नबित्दै
अबका
बताउदै
अँग
पद्मा
जनवादी
रच
सिके
पनौती
हाड
##बुँदे
उत्साहजनक
##साधन
##्राट
वित्तिय
##ुवाको
छोट
नैतिकता
मगरको
शासकीय
मेमोरियल
भनियो
रसिया
सम्भार
चारैतिर
टेम्प
२०००
गइरहेका
दरखास्त
सर्वसाधारणका
जाली
पिर
##ँसी
सिआइ
भएकामध्ये
##डेर
सुजा
आधिकारिकता
उपसमितिले
उपनिर्वाचनमा
चल्ला
क्षमा
##िमी
उल्लिखित
झरना
ठोक्
निर्यातमा
जिवि
ब्यापार
नपाए
सघाउ
मस्को
पदीय
ध्रु
फैसलाले
सुगम
जमघट
प्रतिरोधात्मक
सर्लाहीका
नवजात
निगमलाई
बडि
क्षेत्रसँग
तम्
शित
विज्ञहरुले
##िसहित
खोजि
ब्याजदरमा
##पुरबाट
मास्कको
समित
फिल्ड
##कस
नाजुक
संसदलाई
प्रविधिबाट
पीएसजी
सुनारले
छाउप
##साल
घट्ना
##परिणाम
०७८
पुरूष
##छिपी
गीतलाई
एयरव
प्रेसर
गर्यौँ
१०१
ठाउँठाउँमा
पुगिसकेका
सुनसरीका
मिल्नेछ
इन्भेष्ट
सांसदहरुलाई
कृषिको
##वेक्षण
परियोजनाका
क्याना
कां
परिस्थितिको
बन्दको
इमरान
आदिको
लेनको
मुन
ठोक
##्नका
हाउसमा
कोणबाट
##ुधार
सामसु
शिक्षालय
कोरियन
आवतजाव
खारेजी
इरानले
अठोट
चाहन्थे
पासाङ
प्रशासनमा
##ाइम
विस्फोटक
सानिमा
इमानदार
रहेकाे
स्तरका
##यालाई
अन्यौल
महŒव
अवसरको
मतगण
##फ्री
मुछि
##मिलो
घटाएको
##तेका
हेमराज
लडेका
चौरज
##राका
सक्दिनँ
शिक्षित
सडकखण्डको
चिकित्सकहरुले
##इड
आशी
फर्केपछि
बस्यो
##ूमा
किसानका
सम्प्र
चिठी
सभापतिले
टेबुल
उद्घोष
अल्पकालीन
डडेलधुरा
फेस्टिभ
सिपा
सकुशल
२००३
##पोल
राज्यबाट
जर्मनीको
##ीण
दूतावासका
अन्त्येष्टि
गृहजिल्ला
##तिमात्र
##ँु
सभाग
पिउन
ऐश्व
चिउ
जहाजमा
##ेसर
##रुत्
पोखरीको
त्यसपछिका
स्वचालित
वृद्धवृद्धा
चिप्
छुन
ट्यु
वस्ती
##निन
जोरप
नेपालबीच
फेरिएको
अराजकता
आश्वि
अस्प
बस्दैछ
अन्डर
##मुल
अराजक
सामन्त
प्रतिकार
पाइएपछि
दशैंको
ओढ
माइक
कब
गरेकोले
रोश
दीपकराज
नेपालीहरुले
मास्टर
मृगौला
१३औं
संगठनमा
पार्टीसँग
नगरेर
कुहि
प्रार्थ
विडम्बना
कामहरू
अग्ला
कर्मचारीहरुलाई
##ंदैन
खोले
बिताएका
फसेका
स्क्रि
##िनलाई
छाडेपछि
गुमेको
पुनर्वास
##टोल
भागेको
राख्नका
सानेपामा
##डेको
बलिङमा
एजेण्ड
बले
सातवटै
सोभियत
और
##फोनमा
सिलग
अफ्
आमन्त्रण
सूचका
सक्रियतामा
टेलिभिजनमा
युनियनका
काभ्रेको
गड्
एर
सघाउन
नपु
ट्रष्ट
##पट्टी
##त्मिक
तर्फको
##शाही
मिनाहा
एनआइ
झन्डा
सञ्चारमाध्यममा
##ेतालाई
आकारको
##केका
विष्टको
पूर्वका
दर्ताका
सेतोपाटी
जिउ
निजीक्षेत्र
माध्यममा
फोर्स
यि
##क्सीको
पाण्डेलाई
##साले
##सिटी
डेर
##यण
वाङ
अष्टलक्ष्मी
बलात्कारका
अनुसू
##ानिक
कर्मचारीहरुको
ब्यान्ड
धनुषामा
किराँ
महिलाहरुले
१६०
बेवार
डब्लू
नियमावलीमा
फैसलामा
मानिएका
उतारचढाव
परमाणु
भेटघाटमा
स्ने
नीजि
##गाँ
##पिकल
##सम्मै
टीभी
पहेँलो
##कृतिमा
पूर्वाग्रह
##वर्षे
गौतमबुद्ध
पढेको
मद्दतमा
बीबीसी
##न्ध्यामा
दिएकाले
नीतिलाई
जानका
साइत
२०५८
कीर्तिमानी
सर्वसाधरण
नेपालगञ्जमा
ढिलासुस्ती
आर्च
कन्ट्र
आदेशको
उर्ला
माइन
उपेक्षा
क्लियर
लेनदेन
बिद्या
नभएमा
घृणा
नास
##िनल
एसियामा
संगठनात्मक
डिए
नामकरण
अन्तरवार्ता
चुनौतीको
१८०
पेनाल्टीमा
##तिरको
##युग
##गुरु
अध्यक्षलाई
एक्सप्रेस
धारामा
उद्धारमा
शानदार
योभन्दा
पढेका
क्षमताभन्दा
प्रजाति
मातृका
झाडा
ट्रकमा
व्यवसायीहरु
हारको
##लीकरण
जगन्
एकैसाथ
पेज
उत्कर्षमा
मर्जर
रेव
शीर्षस्थानमा
चीनसँगको
नुवाकोटको
बास्कोटाले
यहाँसम्म
सप्ता
टापु
पृथ्वीसुब्बा
संक्रमणले
असहाय
मेचीनगर
आभार
हेर्नुस्
डोरमणि
##ैंचा
बहुउद्
जन्मकै
समवेदना
दिइसकेका
इन्ज
देखिएमा
२०५९
मसान्तभित्र
कंग्रेस
बैंकहरूले
आध्या
##र्थीको
त्यसैलाई
ग्रीन
##शीघ्र
हलेसी
##ाउँदैन
आङ्
##चुर
शान्तिको
अघिको
मर्मतका
सभाबाट
##पोषण
फाइभ
अलोकतान्त्रिक
भ्यू
पुनर्निर्माणमा
उपप्रमुखमा
छपाइ
महाभारत
मोटरसाइकललाई
मन्थ
नआए
बजेटबाट
जापानका
बसोवास
##र्तित
ब्यक्त
##शिला
पर्खाइमा
क्रिकेटर
बासिन्दाको
अफगानिस्तानका
पूर्वतयारी
बनाइयो
छापेको
##निष्ठ
पोस्टमार्ट
सर्वेन्द्र
लोकतन्त्रलाई
भैंसी
चिल
चेन
जित्यो
दलसम्बन्धी
म्युनि
पाइए
धुम्बार
बाबुको
सभासद्
भजन
##म्फ
खतरामा
लत्ताकप
##थियो
##कीको
कब्जामा
अँध्यारो
सवारीसाधनको
एकतामा
पाप
रोह
##मध्येको
##घरको
तान्न
शासनको
फितलो
मागे
रुटमा
क्षेत्राधिकार
नफर्क
कर्क
सीमांकन
जिब्रो
जहाजको
बल्खु
##सम्भ
पूर्वको
बोर्डर
संसारकै
शुल्कमा
बुटवलको
##नूनी
निकुञ्जले
अग्रपंक्ति
संघर्षको
दिमागमा
##प्रश
एप्प
एक्ट
अपनाइएको
##मानले
तलामा
विद्यासुन्दर
##थोक
सवि
कुनामा
सुदुरपश्चिम
साथसाथै
डर्ट
अपार
आजभोलि
मर्च
गैरकानूनी
जेम्स
उरुग्व
नत
##दोहोर
##लिएको
गर्नुहोला
लिफ्ट
शर्माका
##नुसार
छिर्न
मोही
अरूले
ट्र्याक्टर
जमरा
सिर्जन
करोडौँ
पुनरुत्
लुकेर
प्रतिकेजी
भाजपा
राष्ट्रवाद
बुझाउनु
सञ्जालको
ब्ला
रेज
##ुल्
##महल
दम्पती
हजारले
वासुदेव
नहुँदासम्म
लसुन
##ानन्द
##निवास
जीवनया
पीडितका
ड्याम
अवस्थाबाट
##चनालाई
सम्बन्धविच्छेद
##ख्र
उनीहरुमा
अपराधको
घण्टापछि
बहिर्ग
हम्मे
शेयरको
प्रज
##डीका
##क्चर
100
##ुरोग
अलर
जान्छु
समेटिएका
हुदैन
महेश्वर
बाग्लु
भिजन
छानो
##दमी
शाहलाई
##ौरी
होल्ड
##टाए
हमा
परिश्रम
कर्माचार्य
लज्जा
साथीले
एकीकरणको
लिगका
पोस्टमा
माक्र्स
एड्
न्युज
हिमपातको
पुर्खा
श्रेय
काठमाडौंस्थित
रुसको
चार्टर
अमेरिकाबाट
##29
गम्भीरतापूर्वक
इस्लाम
रेफ्र
युवकलाई
##केदार
अडानमा
तर्स
खोलेका
तोके
##त्ते
म्यासेज
##बिल
कोरियोग्रा
देउवासँग
दृष्ट
सुनसरीमा
मुखिया
नहट
धुम्बाराही
२०५२
बाणिज्य
बुद्धिजीवी
साख
पुरस्कारको
ब्लु
गर्नेबारे
खेलाडीका
ऐनअनुसार
साहस
पशुपन्छी
बिराटनगर
भुक
प्रगाढ
जयनगर
पाल्ने
मकर
राधिका
सयदेखि
आँक
सम्पर्कविहीन
रक्षक
##जीव
लेगमा
बर्षमा
रिजर्भ
##ेशनले
महिलाहरुको
अङ्ग्रेजी
##कली
मिल्यो
बुबाको
लिइसकेको
नगरमा
१०५
राजदु
किरात
व्यक्तिहरुले
हराउने
तेह्रथुम
दलहरूको
रामकुमारी
अपार्टमेन्ट
भेटिन्छन्
भोला
बास्तो
संविधानअनुसार
आईपीएल
पर्यटकका
भरतपुरमा
घेरामा
##राजको
कलेजलाई
प्राइभेट
मुखर्जी
इन्च
चन्द्रमा
गठबन्धनलाई
##लासिस
##दिनै
जगन्नाथ
डब
##वहन
जोडेका
##ंसी
मागअनुसार
##त्यु
स्टिल
जन्मेको
##नामै
सभागृह
##बादी
मूलतः
बोतल
नपठ
सोधि
हजुरआमा
इन्डि
वन्यजन्तुको
नेप्सेमा
सुदृढीकरण
कालखण्ड
##ेशनमा
वर्षभरि
आँच
श्रमजीवी
भएछ
रमाउने
इन्स्टिच्युट
आलोपालो
शेष
भूप
इञ्जिनीयर
##ञ्चाल
लोकप्रियता
परिर्वतन
पोस्टर
२०४७
दामोदर
बुझाए
ओझाले
आरिफ
हान्ने
दैनिकले
परिसंघ
निरन्त
दूरीको
गरिएन
सुट
महोत्तरीका
कम्यु
##कुस
१३०
##बद्धता
##रहन्छन्
पार्टनर
भैँसी
कार्यक्रमहरू
नेप्सेले
भेटेको
यात्राका
दृष्टिगत
र्यापिड
##वास्त
बामदेव
खाए
कर्मचारीहरुले
बायर्न
विश्वलाई
किराना
मजदुरको
गाँज
दिल्लीले
जघ
मनोमानी
चेम्
ब्याटिङमा
शुक्
आईएमई
##ताइ
##ामको
वेप
प्रचल
##िदिएको
तथ्याङ्कले
पसेको
चप्पल
प्रधानमन्त्रीज्यू
कोषाध्यक्षमा
व्यक्तिसँग
राजमार्गअन्तर्गत
गुणस्तरहीन
##वारि
ह्यारी
##राखेका
##रुम
लम्की
जनविश्वास
गिरीको
पञ्चायती
##िँदैन
साहित्यको
जमुना
फ्रान्सका
ट्रपिकल
फ्लोर
सुनाउने
आर्सनल
संसोधन
##सरी
कार्यकालको
नचा
साताभित्र
सर्लाहीमा
##लाग्दा
भएता
##स्यो
भेटियो
प्रतिल
आइसियु
रिम
तात्
अग्रवालले
सिंचाइ
योगी
शनिबारको
लोकतन्त्रका
सक्दैनौं
मसला
इटालीमा
लेखापरीक्षण
##भिन
##कमध्ये
भेलालाई
गरिरहे
आपत्तिजनक
एपीएफले
प्रतिमा
क्लिक
##तिना
राष्ट्रपतिका
दर्जनौँ
गुगल
कानुनअनुसार
नसकेकाले
मेलाको
##संयोजक
उद्यान
सुविधाका
खाँदै
उत्पादकत्व
रिमालले
चाउच
##बस्तु
प्रतिवेदनको
सबैजना
यथाशीघ्र
##वर्गीय
अस्मिता
आवश्य
कपिलवस्तुका
९००
##िएनए
प्रवक्ताले
कलकार
##नेपाल
निबन्ध
द्वन्द्वको
दाख
##फको
आईसी
मर्मतसम्भ
नेपालतर्फ
योजनाबद्ध
भाइटीका
प्रश्नपत्र
##मध्येका
जघन्य
नवलपुर
हलिउड
मेडल
समीर
##ावती
डेरी
पुस्ताको
मान्नु
पुजा
लिमिटेडका
दम्भ
पत्रको
मनकामना
दाइजो
टोलीसँग
ढाड
पुल्चोक
##िक्क
##कल्या
सेन्सेटिभ
वकिलको
तुल्याउन
पोख्रेलले
पोखराबाट
वालिङ
स्वास्थ्यलाई
गाविसको
##ालाको
##घण्टा
दिनदिनै
छाडे
रिहाइ
भैरहवामा
मस्जिद
पिसी
त्यता
रावत
दलबीच
मर्स्याङ्दी
##पूजा
कार्यपत्र
पदभार
सूर्यबहादुर
आईसीयूमा
देवघाट
क्यालिफो
धुर्मुस
नियन्त्रित
पाल्न
दूतावासमा
सर्न
साक्षात्कारमा
सन्तानको
सोह्र
##थिल
##ाइले
डाँडामा
आब
दोहोरी
नाटकमा
रोप्ने
पार्कमा
##एकाे
अदालतलाई
सापकोटाको
##पारी
विघटनविरुद्ध
##स्कृति
##लोकनका
##लाउ
##ाउमा
सर्ब
जनप्रतिनिधिलाई
ल्यान्ड
सम्मेलनले
डब्ल्यू
ईयू
इलाममा
##रात्मक
बाजी
संसद्बाट
पारदर्शिता
मसान्तमा
##ाललाई
सम्मेलनका
रहेनछ
पुनरागमन
व्यवसायीहरूले
##पुरा
##कीले
ब्राउन
चामलको
लड्
स्टुडियो
##लायन्स
अहि
##केर
२००१
बलिउडका
##डम
व्यंग्य
क्याम्पमा
गर्नेहरू
अडि
वली
श्रद्ध
अबदेखि
लामालाई
ज्यू
जनधनको
जलाशय
समिक्षा
राखियो
स्वामी
सेप्टेम्बरमा
##ैना
जान्ने
##फेदी
##वको
मिश्रित
##नमान
सङ्ग्रहालय
सपोर्ट
मनाइन्छ
क्याम्पसको
तनहुँका
मध्यरातमा
भुइँमा
##राएर
##लोचना
प्रशिक्षकको
निम्त्याउने
पुर्याउनु
##िसँगै
कालोसूचीमा
कोठाको
बध
##लेन्ट
##थाने
##डिङको
##पोस्ट
परिभाषा
मिठो
कामकारबाही
##लस
सक्नुपर्ने
जयन्त
मध्यावधि
##०७
एचआइ
त्यसैमा
##फिल
शाक्यको
मस्तिष्क
सुन्ध
व्यक्तिहरूको
श्वेत
नया
चौबी
२०४९
पुत्र
गोलअन्त
मार्गको
मञ्चन
प्रस्तावमाथि
ऋतु
झुटो
हप्तादेखि
पृथ्वीको
लैजाँदै
राहतका
कामै
##ैँचा
सम्बोधनका
स्वार्थका
देख्नु
पूर्वाञ्चल
##पीएस
भुल
लान
##ण्टी
जोखिमयुक्त
गरिएकामा
पुरी
नदिएर
इज्जत
##चिन्त
यातायातमा
ब्यानर
बार्सिलोनाको
युरोक
उसो
सहकार्यको
समर्पण
खुर्स
काटिएको
भूमिसुधार
रुसमा
##नागरिक
त्यसकै
उज्ज
चाँद
डिस्ट
##ः००
एको
अपनाइ
ग्
फिच
बमोजिमको
स्वयंले
सरकारद्वारा
उपत्यकाभित्र
म्यू
##ाउँछु
##िना
मनाङका
सञ्चालकले
आत्मसात्
भएकाहरुको
लगायो
ससुरा
चिसा
पालिकाले
पसेर
श्रेणी
थ्रीस्टार
सुजन
गाउँपालिकालाई
वर्गलाई
दिनुहोला
बहराइन
सार्वभौमसत्ता
बढ्नुपर्छ
सुवेदीको
हुम्लाको
मूख्य
अफिसमा
युवाहरुले
जाहेर
##विराम
डिपा
हिँड्दा
##ङ्गको
अन्त्यतिर
घाँटीमा
##थ्यौं
##भाट
अब्दु
युनियनले
##ठित
घरबाटै
हब
इन्द्रबहादुर
च्याम्पियनसिपको
रजिष्ट्रार
पदावधि
##र्छन्
सहमतिअनुसार
##जाग
##खबरसँग
भियतनाम
भक्ति
##्रक
रोबोट
सेवासुविधा
किल्ला
युरिया
जनमुक्ति
कुलपति
##ब्या
##चामा
ईश्वरी
##साता
१६५
साउदले
दीपिका
##थल
सोच्नु
प्रभावका
भर्ती
थेरापी
सोधेका
प्रवृत्तिले
डुबेको
उषा
पठाउँदा
संगै
अर्जेन्ट
##ल्सले
रणनीतिमा
नअ
आँखाले
रविन
गोकर्णेश्वर
मुटुरोग
ईन्
उहाँहरुलाई
ग्रामिण
इमिरेट्स
कार्यक्रमबाट
अप्रत्या
##वंश
निता
##ाउनको
##हात
वाक
अझैसम्म
रानीपोख
##भर्ड
अप्रिलमा
मतदानको
##ानीमा
युनियनको
विचारको
मनसु
पाइएन
##वर्षीय
वैद्यले
कार्यदलमा
हिसावले
फैलिरहेको
राणाको
##धन्दा
शिशिर
छर्क
धुम
ट्रेलर
##मानन्द
सिरिजको
पटेल
हेल्प
सुनिन्छ
रत्ननगर
एउटी
डिसी
घुम्ने
नामाकरण
प्रदुषण
चू
अवज्ञा
खुसीको
न्युनतम
भयौं
##ंगत
प्लेयर
चाडबा
गुग
हिसाबमा
##न्टमा
##पूँजी
बुझाएर
सम्झौताका
रैथाने
पहिलोपल्ट
##बरको
छाउपडी
धम्क
गठबन्धनबाट
क्रिस्टियानो
कार्यविधिमा
धाँध
एक्लैले
मुद्राको
फाइजर
नेम्बा
अष्ट्रेलियामा
अकाउ
निरज
फ्री
##ङ्घ
जगमा
शैलीको
व्यक्तिबाट
भिड्ने
रसायन
टेक्नोलोजी
चेम्जो
ज्ञानको
सिन
विफल
पुलिसका
##मारमा
भोगेका
तृतीय
द्
भिजिट
निकाल्
स्टाटस
##दरको
११३
कदमलाई
हाले
##वहादुर
बर्खा
१०२
सिस्ने
बन्दाबन्दीको
अष्ट्रेलियाको
मिसाएर
एक÷
रोक्नका
##१९
सहचालक
निषेधित
नचाहेको
युवायु
दार्चुलाको
सर्वत्र
बारामा
रनर
प्याराग्लाइडिङ
कसर
हालेका
पाल्पाको
ड्रोन
युवतीले
नरम
हेरी
मागमा
जेने
कास्कीमा
पेम
कांग्रेससँग
जेभी
नबस्ने
गर्भा
##स्परिक
##फानो
जोखिमको
श्रीमानको
##ालीले
लक्ष्यसहित
इतिहासमै
छुवाछु
क्यालिफोर्निया
दृष्य
गुणस्तरमा
बहुउद्देश्यीय
लियोनल
सम्भावनालाई
##एसआई
झम
बैङ्किङ
संसदका
निमन्त्रण
##रणमा
डुङ्गा
मध्यवर्ती
एनसेलको
##ईएको
यसर्थ
##कल्याण
गथ
##भन
आलेले
जन्मेका
बेख
घेराउ
तालिकामा
तिनाउ
प्रतिपक्षको
फ्लु
तालिवान
गणेशप्रसाद
कार्यकक्षमा
मन्दिरका
उपविजेताले
होल्डिङ
धरात
१४०
##ारहित
२००५
एन्टि
भाग्ने
स्विका
३५०
धौलागिरि
दूतावासको
रिक
कमान्ड
नगरेसम्म
प्रयोगको
गराउनका
निहुँ
बर्मा
गण्ड
##ञ्ज्याङ
बारेको
हुल
समाति
सैनिकको
##ुटी
मित्रता
नेतामा
समुन्द्र
एक्सचेन्ज
१११
सहरका
जीविकोपार्जन
अभियुक्तलाई
लण्डन
कार्टुन
वेपत्ता
मुश्
सम्वोधन
डिम
कर्मचारीतन्त्र
समाजसेवा
तोड्न
दशैंमा
##काराम
योगफल
कमाई
नाट्य
खतिवडाको
कारा
अघोषित
पहिरन
सिटीको
खुलाइएको
१०४
ट्विटरमा
परिवर्तित
समेटेको
122
विश्वयुद्ध
चौतारी
वर्च
खाएका
थिएटर
विकको
संगीतमा
जगदीश
सङ्क्रमणमुक्त
पारस्परिक
नामिब
पहलक
##यज्ञ
व्यापारको
ट्रिप
जबराको
संजाल
##ंगै
##ियाबाट
##वादमा
##जोरी
पढे
उनीविरुद्ध
निर्माणले
आध्यात्मिक
देउराली
आफूमा
गएँ
वयस्क
##फ्लु
##वासो
खिच्न
##पेको
वर्षहरुमा
सरदर
झिनो
समिर
अनिलकुमार
##प्राय
बोल्दा
भेरोसेल
रौनिय
खजुरा
फोनको
घर्तीमगर
टाइम्स
तामाकोशी
प्रतिशेयर
लक्की
एसोसिए
##कुलर
##भाजन
खानामा
##थलो
दाहिने
##ोपचार
काठमाडौँबाट
टुंगोमा
सम्झेर
##हजार
खवर
आएपनि
भिन्नता
##लाईन
वागमती
जसपाले
न्यूज
बिक्रीका
आममा
गोरखाका
लायक
##देखिको
रसिद
अभद्र
भाग्यमा
शताब्दीको
##हरूमाथि
वस्तुगत
##सिएका
हुु
##डिस
##अगावै
##मिङ
बज्र
अफ्रिकामा
सुत्न
विद्युत्को
एलपी
##ठ्ठी
नका
न्युजिल्याण्ड
लगे
बुझिन्छ
सकिनँ
पाइनेछ
कन्स्ट्रक्सन
##ङग
डोटीका
ब्याग
क्रमिक
डाइभर्सन
मन्त्रिमण्डल
##बस्ती
कमेन्ट
स्वस्
##्यारोमा
मान्छेहरु
आँप
सेवाप्र
थालिन्
घोट
निर्वाध
हराए
संस्थानको
जौ
सुर्य
मनाइएको
घा
##ुमार
समयलाई
##ेन्जर
टाँस
निकाल्यो
12229
रहन्छन्
सुरक्षालाई
##स्तीमा
##पुरस्थित
एफएम
यत्ति
२००२
विस्तारित
फ्रान्सले
मागको
एल्बम
आरु
२०८
##समेतको
श्रीवास्त
बर्ड
भावन
मोवाइल
सदनको
मोल
जोशीलाई
धमलाले
##म्लिङ
##हाको
प्याब्
यार्स
कतैबाट
अपरेसन
##अर्थ
एयरले
गैरजिम्मेवार
सञ्चय
उत्पत्ति
मलेश
खाल्ड
सचिवले
थपिँदै
लुइस
फसेको
##जेन
कुलो
##लेन्द्र
##प्रथा
पेशागत
सुरुवातमा
बास्केट
पहिर
प्रदेशस्तरीय
आश्व
बडो
##िस्ट
##र्तिक
सौरभ
मासुको
आफैँमा
छलेर
आइफोन
सुदीप
परिभाषित
दक्षता
सम्मानजनक
डडेल्धुरामा
मण्डलका
स्वास्थ्यकर्म
मनले
लोकान्तर
##हरे
लागेकी
पुष्टी
##दृश्य
जोर्डन
कावासो
कमाण्डर
यूनि
प्रहरीसँग
माओवादीबाट
चौरजहारी
##पीठ
मानिसका
कलि
##हवा
दाउमा
दूत
##जीत
लिंक
पिसीआर
परोप
जबकी
##प्राइज
जोङ
जीवा
##िज्
महिनायता
सूर्यको
उम्मेद्वारी
##लेज
एकाध
वर्षासँगै
कोभ्याक्स
आयरल्याण्ड
शीर्षकको
ढलान
##वेक्षक
इञ्जिनियर
अनुशासित
जहाजले
आका
व्यवसायीका
ममता
कफ
कोरोनामुक्त
भ्रष्टाचारी
##१२
प्रधानन्यायाधीशको
##बगर
युवाहरुलाई
राइन
भूकम्पपछिको
##सेवक
फैलाउन
गरिरहनु
भति
केक
बेवारिसे
बलिया
अन्तरदेशीय
इन्स्
कन्सर्ट
बबर
जनाविरुद्ध
योजनाहरु
रमाउन
बर्त
प्रणालीले
सहभागीले
हुनसक्
धारिलो
संघर्षमा
##ुराज
खटि
##परे
##पूर्वी
पाइन
स्रोतबाट
अनेकौं
वित्तिकै
दिसा
युरोपका
बालबालिकाका
टिक्न
सहुलियतपूर्ण
##ज्यो
पिरो
ठड
##ुका
नेपालीहरुलाई
टोटनह्याम
हनुमानढोका
गरको
नेपालकी
सम्झौतापत्रमा
फेवा
चिरञ्जी
आइसकेपछि
तस्विर
अक्टोबरमा
दय
जर्मनीमा
गरिदियो
हेक्का
वर्गमा
अवा
##बाहि
बसाई
धना
##ल्लु
महत्वाकां
इरानको
रिले
##न्त्रणा
लागिपरेका
रणवीर
उखुको
मरासि
प्राणी
अधिकांशले
व्यापारीलाई
होल
सन्ज
गरिबीको
स्पोर्ट्स
##ग्रेस
विराज
बाहिरिएपछि
सेटिङ
दिल्लीका
गच्छदारले
कठ्ठा
मस्जिदमा
यार्सा
##भुत
उठान
साथीहरूले
नाइके
राजाराम
दिउसो
अर्बभन्दा
प्याकेजमा
अजित
उपमहानगरपालिकाको
बागलुङको
हुमा
समाप्
जडिबुटी
मतका
भ्रममा
मोबाइलको
टुंगिएको
मुचु
ट्रयाक्टर
बोल्नु
छ्या
##ारे
अन्तत
पाँचथरको
छप
सेफ
ठेकेदारलाई
तदर्थ
प्रवद्र्धनका
भएअनुसार
अवहेलना
मनाङले
ब्रिफिङ
अमात्य
उप्रान्त
बन्नुपर्ने
यार्सागु
११५
परिषदले
##ण्डाको
ल्याउनका
##िसले
भइरहने
दैलेखका
सार्वभौमिक
उत्पीड
आत्मसात
विसंग
भरेर
श्रीमतीले
कर्मचारीहरू
बक्सिङ
##गङ्गा
डेङ्ग
२०५१
##वलोकन
मोटरसाई
वीरगञ्जमा
ब्यारेक
नाफामा
उत्पादनमूलक
नेप
##सरोवर
गोपनीयताको
दुर्गन्ध
मुद्रास्
दरि
लैन
##ेण्ट
लडाइँमा
अन्धकार
कतिसम्म
उत्सर्जन
##ेखोला
##काण्ड
प्रयोगात्मक
बहुआ
मोदीलाई
चलाइरहेका
उपरिक्षक
छिमेकीको
राजनि
भाइरसविरुद्धको
मैथि
अष्ट्रेलियाले
निमन्त्रणा
चियाको
दुरा
कमाएका
निम्त्याएको
##न्हो
विज्ञहरूले
टाँग
कौशल
मेसीले
क्याम्पसका
मोडमा
घटस्थापना
थाम
शक्तिलाई
युएस
च्याति
न्युर
भ्याली
छाडिएको
खटाउने
मोहमद
अस्ट्रेलियाको
छिर्ने
श्रीलंकाले
कम्बोड
स्याङ
##राङ
##न्याय
##बोर्ड
##खोर
हेक्टरमा
लैजानुपर्ने
##्याउ
सिडिओ
खरिदको
दिनहरुमा
घट्दो
भक्तजनको
संलग्नलाई
विधानअनुसार
प¥यो
त्यसलगत्तै
लाभको
भिडियोलाई
दिव्य
##कारा
##उँछु
टीकाराम
आँगनमा
अभिनन्द
ग्राहकहरुले
##क्षेत्रीय
##धिकारी
##शुल
भाषाका
राष्ट्रमा
दुईको
ट्रमा
इकोनो
##माध्यम
सहमती
गराएकी
मिल्दो
बढावा
जनकपुरको
##ेन्सले
अप्रेसन
पहिचानको
होमि
##स्नु
दलहरुलाई
बसले
इजरायली
उपनि
बेलाको
छोडि
थालिसकेको
धागो
दौडध
न्यूजिल्याण्ड
अस्त्र
बिगत
आइसिसी
ब्यब
पेय
शाय
पुर्जा
बालकलाई
चाहेमा
व्यवस्थापकीय
##फोर
बित्दा
रहनुपर्ने
वर्षलाई
लिन्छन्
सिम्
असामा
गुटको
शिका
##ंव
##इको
स्वत
अष्ट्रेलियाका
बिश्व
सुनकोशी
गङ्गा
##मानमा
भुर्त
फैलिएपछि
दलहरुबीच
१०३
चिन्ताले
सक्दछ
द्वन्द्वका
चुलिएको
भ्यु
महायज्ञ
तालिममा
तबसम्म
जुर
स्क्रिन
बिताउने
संहि
गाईघाट
नन्दबहादुर
जेठा
धूलो
शुभचिन्त
बाबुआमा
बिष्टले
सिसी
मतपरिणाम
##खाप
आशामा
ड्रेस
##र्मो
बलबहादुर
ट्रेकिङ
अपन
सुज
पुगिन्
महतोको
कपिलवस्तुको
हरिकृष्ण
##दाको
चारमा
कठिनाई
पोखर
##ाउनुभएको
पिल्
सर्वेक्षणमा
##र्नुपरेको
पत्रिकाले
देखिन्न
##ञ्जेल
सहकारीको
अर्थशास्त्री
##बायो
रोयल्टी
फेडेर
##ाइएका
मतपेट
ट्यांक
हुनेछैन
म्युनिख
ग्याले
खाल्डाख
सबैखाले
आधाभन्दा
भुकम्प
खुमलटार
थाई
आयोगबाट
सोध्न
रगतमा
पेरु
पैठ
शेयरमा
संयन्त्रको
नजरमा
##फ्रा
मिनि
##बासीको
पोहोर
##हेको
##हाकार
अवस्थामै
ह्याण्ड
##बढी
ग्राहकहरुलाई
##बन्धु
गुल्मीको
बसेपछि
भ्रमणले
यसपाली
घट्यो
भिक्ष
गरग
##ल्दो
समाधानमा
प्रकारले
खेतीपाती
##डियाख
आपत्कालीन
बेचेको
भत्काएर
कोरोनालाई
जीवनस्तर
सीमान्तकृत
कालमा
२०५४
उड्डयनमन्त्री
समूहसँग
पिटर
क्वाटरफाइनलमा
पोख्रेल
##मानवीय
स्कुलको
##ब्युरो
माइकल
लिएकी
यदी
राइड
हड्डी
शस
आउला
##गीले
सिङ्गा
पाइरहेका
घटेका
नीतिका
नम्र
गरिदिएका
पद्म
निकटका
##सांसद
दूरीका
##ुरी
##देउ
पूर्वराष्ट्रपति
##तेदार
भट्
ब्याक्ट
२०५६
एकाउन्ट
सन्तानलाई
प्वाल
राजनीतिले
फाल्गुन
##ड्न
बगाउँदा
##िचो
वासिङ्
लत्ताकपडा
##बुवा
१०९
##भूषण
कभर
रुष्ट
काउन्सिलले
हसन
सक्न
चिडियाख
चाहेर
सिरी
छाडा
अनुरूप
मृत्युदण्ड
मापदण्डमा
सुदूरपश्चिमको
##लोचन
सदस्यबाट
जोडिन
जिसीले
सुपरिट
लब
प्रणालीका
सिक्स
छातीमा
दैलेखको
##शिक्षा
पहिल्या
घुइँ
गाडीलाई
रेलवे
महासचिवमा
आपूर्तिमा
##लाइनमा
प्रतियोगिताबाट
कुराकानीको
सँधै
##ुर्ण
मन्त्रीका
युवाहरुको
दुखाइ
विर्तामो
अक्सफोर्ड
गोलबाट
विद्युतको
भूमिकालाई
हङकङमा
बुवाको
असाधारण
ड्राइभर
भालु
##िजमा
एक्स्पो
भइसके
मन्
##ाउनका
तराईको
सुन्दरता
अनुगमनको
ओहोरदोहोर
उदयपुरका
छुटको
ट्रान्
स्टार्ट
तानेर
आर्यन
निख
नेपालीहरू
अमृ
सिन्धुपाल्चोकका
फिलिप
पुग्दै
विश्वभरि
घाइतेमध्ये
संगठनलाई
ग्रे
##ल्समा
अन्यको
स्याटेला
ठह
##स्सु
रौनक
गुहार
फाउन्डेसन
तीस
ठानेर
जयन्ती
लिपि
आचार्यलाई
ट्रम्पलाई
##भोज
नेकपाकै
गर्नेछु
राख्यो
##लोजि
खवास
तथ्याङ्कमा
ठाँउमा
##दालाई
नभएपनि
बहन
तिमिल्सिना
##ैतिक
प्रायोजन
आफैंलाई
प्रतिलिपि
##भले
टाट
फर्किसकेका
आकाशे
बलात्कृत
झाडापख
पशुपक्षी
##निक्स
सम्राट
मेयरमा
सकेनौं
बीमाको
अमेरिकासँग
उठ्छ
गायन
नगरपालिकाबाट
अमानवीय
घटनाहरु
भागको
वाल्
हातेमा
किनि
गतिरोध
##आन
मुस्ताङको
##ारले
संकु
##क्वि
सुष्मा
निर्मलाको
खेद
कोशिस
मेरु
##त्पाद
##साइड
उद्धव
फैसलाको
खाल्डाखुल्
निल
अटोमो
ब्वाइज
गाउँलेले
पुरिएर
##ूस
विखण्ड
बारले
चट
अध्यक्षबीच
पुष्कर
बनाइदिएको
दोहोर
दशकअघि
चास
##क्षालाई
##थेँ
ऊर्जाको
बगेको
समता
औंल्याए
##तुवा
ब्रोकर
##दुर्गा
सुजाता
सिपाही
अखबार
प्राप्तिको
##अलि
आक्रमणकारी
अखण्डता
##क्कु
##चौरमा
रानाभाट
सकेपछि
##्लाद
लोग्ने
अलमलमा
लम्
चौहान
कारको
तारेख
म्याग्दीका
कुरेर
माथेमा
मिलेनियम
##मौसम
भुप
कभर्ड
नभएकोले
गोरखामा
न्यायपालिकाको
१९३
चिकित्सकलाई
नपुगेका
विधेयकमाथि
सान्त्व
कोरिडोर
उचाल
##भोग
१९०
चिनफ
##केला
रकमले
छेक
ज्यादा
देखापरेको
चौतारा
रिङ
अमलेख
योजनाअनुसार
डोटीको
हेरे
कालीमाटी
##गर्भ
हार्ड
च्याङ्ग्रा
बारी
रन्
##मैला
##िजन्य
बाढीपीडित
निचोड
कामच
हरिया
दक्षिणपन्थी
विरामीको
हुदा
कसरत
बहालवाला
१९५०
##दिन्छन्
##मेटिक
संजालमा
घोड
विवादलाई
चिन्ताको
रिपब्लिकन
काष्ठ
उपलब्धता
भाद्रमा
जानी
चाउचाउ
नेकपालाई
##शनको
परियोजनाले
##न्यो
##रसम्बन्धी
ब्याडमिन्टन
गर्ला
निभा
जरा
##शम्शेर
मध्याह्न
मिसाइल
रेग्मीको
रामजी
प्रतिवेदनका
गरेअनुसार
भियतना
पार्टीबीच
एनएस
सापटी
स्पेनको
गण्डकीमा
भएकाको
विमानको
म्यादी
बाव
भनाइमा
स्क्यान
आग्रहमा
डोटीमा
मूल्यांक
रहस्यमय
अपरिचित
हातेमालो
थुप्र
प्रार्थना
अहो
सखाप
##कारका
लिला
नमानेको
पारवहन
आमनागरिक
हुनुपरेको
असमानता
चाबहिल
खनाललाई
डोल्पामा
##स्तम्भ
ओपनि
मानिसहरूले
विल्
##पात्र
बागलुङमा
25
सिर्जित
अन्तरविरोध
नाइजेर
क्याब
अस्ट्रेलियामा
सुगौली
अग्रपंक्तिमा
सुरा
हकको
कार्यदिशा
कारमा
सेवाहरु
बलले
राजनीतिका
प्यालेस्ट
गरायो
##फरक
##छेउ
रायले
##यनीय
नमानेपछि
धाँधली
##न्दन
##जनका
अबु
अपलोड
##टीलाई
रेफ्री
बदल्न
कागती
मोलेर
उपलक्ष
भावनालाई
##दैछ
##िसको
मध्यमा
क्षत्र
सपिङ
दशग
न्यायो
समस्याबारे
मञ्चले
##भाडा
पश्चिमको
दोस्रोमा
रुची
##जुले
ज्ञानेन्द्रबहादुर
प्रसंगमा
ताप्लेजुङको
संक्रमितहरु
श्रीमानले
जर
विमानस्थ
मनाङको
फुयाँ
साक्षरता
##गतिमा
कुलेख
पतन
नहे
##्याम्प
आतंककारी
चेली
##राख्न
चाख
एसियाका
प्रचण्डसँग
चापीय
प्रचारमा
जन्माउने
बिचौलिया
भित्तामा
##बक्स
##ेटो
धर्मराज
##ध्यात्मक
सूर्या
स्रष्टा
वितरक
परिपाटी
उड्ने
मानवअधिका
गुल्मीका
##टाका
उद्योगीले
जेठो
##ेबल
डाउनलोड
अत्त
कक
हकहित
बस्छ
विस्फोटमा
##धरले
सप्लाय
विद्यालयबाट
दराज
##ँच
उर्लाबारी
बिष्णु
नेमकि
##दर्शक
##ामुखी
रोक्नु
सप्तको
आजीवन
आगम
बैङ्कका
##ट्टामा
महोत्तरीमा
कश्मीर
गन
उहाँहरूको
##ब्रेक
हात्तीले
थाल्छन्
##उरो
उदयपुरमा
##तलाई
##पालक
पुरीले
दयनीय
गरिदिनु
##शले
##चिङ
कलात्मक
टुंग्याउने
माधवप्रसाद
जनकराज
लोपोन्मुख
दायाँब
भुजेल
देखिँदै
मकवानपुरमा
युट्युबमा
राठौ
##फस
##सिं
मनन
चुक्तापूँजी
विजुली
पठाई
व्यवसायीहरू
कुकुरको
##दिँदा
##किला
##ाइनका
##नुभो
दुवैमा
भूकम्पमा
चैतदेखि
सोध्दा
बुबाले
##यकोष
बित्यो
श्वासप्रश्वासमा
बिस्फोट
सयमा
विलिय
ऐरीले
भनेजस्तै
मुलुककै
छुट्याउन
खोजतलास
छिनो
प्राइम
##दोहो
लगाइएका
वेल
१६८
डाइरेक्टर
मञ्ज
##पका
गर्छन
टिमबाट
एकमुष्ट
गाउँकै
अलैंची
##्याउनुपर्ने
जनै
महशुल
एमसिस
बर्दियामा
काखमा
##खरी
##बखत
हुम्लामा
##मुदाय
अस्ट्रेलियाका
आश्विन
लिडर
मेसी
निकालि
बेत
##िदा
##ुद्ध
बोर्डिङ
रोजा
तयारीको
कृषिजन्य
##फिया
सटर
##रेखा
बेमौसम
लाली
##ेशनका
हुन्छौं
गेटमा
आयातित
शताब्दीमा
सोभन्दा
मूल्यका
अस्ट्रेलियाले
एनआईसी
##र्जिन
तपाईंहरू
नरैना
भद्रकाली
वर्षायाममा
छोडेका
सुन्तली
कार्यपालिकाको
रावलको
##बाई
छोपेर
सालिक
ग्राभेल
##यामिक
पिलर
लोहनी
घिउ
मुस्कान
गम
##उँन
##पानीमा
टोलका
पाइरहेको
लगायतमा
युवकले
फर्काइ
नीर
निरी
भरिएका
व्यथा
अभिभावकलाई
घुइँचो
##ेस्ट
संस्थाहरू
सुविधामा
अनलाइनबाट
रंगको
छूट
##ड्डी
टाइगर
ज्याकेट
##सोन
सिटि
पछाडिको
दुष्
श्रमिकले
भित्र्याएको
##गाउँमा
##संग्र
##बहाली
कानमा
ह्याक
बन्दीपुर
एमसीसीको
दलबाट
अभिमुख
आनाकानी
थानकोट
बोहोरा
घण्टाभित्र
##फाइनान्स
##देखी
##याक
अवगत
##ढाएर
मनमु
फ्रे
एजुक
इनिङमा
सेवाले
##्याड
बासस्थान
सकिँदा
सिड
महाअभ
##चनको
वाक्य
चुलो
तलव
##ब्जी
##नरसिंह
##ङ्गर
परीक्षणबाट
गर्नैपर्छ
गुराँस
खाँदबारी
उचाई
कण
थिई
बन्दोबस्त
##राल
परीक्षार्थी
##लेमा
##११
अपहरणमा
ल्याउनुपर्छ
पठाउनुपर्ने
मिनेटपछि
हुस्सु
मुसा
नदिनु
##ेटको
सिमसार
लेख्नु
इलाकामा
दोस
कार्यकालका
नराम्ररी
एमालेकै
प्रोटोकल
म्यान्चेस्टर
##र्मित
मण्डलको
हन
दशौँ
सिटीलाई
संकलनको
##गृहमा
##टिको
ऋणी
एपमा
पौड्य
रोकेका
लडेको
धिर
##िसक्यो
सन्यास
काइ
फोटोग्रा
आशीर्वाद
दशरथचन्द
मुस्किलले
पश्चिमका
जुस
बेसार
पत्तो
पायक
अभियानअन्तर्गत
अतिक्रमित
टनेल
वृद्धिका
हिरासत
अपील
प्रवीण
फेब्रुअरीमा
##ओको
मकाल
प्रदाय
निहित
स्टिकर
शक्तिमा
सर्जिकल
असन्तुल
धीर
##वादका
हेरेका
उठाउनु
गेल
सुप्र
घरघर
आफूखुसी
फ्लाइट
साधना
##वादलाई
अन्नबाली
माउन्टेन
एम्प
##विकरण
त्रिविले
जिम्मेवारीबाट
कुमारले
आकास
कारवाहीका
फार्मेसी
स्विट्जर
पर्वतारोहण
कार्यक्रममार्फत
श्रीलंकाका
##ीम
कागजमा
आरोहणका
##खानामा
पौरा
कर्जामा
केशर
##स्टी
##क्सनले
तिब्बती
गरेबापत
घलेले
माग्दा
##बालाई
जुनमा
अख्तियारी
##ौज
मान्यतालाई
कांस्य
##नाइज
दोलखाको
धनमा
उत्पीडित
अपराधका
मीरा
वर्षमुनिका
##र्नका
युभेन्ट्
द्रुतमार्ग
विगतदेखि
##ेसा
बर्षा
चोटका
साँच्चिकै
दाखिला
त्रिको
नवदुर्गा
ठान्ने
##बू
परिवर्तनले
अलिअलि
शालिकराम
##कैया
चुपचाप
पञ्चाङ्ग
संकलनमा
स्पष्टिकरण
नगदसहित
##ायौं
पुग्नुपर्ने
लहरमा
राजभण्डारीले
बिचौल
शर्मिला
०७१
कलकारखाना
पर्दामा
##शाह
घुल
योजनाअन्तर्गत
पशुपं
##सामान
नेतासँग
प्रयोगकर्ताको
परिषदका
अनलाइनमा
चुल्
##खाई
बहसको
एफसी
पूर्वाधारमा
किशोरीको
शहरका
व्यहोर्ने
##म्बे
पाण्डेयले
प्रवद्र्धनमा
फ्रेन्चाइ
राष्ट्रसंघले
गण्डक
असिना
विवाहमा
असिस्ट
पूर्वएमाले
जितेपछि
विद्यावारि
रेलको
संख्याका
बिताउन
मैदानको
ओखलढुङ्गा
हुनसकेको
मुचुल्का
कृषकको
साँखु
##भाउ
प्रधानन्यायाधीशले
##वाड
##म्बरको
तहमध्ये
डेमोक्रेटिक
पाइन्
रेलिग
नितान्त
प्रतिनिधिलाई
वर्षौ
##काका
आयरल्यान्ड
गुणस्तरको
कोहली
सीमाको
संशोधनमा
निरन्तरको
साधु
समयभन्दा
व्यहोरा
##ुस
भईसकेको
दैवी
##यताको
गाडीले
##ेतिक
मध्यपश्चिम
थेग्न
जरू
करिअर
जुलाईमा
##र्पोट
बाँड्न
पुनर्क
सुदूर
दायाँबायाँ
सामग्रीहरु
ज्याद
डायलासिस
राउतको
##न्दरी
##लकोट
##५०
मेलब
सिन्धुपाल्चोकमा
गदै
लिस्ट
तनहुँमा
कान्छो
लोकल
कानुनबमोजिम
##्रेसन
हुनुले
जर्मनीले
जङ्गली
उँ
स्वास
आफैमा
सोहि
पुर्वा
एसइई
तारिफ
##तास
घरलाई
विश्वराज
पुननिर्माण
चट्टान
##टिन
१०६
अर्थमन्त्रीले
चोप
##ेबा
राजपत्र
नेविसंघको
##प्दै
उदाहरणीय
डिप्र
भत्काएको
निरीह
सिक्का
छनोटका
ओछ्यान
##ाधिन
पुरिएको
##ताउने
##लील
पुनर्विचार
सम्पुर्ण
बनाएकी
नेविसंघका
न्यौपानेको
बहुरा
थुनु
परिवेशमा
लिङ्ग
भइरह
एभर्ट
बजेटका
प्रहारबाट
बिचमा
ढाँ
बोगटीले
##ठामा
दिक्क
विमर्श
बताइरहेका
हिंस
काउण्टर
पारसले
दिन्न
चिन्न
रहेकै
१०७
बस्तीको
त्यहीं
वर्षबाट
नागरिकहरु
##ारिक
प्राङ्ग
युवाहरू
निस्केका
सिरहामा
हर्
प्रलोभन
##क्रेट
अप्ठ्यारोमा
गायब
सासू
प्रिन्स
पौराणिक
त्रिकोणात्मक
भट्टलाई
सोचेर
सेमिन
पुनर
##हामा
कदमले
अभावको
आश्वस्त
खबरले
कमिस
ट्रान्ज
शृंख
पोलिटब्युरो
विषयहरु
##चक्र
एकआ
परिसरका
सेवनले
सिकेको
मतपेटिका
सृष्टि
सन्तुष्टि
ऊर्जामन्त्री
गुमाउन
##ीकरणको
ढकाललाई
असफलता
धुर
स्लो
सुझाएका
क्वी
ओइ
##स्ले
कार्यालयहरु
कर्णबहादुर
रकमा
##गर्दा
बिहानसम्म
खोपलाई
##वाडी
##ीकै
गर्नबाट
फरकफरक
गोही
दिलबहादुर
##मण्डल
लाग्दो
गुर्ज
तोकिएकै
उमेरको
सिरहाका
सिद्धान्तको
बहुआयामिक
सेनापति
भिसामा
लचिलो
ब्रह्मा
पुछारमा
अढाई
उपलक्ष्यमा
संस्थाहरूले
##वादले
##टान
धम
खाडल
चिनीको
इष्ट
उपचारकै
##िसके
सिवाको
खगराज
खोर
पुँजीवादी
शेर्पाको
कटा
करियर
भ्रष्टाचारमा
सेन्टरको
व्र
##लेन
जनताबाट
आयुर्वेदिक
पूर्वसन्ध्यामा
मनमुटा
डिट
केन्द्रबिन्दु
##भागमा
मागसहित
फेसबुकले
##शास्त्री
बसपार्कमा
कुण्ठ
पिएसजी
क्याबिने
गरेलगत्तै
##दाताको
संयम
प्रत्यासी
आश्रममा
लागिसकेको
ल्याउ
मान्छेहरू
चिरञ्जीवी
त्यसअनुसार
भयान
संजय
##रुक
लिब
किमा
##फोनको
जनाएपछि
स्थलको
विद्यार्थीहरुको
थालियो
##ियोलोजी
जगाउने
धर्मावलम्बी
महिलाहरुलाई
##ठे
तम
चौथा
भेटिने
द्वार
आतुर
कुर्सीमा
०७०
पदार्थमा
जीवनयापन
सम्हाल्न
उपसमूहको
हातको
जोरपाटी
श्रद्धाञ्जलि
घरहरु
भरेका
भत्किएका
कुपोषण
पिङ
घरबार
खेलपछि
सारेर
सेतोपाटीसँग
प्रवेशका
##१६
राण
होटेलमा
बानेश्वरमा
कार्यहरु
##ल्याण्डको
नियुक्तिमा
शान्ता
नगरपालिकास्थित
एलेक्स
रथी
उभिन
छाउगोठ
##ेण्टी
ग्रान्ड
भोग्दै
भोग्नुपरेको
गरिँदैछ
201
जनताप्रति
सेनिटाइजर
बूढानीलकण्ठ
वनका
गुटबन्दी
किंग्स
गुन
अन्तरालमा
आउनेको
खुल्यो
भोलिको
##िकले
##ौँदेखि
चिनिन्छ
गतेसम्मका
धनगढीको
त्यतिकै
फार्ममा
नेवारी
केला
##झु
प्रया
सान्त्वना
ध्य
बनाइरहेका
हाम्रोमा
समुन्न
छिनोफानो
नजान
थप्दै
चित्रबहादुर
चुनिएका
##देवीको
सोचका
आवतजावतमा
कोरोनाभाइरसका
एचआइभी
पत
##क्कल
विश्वा
नसकी
भयानक
##दिएर
##र्ई
सटही
##होरो
गुल्म
कट्ठा
गीतका
ब्राजिलको
थला
विराटनगरस्थित
तनावमा
आत्मसमर्पण
##िनुपर्ने
माइक्रोफाइनान्स
देशभक्त
##िएकै
थरु
गर्दैछौं
लुकाउन
ट्रान्सफर्म
कार्यन्वयन
फुटाउने
उत्रने
प्रवृत्तिको
युवायुवती
पिँ
अफिसियल
मैथिली
रोजगारमा
रियालिटी
निश्चय
##ुरको
प्लान
चुकेको
कोलक
कर्पोरेशन
महाराजगन्ज
##जनिक
भागबन्डा
स्वयम्भू
आइसकेका
समयले
चण्ड
##र्सलाई
प्रस्तुती
च्याप
चिम्
वर्गीय
ज्वाला
आँकडा
टुंग्याउन
बानियाँले
बललाई
वर्षसम्मका
वाध्य
यसैको
केहीलाई
सक्दिन
खुलाएको
मरु
##गुट
##बलको
छोराछोरीको
झोलामा
गिरीलाई
धर्नामा
##स्ट्री
पीडामा
##कुण्ठ
##म्बो
##लगायतमा
प्राधिकरणमा
कारोबारी
रोयट
युक्रेन
वड
##ँले
##र्नले
सुरक्षाकर्मीलाई
गर्नैपर्ने
निषेधाज्ञाका
अनधिकृत
शिक्षिका
ट्यांकी
##ैबाट
##ंगामा
बुटवलका
लागिरहेका
वरपरका
२०६१
हुनुपर्नेछ
देखिएकी
पश्चात्
पुरुषतर्फ
उनीहरुसँग
गुरागाई
कराते
भूपेन्द्र
संचालित
##जलाई
राष्ट
हानि
##आरको
माहा
##बरा
##स्थानको
सरु
चाल्ने
अनलाइनखबरलाई
मस्र्या
निशा
रोल
आइड
गुह
हलो
त्रिपुरेश्वरस्थित
दस्ता
जाँचका
मजदुरलाई
इण्टर
झलक
शशी
भेटका
आरती
मध्यपुरथ
छल्न
##कोमा
संगीता
निजको
करिअ
बाध्यात्मक
##िजम
व्यवहारले
पञ्चेश्वर
बर्दियाका
तिर्नुपर्छ
जोस
##मित्र
भविष्यका
सेन्सर
##मध्येबाट
सीपी
छरितो
अलराउ
भन्नाले
बर्दियाको
एमबीबीएस
महीनाको
##घो
अमरगढी
मिडियाको
पहलकदमी
##टल
संविधानसभाबाट
लोहनीले
##डब्ल
पारेपछि
एन्टिब
सोचि
१७५
##हलमा
सिटीका
महरालाई
बब
छान्ने
##तारे
प्रतिकार्य
भएसम्म
विश्वविद्यालयबाट
फन्ड
दिनानु
बाँडेको
##गुना
सामग्रीमा
तपाईँको
कार्यकर्ताहरु
पुनर्कर्जा
##्याे
सुनेका
विपत्
##म्का
श्रृंखला
ग्रसित
वस्तुमा
बन्दाबन्दीका
दाद
तेजाबी
ओगटेको
आवागम
##न्छौं
ग्राउन्ड
केके
नजिर
एकअर्कालाई
नजी
स्मृतिमा
बद्
##लगायतलाई
##भावित
झल्का
घरधनी
ब्यवस्थापन
याममा
लायन्स
न्यायोचित
प्रहरीमाथि
कम्पनीहरुको
सत्ताधारी
सिग्देल
पाइएमा
रकेट
सर्च
##वाणिज्य
हुँदैनथ्यो
केन
पुष्पराज
मुखबाट
पेमेन्ट
खतराको
मड्रिडले
##ग्रो
मानिसहरूको
हृद
बस्नेतलाई
सीले
जोडिएर
एथलेट
##कुन
सिमेन्टको
कट्टेल
##ेश्य
दशकको
ब्रिग
सोनाम
पाइल
दिन्छौं
प्रतिगामी
परिक्षा
ब्रिटिश
नियमको
##डब्लु
बिरामीमा
विधिपूर्वक
गाउँघर
युएन
दिनेछन्
निर्मम
छक्क
पूजाको
मूर्त
छुवाछ
लव
महानगरमा
धानबाली
सीधा
गड्डा
सानी
जिरो
हिंसामा
मिलेन
लेबन
मौलिकता
स्थानीयस्तरमा
इङ
देशभ
फुटेको
छिटोभन्दा
सुनका
तिरि
खारे
बितरण
प्रोटिन
सानैदेखि
##गानी
घटेपछि
मोक्तान
असामान्य
नर्सरी
छानिएका
पाँचखाल
प्रतिब
संयोजकमा
पोथी
सदस्यताको
बार्ग
पालै
धेरैपटक
बहा
पातलो
##ः४५
भोलिका
सञ्चारकर्मीसँग
नचाहने
##िवी
##यराम
लकडाउनलाई
सिएम
रजिस्ट्र
पाथीभरा
नवयुग
रिपोर्टिङ
पटक्कै
शितल
माम
माविका
मिटिङ
सडकले
सम्झौतालाई
प्रतियोगी
##ौलो
##मार्गी
क्रियाशिल
आत्महत्याको
खस्ने
##स्टा
##ायुक्त
उम्मेदवारका
समान्य
##ुकता
जगद
लिइसकेका
##क्रिट
कार्यालयमार्फत
रेक्टर
##बिरुद्ध
आर्सनलले
##र्द्धन
बल्झ
हज
##क्सु
भाइरसलाई
##ठमाडौं
कारोबारका
सिड्नी
राधेश
न्युरोड
दार्चुलाका
चासोको
गर्दथे
##र्चा
चिल्लो
१९२
घरबे
सांसदहरूको
चितुवाको
##र्थीलाई
सातापछि
जरूरी
सङ्क्रमितमध्ये
##प्रथम
उभिने
छैठौं
खुब
टर्मिनल
जिल्लामै
अन्तरमा
सेनानी
युएईमा
गरिरहनुभएको
देखाई
यसबीच
उन्नति
बंगाल
##पारि
##ग्गे
मोडलमा
पसलबाट
राजवंश
जनावरको
११८
ढुवानीका
मित्रराष्ट्र
संभव
बजारले
बूढा
उद्योगबाट
##घारी
तुल्
ग्यालेक्सी
गन्त
नपाई
स्पर्धामा
ओनस
दिनप्रति
ब्रत
खनिज
बुझाउँदै
शेरचन
स्कटल्यान्ड
सुपरिटेन्डेन्ट
स्याङ्जाको
रेटिङ
विवाहित
पछाडी
संकटकाल
चेतन
मकालु
##जातीय
हच
सत्यनारायण
शून्यमा
सानदार
प्रअ
मनोहरा
एकादशी
ज्ञवालीको
##लोर
गरिरहने
##पीले
सर्तमा
खेलमैदान
पदयात्र
एनआरए
ज्ञानेन्द्रले
गरिसक्नुपर्ने
बागलुङका
एथ्लेटिको
डिएनए
फालेको
सेरो
##्सको
##र्के
ट्रकले
धनराज
जनाएकाे
परिस्थितिलाई
कपिलवस्तुमा
बहुराष्ट्रिय
बुथ
उत्तरमा
माफिया
प्युठान
जलेको
लगाउनुपर्छ
लुइँ
एमबि
हुनुपर्दछ
मन्त्रीपरिषद्
पूर्वसचिव
जीबी
ठान्छन्
##ियस
द्वन्द्वपीडित
नबि
बमले
##ेसले
दावा
मालवाहक
धादिङका
सर्वपक्षीय
##जरी
##टाल
कांग्रेसकै
ब्यांक
उत्तेज
सुधार्न
०८
मन्त्रिपरिषदमा
कथन
##ाउनुभयो
फलदायी
भेटवार्तामा
चोलेन्द्रशमशेर
कम्पनीहरु
सोल्टी
मिथुन
शायद
खालि
मुद्ध
समाहित
मनाङमा
##अन
राखिन्छ
भइनसकेको
प्रयोगबाट
बिक्रम
सिंगापुरमा
संगीतको
##भर्ट
डिफेन्स
जस्तापा
आवश्यकताका
२०५०
##टिलो
##बासीलाई
कोरोनाविरुद्ध
मैनबत्ती
वाद
##ञ्जली
प्रचण्डबीच
मध्यस्थ
हेडक्वा
जनाका
पोसाक
##विच
नियमअनुसार
गराइरहेको
असारको
म्याराथन
सत्याग्रह
##र्मल
बगेर
विज्ञको
##नुपर्ला
मनग्गे
खोज्नुपर्ने
सहभागीता
कुलेखानी
##भराउ
##िन्हो
आउँथ्यो
पाटी
बाढीबाट
बढाई
प्रतिकुल
शाखारहित
अधिवेशनबाट
जेभीले
14
फ्यु
भरी
##पतीय
भन्य
न्यूनिकरण
छेउछ
साथीलाई
स्थानीयवासीलाई
##छुतो
दिवंगत
##ल्भ
भिडियोको
रजनी
तस्तै
##पूर्जा
चिन्ने
गतिवि
लामिछानेको
15
ठगु
फर्ना
यससम्बन्धी
प्रधानमन्त्रीबाट
द्वारा
पृष्ठभूमिमा
##िसमेत
चाडपर्वको
##ालाइ
निर्णयसमेत
भूभागका
##म्य
टावरमा
कागजी
अम्बिका
भाषिक
##देस
##वक्ताको
##जात्र
कामचलाउ
एकातर्फ
मत्स्य
नातेदार
कोले
##मेक
अन्तक्र
##नुभए
दुर्घटनाका
प्रगतिको
जनजी
प्रतिशोध
##ढि
गराउनुपर्छ
किचलो
##र्पु
मापक
डिभि
सर्वोच्चका
असुरक्षा
##सँ
वर्षभित्रै
एकाधिकार
भूगर्भ
##महा
जानुप
सयपत्र
मनाएका
मर्मतको
फलामको
ज्वाइँ
न्यायाधि
मुस्ताङमा
चियापान
दुह
क्लबसँग
छिरेका
##स्ते
##बीआई
आलोचक
क्लिनिकल
तदार
##पन्न
थकाली
रामनारायण
जुध्न
गोलअन्तरले
कतिपयको
भुटानी
पासो
खोजेपछि
पेशामा
अवशेष
दोगडा
ओहो
मुख्यमन्त्रीमा
उनीहरुबीच
##सेफ
पाएकोमा
हेलिकप्टरबाट
ब्यानरमा
बसा
##महि
हिँड्नु
टाउ
लेद
सुवासचन्द्र
सकिएर
पदाधिकारीमा
श्रेणीमा
काे
यादवका
गोमा
उठाइएको
खलंगा
मुड
देवराज
एक्सरे
ब्राजिलले
चौपाया
##कन्या
आईपीए
##ड्के
मुल्या
लोकसभा
अमे
रेफर
बढाउनका
सिग
प्रयासले
संयुक्तराज्य
ब्याट्सम्यानले
दिपेश
कोहलीले
लुइँट
तमिल
संघीयतामा
बीचमै
न्यायाधीशहरू
ब्याटिङको
बढ्
##िमूलक
खेतबारी
##शनका
##अनुकूल
समूहगत
कृष्णगोपाल
चर्किएको
दार्जिलिङ
राम्
यात्रालाई
सहानु
त्यागेर
##बिनै
रोकायाले
प्वाइन्ट
बहुपक्षीय
मुश्किल
नाबाल
मर्मतसम्भार
गरगहना
टिस
रङको
दृष्टान्त
देशसँग
मुद्रास्फी
गन्तव्यको
आगलागीमा
सिरियामा
##ियरको
##ेशी
कुल्
इन्डेक्स
जगेडा
छालाको
थालेकाले
कदा
##िएला
जोडदार
नराखी
पाउन्ड
आयआर्जन
देशभरी
गराउनुभयो
अतः
एकसय
पाटनमा
##जला
संगम
##तारा
आमजन
हेरिरहेका
चाहन्न
मुख्यतः
भूमिकाको
ताम्रा
अस्पष्ट
##द्घ
जनायो
बढाउनुपर्छ
मागहरु
##क्सको
गरिएकाे
लाभकर
##ष्ठमा
##प्रताप
नगएको
##र्जनमा
भित्रिन
पुस्तिका
उच्चतम
##न्तुक
चित्रकार
बयानमा
##बिएस
भेटिन्छ
पाकिस्तानलाई
अनलाइनमार्फत
इपिड
##धाममा
##सारी
दिएँ
तवर
##न्क
##ारेको
किन्दा
सर्वप्रथम
सुबि
चौरमा
विधायन
वटासम्म
काष्ठमण्ड
छन्त्य
रिर्पोट
प्रजातिको
उदासीन
नेताहरुबीच
११९
गोदाममा
बजारसम्म
##पुटी
भोजराज
शंक
##ञ्चलका
सहायताले
##शित
बहुल
इमेज
सेकेण्ड
माइनस
अश्व
पासव
ट्याङ्की
मितव्य
पोखेका
एक्ला
अंगीकृत
##वृत्त
अभिव्य
तीनकुने
गाउँपालिकाबाट
बाटा
नबन्दा
##ानिल
जाँगर
##म्या
धरहर
नेताहरूसँग
वर्षहरूमा
एरि
पहिराले
##ेवी
अंग्र
##र्सल
नारायणहिटी
##नियो
उनीहरूमा
विद्यार्थीहरू
दैलेखमा
आइसिस
संस्कृतिलाई
बिओपी
धर्मशाला
किनारामा
गर्जन
चल्दैन
खुर्सानी
भिक्षु
दिनानुदिन
महामन्त्रीमा
सप्ताह
पुर्जी
कराँ
इन्टरनेटमा
अभ्यासको
विस्थापन
जोन्सन
संरचनालाई
औल्या
बिनो
सिक्व
आँशु
पौड्याल
सुन्धारा
कलर
संकलनका
लमजुङको
करोडमा
हाजि
संक्रमणलाई
कलाकारलाई
भाग्यमानी
धवन
मन्स
प्रशंसक
सपनामा
बन्नुपर्छ
काभ्रेका
ओनसरी
निर्देशनअनुसार
ठोकुवा
##वतीको
चाहिं
घन्ट
जिल्लास्तरीय
पाँचै
मिलापत्र
भोगिरहेका
खेल्दैछ
तीनपटक
कश्मी
##्रेट
प्रमुखका
अश्र
निया
##पुत
साउनको
सहसंयोजक
##िदिने
कलाकारहरु
सिरियाली
अड्क
दिशातर्फ
नगरेकाले
अफिसर
हावाको
चेतनाको
पूर्वप्रधान
रावतले
झाँक्री
हेरौं
टिप्न
छायाँकन
जेठी
##बीर
अन्तरस
माविको
##खालको
घाइतेलाई
छँदैछ
रहोस्
##ङ्ग्य
##ुवामा
गहत
गित
पस्न
##गे
रूपा
नर्थ
समुदायस्तरमा
त्रिलोचन
खैरो
चलाए
नियमावलीको
नखे
निति
कामसमेत
महावाणिज्य
मिलो
बाध्यकारी
इरानमा
२०२३
सूर्यप्रसाद
खाएपछि
##जालाई
बिनि
दिनुपर्नेमा
भइरहे
ग्याँस
चमत्कार
आवश्यकतालाई
बजारीकरण
##माझ
राष्ट्रपतीय
डिल्लीबजार
स्वीट्जर
जम्मु
##ैरेनी
पाल्पामा
म्याग्दीमा
सङ्घीयता
सुध्र
गड्डाचौकी
##जिङमा
##पाक
##न्यु
ट्रेनिङ
एकआपसमा
झुप
१४९
प्रचलनमा
१२८
##कोटका
भ्रमणलाई
अपराधीलाई
##डामणि
सिलगढी
राष्ट्रपतिमा
##पुत्र
दाहालका
साथीहरुलाई
##आमाले
लेभल
व्यवस्थापनले
आँगन
बेलासम्म
हर्षित
विदेशीको
छान्न
बाँस्कोटा
2020
##शाल
गर्नुभएका
त्यतिवेला
कामदारका
गजुरेलले
##ामुनि
संस्थानका
सिसा
छोएको
विधेयकका
खुलामञ्च
दुबईमा
महिनाभन्दा
अनैतिक
अत्याचार
फ्रेम
##फेक्ट
हस्पिटलमा
वाग्लेले
##राजनीतिक
##सक्नुपर्ने
बुवाले
असुल्ने
खुबै
राजदुत
जव
##ौरा
##ौनी
छानबिनका
हप्तासम्म
घिमिरेलाई
कटुवाल
##निधि
उपकप्तान
सामाग्र
निद
सूर्यलाई
एकतापछि
आड
योद्धा
भरिभराउ
मानवता
प्रतिवेदनमाथि
कोभिस
स्टी
सोचेका
ऋणमा
##शिव
इन्डिज
##ामाथि
हालसम्मकै
##विकास
मेका
खेमराज
डिपार्टमेन्ट
नविकरण
शहिद
ट्राय
##नाईटेड
१९९८
जनप्रतिनिध
२०६०
प्रत्यक्षतर्फ
भद्रगोल
देवकोटाको
रहित
चनाखो
अभिनन्दन
टुप्
लचक
बढाइरहेको
समयभित्र
प्रतिशतका
गोल्छ
नमिलेको
उर्व
##रमाथि
मोटरसाईकल
ओम्
पाच
बहुमूल्य
विचलित
पूर्णचन्द्र
ठोरी
गतिको
##पिओ
नवप्र
मन्त्रिपरिषद्बाट
राधेश्याम
##शमा
सिंहदरबारस्थित
जाडोमा
##म्बन्ध
गुल्मीमा
##जङ्ग
##हाउ
##एले
वैधानिकता
प्रतिवन्ध
किसानहरु
कालिमाटी
लाग्छन्
निर्देशकको
राखेकी
किक
निलो
बिन्दुले
अनुपम
गोल्डकपको
पढ्नुहोस्
गोसाइ
किलोग्राम
कनेक्टिभि
परिषद्मा
कवितामा
निधो
महिनाभित्रै
कतारले
सिंगल
ट्वीटमा
पाल्पाका
##द्धार
गुड्ने
शृङ्खला
हदै
बीर
नभएसम्मका
निश्कर्ष
आफूभन्दा
मन्त्रीहरुले
संक्रमितले
अड्डा
##क्च
अमृता
बदमा
भागबण्डा
सीट
अवसरका
ढोकामा
पर्यटनमा
सुर्तीजन्य
खारेजीको
थार
सचिवलाई
अभिनित
पुनःसंरचना
##वितरण
मानसरोवर
बिमस्टेक
##रीयता
खेलाडीहरुलाई
फाउन्डेसनले
मस्र्याङ्दी
##िएच
प्रवृति
रेष्टुराँ
ब्रिगेड
##कथा
##कपुर
फुटाउन
टाढाको
##पहिले
##टाङ
आभास
सुमित
संसद्का
चिनजान
पाइन्छन्
हस्तकला
##आम
अफवाह
सुनौलो
धर्मका
अफ्रिकाका
##त्से
व्यक्तिहरूलाई
महिनौं
अधिकारीहरुको
दिनरात
मूलका
डेपुटी
उजुरीका
सकिएका
अर्गनाइज
भित्रमा
नागरिकहरुलाई
इच्छाशक्ति
प्रबल
पेशी
समू
पठाइसकेको
स्थानीयका
कमिटीलाई
टेन्ट
हेटौंडामा
स्वार्थमा
आयोजकको
रघुव
सहकार्यका
इयर
मस्क
पत्रकारसँग
सर्जरी
धरो
अधिकारीसँग
लेखनमा
पोल्याण्ड
##ेन्डमा
सीको
निर्णयपछि
##गड
##लमार्ग
चढाउने
प्रोफेसर
बस्थ
पर्यटकहरु
झार्ने
सत्यता
दीपावली
चासोका
##जीमा
तहसँग
विरूद्ध
फर्ममा
##ओसी
डिला
बिक्रीमा
रेन
हिउँद
ढङ्ग
वरीयतामा
१३५
बिचार
आपूर्तिमन्त्री
ढुवानीमा
डिस्प्ले
गढी
ठेकेदारको
यूरोपेली
प्रोस
##चेष्टर
कपडाको
समुहले
एसीसी
मतभार
सुझावलाई
खाल्डाखुल्डी
१३६
बलिङतर्फ
तमु
##बारेको
अवरोधका
सभ्यताको
##दथ्यो
##रोटी
केन्द्रविन्दु
चाव
त्यहीअनुसार
रकमान्तर
अवधिका
नेतृत्वदायी
जानुअघि
पून
##साग
गुम्
चलाइरहेको
पार्थ
ग्रस्त
आइपुगे
ध्वजा
##न्जा
रिसा
कामीले
अप्रिय
##ारालाई
दरका
व्यवसायीहरुको
##क्जिट
मर्क
अवतार
देशहरूमा
##लैया
##रिएका
समायोजनको
प्रवेशको
भेटी
संस्थाहरुको
प्रभात
सुन्दरीजल
##ोभ
छलफलबाट
उत्पादनले
मनाएको
फुटबलका
भ्यालेन्स
वडाबाट
सूचि
ग्रुपका
उध
##वर्थ
माय
पुष
भटमा
जन्मजय
रेलमार्गको
पर्चा
नदिइ
आइपिएल
सिकाउन
दरबारको
पेन्
##ुन्जेल
साम्
सुझाए
उमेरले
पठनपाठ
विराटनगरले
रमेशकुमार
मध्यरात
घुमाउरो
##रथी
##कना
संगत
धनगढीका
सम्पादित
छुवाछुत
स्वयम
##किन्स
महत्वपुर्ण
उनीहरूसँग
चरेस
फिल्डमा
##ुम
गुटगत
##ङ्ग्रे
बैदेशिक
बिमान
पहिलाको
पठाएपछि
लगनखेल
##फिर
खोटाङको
##सनको
##लानी
स्क्वा
एसियाको
जोडीलाई
##निष्ट
खेलाडीहरुले
उत्तराखण्ड
##निर्देशक
गरीबी
मन्त्रिपरिषदले
वेवास्ता
रंगशालाको
उद्यमशीलता
##सह
##श्या
संघर्षका
संकटका
अन्तक्र्र
नेपालभर
गर्दाको
##न्त्रित
सिकेर
स्वामित्वको
##टिकल
सम्हाले
तत्त्व
घना
##िमै
भृकुटीमण्डपमा
गिटी
ब्यालेन्स
संचारमाध्यम
##ज्योति
स्वास्थ्यसम्बन्धी
कांग्रेसकी
११२
महामारीलाई
हेर्नुपर्ने
अपनत्व
चकित
राष्ट्रसंघका
अन्तरक्रियामा
सोना
फुटसल
अल्टिमेट
अनुसूची
आठवटा
टिप्
झापाले
मनसुनी
वारपार
मध्यान्ह
प्यूठान
सुशासनको
खिचा
अटोमोबाइ
हेन
भट्टराईका
मनपर्ने
नाकाबन्दीको
खनेर
बुझ्नुपर्छ
दृष्टिविहीन
कर्कट
पूर्वाधारका
चकले
अचार
भरुवा
कुण्ड
ब्यहो
पाउण्ड
##ँको
स्टेज
व्यापारीको
तिक्त
धनकुटामा
पैसामा
पाचन
सरिक
चाहेनन्
हेर्नुपर्छ
दाइले
##इले
पूर्वमहामन्त्री
विशेषतः
धव
हट्न
प्रविधिले
महेन्द्रले
खिल
रोकिएपछि
बेमौसमी
प्रायोजक
दिएमा
अहिल्यै
काव्य
एनसी
चन्द्रपुर
हुदाँ
अम्
परेकालाई
डोल्पाका
##कोटको
##हिम
##पर्य
कार्यक्षेत्रमा
नगरपाल
हाँस
ताइपे
##कोस्
हुनेलाई
स्कुलका
डिलर
क्याले
##इतर
तरिकाबाट
जनम
सिंहदरबारको
बराबरका
फछ
अर्यालको
महाम
उजुरीमा
गुम्ने
राजभण्डारी
विसर्जन
कृत
लगायतलाई
अपनाउँदै
सापकोटालाई
पढाइमा
##तीत
लिम्बूले
##गीत
कमर्श
आत्मबल
कोटामा
मन्त्रीहरू
चिसोले
भाईरस
स्याटेलाइट
केबलकार
ग्य
तस्करीको
सबस्टेसन
निमन्त्रणामा
युनाईटेड
##तिरै
चौकीका
सुपरस्टार
सवारीमा
समाचारको
गुम्ब
सिन्धुलीको
बलात्कारी
सोध्य
झू
नवि
पाँ
दुतावास
विद्युतीकरण
सिकिस्त
कीर्तिपुरस्थित
टेर
##न्टिक
दसैंको
तानाशाही
ऐक्यबद्धता
ठेगान
पौष
पार्नुभयो
फेवात
अश्लील
मण
##संगको
##ाइन्
मुसि
केहीको
भना
पूर्वसांसद
योङ
बिजेता
##ल्टा
अन्तः
विवश
मानेनन्
डब्लूएचओ
प्रान्तीय
चिसापानी
नतिर
##रत्न
बदल्ने
केजीमा
##ेक्टर
एभरेस्ट
सुनुवाइका
ठोक्किँदा
करुणा
यार्सागुम्बा
साङ्
ब्रोड
##यात्मक
गाउँसभा
सुधारमा
संक्रमितहरुको
करिश्मा
सम्झौताले
##िकेटेड
भोग्न
सूचकांक
कोल
व्यक्तिहरूले
ग्रुपले
##वालको
पिडित
झिकेर
आरोपको
क्रिकेटका
##ैदेखि
चलिरहँदा
चल्नेछ
फ्ल्या
बजाउने
गर्नुहुँदैन
घुलमिल
ह्याम
##पर्वमा
संवादमा
लक्ष्मणलाल
धरोहर
सामान्यदेखि
देवदह
मिटरमा
पहाडको
क्याम
हलिया
तिमल्सिनाले
##ानिलक
##चुअल
इजिप्
खोज्छ
सांक
मुम्बईमा
तेरो
इलामका
धर्मशास्त्र
वरियतामा
थपिए
०६३
##सुलभ
पिछडिएको
##बन्दीलाई
सावित्रा
हर्कत
हिक्
मुद्रामा
अग्रसरता
असी
##ेश्वरमा
थरी
आदेशले
##दिष्ट
खेपि
परिवारबाट
खिचेको
सुनाउन
वडाले
अनलाईन
क्वालिफाय
दीपककुमार
आइएस
लेनिन
##न्तरित
निलम्बित
प्रतिनिधी
हप्ताभित्र
भ्याल
##ीमाई
तोड्ने
१९९९
आइसियू
##ाराज
पुँजीको
नाली
प्रतिपक्षमा
धनकुटाको
इद
लगाउँछन्
अफगानी
जाहे
दिशाबाट
जुडो
उनीहरुमध्ये
महŒवपूर्ण
जनवर्गीय
बिनोद
व्यहोरेको
समर्थकले
व्यय
पठाइएका
दसैंमा
चिनाउन
पौष्टिक
आईजीपी
कट्टर
बैंकर्स
विदेशका
चिनाउने
बिर्सन
नगरौं
फर्काएका
सङ्गठनको
थिम
ठेक्कामा
टेस्टमा
एआईजी
##कमजोरी
कार्यकर्ताहरुले
बिदाको
बनाउनुपर्नेमा
अनलाइनका
##सियम
म्यानमारको
भन्नेबारेमा
फ्लाइ
लेख्छन्
क्रिम
आलमले
छत
गाएर
कान्तिपुरसँग
रक
डिभाइ
पूँजीको
सवैभन्दा
##ूल्य
बोन
##फाइल
दोगडाकेदार
कुन्
आख्यान
##ौना
नचल्ने
किसानहरुले
भर्या
विरास
सञ्चिति
सम्वन्धित
पैठारी
टाई
मतदानस्थल
हँुदै
नखाने
सोचाइ
कार्यसमितिले
०९
राख्नुभएको
लाजि
बनाइदिने
कूटनीतिज्ञ
ऐश्वर्य
समुदायबाट
यतिसम्म
हिँडे
घूस
##डीपी
##चोटी
##सबाट
नाकाबन्दीका
छरिएर
विद्यार्थीमा
उठ्यो
बोलाए
अन्त्यसम्म
योजनामन्त्री
पर्वतका
रामायण
पपुवा
नतिजामा
म्यानमारमा
पालिकाको
निर्देशिकामा
दार्चुलामा
खड
मरे
##पनालाई
रहिआएको
भारतबीचको
रामवरण
अख्तियारका
विषाक्त
हाते
खरानी
बदलिएको
पकाएर
अभिव्यक्त
पग्
हिर्का
हालसम्मको
म्यूजिक
नरहेका
##ऊन्
आगन्तुक
आचारसंहि
##िंग
क्षेत्रमै
##ठ्ठा
लिगामा
त्यसैका
खेतबारीमा
तस्करीमा
पछ्याउँदै
ट्रान्जिट
सागको
बार्सिलोनालाई
##थ्र्य
नसकेमा
पर्वतीय
नित्य
##ंच
महासङ्घको
##ब्याक
काङ्ग्रेसका
तपाईँले
मेडन
बनिरहेका
जमात
पाग
सुस्
##रणको
निशाना
मानिसहरूलाई
##हत
नगराउन
एकतावद्ध
##पेक्षित
न्यायालयको
टोका
आमन्त्रित
मानी
नियति
पिपिई
लाखदेखि
यसैलाई
पोखराले
विकल्पको
सहकारीमा
काशी
काउन्सिलको
इण्डो
##भीको
##सिनाको
प्रक्रियागत
##बर्ष
केमिक
सगुन
बताइन
##ंग्र
आँख
उद्धारको
##हरुसँगको
##ाउँदैनन्
स्थानहरूमा
कुलप्रसाद
गतिविधिले
उद्यमशील
बेक
##मग्न
चीज
गार्हस्थ्य
कार्यविभाजन
पालैपालो
अपरेशन
भनौं
तमोर
गृहले
थ्रेस
गरीएको
प्रयासलाई
अगाड
नदेखाएको
##१८
मिर्च
जनमान
समितिमार्फत
खोपका
अभिमुखीकरण
##दण्डको
एनि
##शहर
शिशुलाई
वीरगन्जमा
##ठ्ठ
ग¥
##ाग्रस्त
##ंग्रे
18
जिसी
भित्ता
मेष
हुसेन
##योगी
कुमाल
आदिमा
वृद्धको
प्रकाशचन्द्र
##छे
आउनुपर्छ
##िमाञ्चल
बिचल्ली
इन्ट्री
क्लोज
चौरस
प्रभाग
हितको
बन्दैन
सवारीलाई
कोठे
सरोकारवालाको
##ल्ठूला
भनें
गर्नेहरुको
खैरह
पार्दासम्म
एप्पल
सिरिया
उम्र
चन्दननाथ
##ग्स
त्यहीँबाट
सङ्गठनले
##घास
शुक्रबारसम्म
महराको
तुल्सी
नभएकै
चुल्हो
काठमाडौंलाई
रोल्पाको
सालसम्म
घटक
परीक्षकको
देशहरुले
११७
##ितर्फ
लगिने
विकराल
पहिरोबाट
बास्केटबल
धराश
दिनप्रतिदिन
विकासशील
१३औँ
जनयुद्धको
कारणबाट
टुँडिखेलमा
लत्या
वातावरणको
विभेदको
जनसमुदाय
याङ
दिल्लीस्थित
संवाददाता
##ूपयोग
##लुका
वैशाखदेखि
निर्ध
पत्रकारिताको
चर्चाको
तृ
गुणात्मक
क्षणिक
नेदरल्यान्ड्स
उजुरीको
धाम
सुन्नु
खतिवडालाई
कयौँ
##सियाली
कम्मर
तपस्या
लाउ
##बाले
गौचन
कित्ताकाट
इन्स्पेक्टर
अस्पतालहरुमा
लोकबहादुर
बिघ
रोट
चार्जिङ
अन्सारीले
तिमल्सिना
ल्होसार
##र्दो
सुपथ
संस्थासँग
बाजुराको
##ँै
##भालाई
जनस्वास्थ्यका
बहुमतका
छापावाल
क्याल
पुराण
चिन्तामा
कटाक्ष
थाल्न
एकमत
पृत
मानार्थ
कांग्रेसभित्र
शाखाबाट
खेल्नेछन्
टि२०
क्यासिनो
बादलले
ग्याल
किताबमा
मझुवा
सुहाउँदो
छिन्न
भ्याक्सिनको
एप्स
गुमायो
हटाउनु
यसभन्दा
परम
उच्चारण
पर्वतमा
पोलि
खन्न
स्वास्थ्यलाभ
##गाँठ
प्रविधिमै
डब्ल्यूएचओ
##ाटार
##रिन
क्लास
दुईमा
द्वन्द्वमा
तित
सरकारप्रति
##म्पुर
भारतकै
मार्गदर्शन
अर्कोलाई
##त्राले
विदेशीले
समानताको
ताप्लेजुङमा
पौड्यालले
##ोलाई
बाँस्तो
छोड्नु
सेवाग्राहीसँग
नवलपरासीमा
प्युठ
##ामोल
छैनन
भन्सारमा
रुपैंया
कर्ज
गोष्ठीमा
कमीकमजोरी
भिडन्तमा
अभ्य
मिनेटसम्म
खर्चिलो
खडेरी
पटकमा
जुम
वर्षमाथिका
सौगा
उड्न
हटा
दमकमा
लाङ
म्यानु
जमानत
जनअ
सरोकारवालासँग
एसोसिएसनका
जू
##भाले
##म्पाट
खाद्यान्नको
यतै
##ल्टै
##कुले
रुकुमको
##टोलमा
अपमा
##ुँ
निदान
नमस्कार
बेग
वेभ
नेपालगन्जमा
दुवैजना
स्वार
घट्ट
कारवाहीमा
आसि
##ेन्टल
##खुशी
फौजी
##ंघ
भ्रामक
मितिले
कुण्ठित
पूर्वअर्थ
समृद्धिमा
नमु
दुलाल
अत्तरिया
वातावरणमन्त्री
गजुरेल
विमति
विदेशीलाई
इतिहासकै
प्यारो
##ेदारी
कोलो
यसप्रति
सदस्यहरुमा
खोपले
गतवर्षको
सिनेमाको
सांसदहरूलाई
स्थितिलाई
ड्युटी
धकेलिएको
डोल्
सर्पले
कलक
मिलिमिटर
परिमाणको
पुरिएका
उपस्थिती
पेपर
विश्वले
हाँस्दै
वकिलले
१४६
कोशि
परिदृश्य
मञ्चको
अधिवेशनले
विमानस्थलले
30
प्रविधिका
छाड्नु
२०२८
१९९७
बोहोराले
गल्छी
स्वेच्छाचारी
केन्द्रबीच
जीउ
बैजनाथ
रिसोर्टमा
सक्ला
तपाईंहरु
किटान
पुगिन्छ
प्रयोगलाई
इपिडिम
बहसका
सर्टिफ
मनाइँदै
रुचाउने
दोभान
दुर्गाप्रसाद
माप
गएकाे
एकिकृत
पुगेन
पठाउँदै
##कुम
एशोसिएशन
##त्पादक
बिरालो
##िकामा
पाका
##नुभयाे
कतिको
रक्षाको
बिस्कुट
राफ
प्रतिवेदनलाई
ट्रम्पका
हितलाई
निलम्बनमा
नाफ
गणतान्त्रिक
आरटी
वासिन्दा
पहें
ढाकछ
सच्चा
कामपाले
छाप्ने
अगामी
प्रता
##नुअघि
घुँडा
विप्लवले
चित्रकला
##जेनेका
शर्तमा
भान्सा
नीलो
ट्युब
गीतहरु
सुब्बाले
अख्तियारमा
पृथ्वीमा
##्मा
दिर्घ
पहिचानका
हतियारको
शङ्कास्पद
दर्शनका
दुनियाँमा
ब्रेक्जिट
##िर्देशक
सुन्दै
वृष
इन्भेष्टमेन्ट
बेलि
त्यसविरुद्ध
##तुर
रुपैँ
सार्वजानिक
तुलाधर
मलेसियाका
हुमागाई
हिक्मत
कहानी
बिहानी
सोचेजस्तो
परम्पराको
##सना
चुनौतीका
प्रतिनिधिमण्डल
कसिलो
बगरमा
शुक्रबारबाट
अग्रस्थानमा
उपमहानगरपालिकामा
बैक
जननिर्वाचित
फाँट
नेपथ
कोल्ड
सेमे
मनोहर
अकस्
काेरा
मनस्थिति
तपाईहरु
##दर्ता
छिमेकीले
एमबा
वर्षापछि
खत्रीको
पतिको
नवलपरासीका
यामा
पर्वलाई
तारक
मामिलामन्त्री
पर्ला
सुरुङमा
परिवर्तनलाई
त्रिदेशीय
दुरुस्त
लाग्नुपर्छ
कुहिरो
परीक्षाका
श्रीलंकाको
सातदोबाटोस्थित
लह
##प्या
##हाद
##ेजका
१८८
खोलाबाट
वर्चस्व
काजी
गोबर
चालिस
मोर्चामा
लज
सरी
खाद्यवस्तु
ब्राजिलका
पैदलयात्र
ब्राण्डका
लघुवित्तको
##ल्याण्डले
चामे
जाउँ
आइलाग
निकाल्दा
भण्डारीका
सपनाको
मीनबहादुर
फूट
राजनीतिबाट
३३०
बंगलादेशसँग
दुबैले
लेखापाल
खिच्ने
सकिएला
चक्कु
वटामा
समझदारीपत्रमा
##ढ्य
वर्षअघिको
दरबारमा
ताकि
पलाएको
आलोचित
यथास्थितिमा
चोरीको
झाँक्रीले
यिनको
##टेन्सन
पेरिसडाँडामा
कोरियोग्राफी
योजनाकार
##बका
रोकिए
उधार
संघिय
जीवनभर
इन्टरट
तमाम
द्ध
दुरीमा
मेजर
भुक्तानीका
परम्परालाई
नखोज
##ाइटिस
संक्रान्ति
मनाइँदैछ
शुभचिन्तक
##तसो
##लागण्डकी
हावामा
सम्वन्धी
उकास्न
भाषणमा
क्रिष्ट
मगरलाई
आकाङ्
खेतीको
सामानहरु
वरु
##लिएर
भुक्तानीको
बोगटी
थे
एथलेटिक्स
दरको
डेभ
जाँदैन
प्रविधिमैत्री
##ैको
घुमि
झिल
झाको
##न्तरमा
किरिया
सर्वसाधारणमा
आइतबारसम्म
भग्
##शनले
सवस्ट
कोस
खोस
ब्यू
उद्गम
अपराधिक
रामको
संघलाई
गर्नुहुने
प्रशासनका
ल्हा
डेडिकेटेड
जड
गोलबजार
पालुङ
चक्का
परनिर्भर
कोषलाई
अस्ट्रेलियन
आहारा
राजपाको
रघुवीर
लाजिम्पाट
एक÷एक
अकस्मा
मेट्रिकटन
रघुग
##ेबर
##ेक्सन
सुवालले
##ंन
कृष्णचन्द्र
सन्तुलनमा
स्तनपान
##ेजस्तै
सचिन
डडेल्धुराको
गौरीशंकर
भैलो
यज्ञराज
माघे
कार्यसमितिका
नगरपालिकाकी
विश्वासका
एनपी
अर्घ
##तिलाई
यात्रुहरु
टर्क
##सोले
प्रयासको
डेभलपमेण्ट
माध्या
साधनले
ब्युरोले
भनिरहेको
युद्धका
चौँ
जोड्
उज्ज्वल
सुरुआती
दृश्या
शुक्लागण्डकी
पाला
कार्डको
ओपनिङ
१९९६
भाल
##ण्डो
ससाना
सीमाना
##ियौँ
झुला
चिउरा
उखान
जगा
##ियरमा
देख्
नाचगान
भलै
विज्ञहरुको
पूजापाठ
झाँकी
प्रदर्शनकारीले
माटोमा
##ियारको
साताका
प्रशोध
रोजाइ
कोरला
राइट
परिस्थित
बाचा
तारे
तिनमा
भाका
सिंहका
उड्य
थालेकी
फैसलापछि
##१७
लुकेको
कुमा
११६
अर्थतन्त्रका
च्यानलमा
##मणी
टम
राक्ष
बालकुमारी
वृत्तमा
ट्रान्सम
बाघले
##ङ्क्ति
१७०
जसोतसो
वृत्ति
कानूनले
सशक्तीकरण
##क्षत्र
वादी
सुनकोसी
##याङ
पालिकाका
बेसी
लाखका
दैनिकजसो
रोल्पामा
आप्रवास
बर्न
भरेको
आवश्यक्ता
##म्पर
मुलुकसँग
##नोस्
फालेर
सामथ्र्य
मिचेल
##हल्ला
स्टोरी
नहुनेमा
पोखरेलका
मस्तिष्कमा
##ेयरमा
##ब्रिज
ब्याजमा
गहि
अनुय
राजपुर
बाह्रबिसे
शिवमाया
सफारी
जातिका
गाउँपालिकास्थित
हिमपातले
मेकअप
##ौलमा
##बाटोमा
सकभर
मूलधार
शैलेश
कोभि
भिक्ट
हावापानी
सर्जियो
##र्पी
##भाषी
भाषालाई
ढाकछोप
##सञ्चाल
उदघाटन
अजर
इब्रा
बुद्धले
छुट्याउने
सरोकारवालाले
बालीमा
तप्
१३४
फाइदाजनक
कावासोती
सम्झन्छन्
घटनाबाट
नुवाकोटका
##पत्नी
दावेद
पाठशाला
होटलका
लुकी
युए
कुष्ठ
खोजीका
सहिष्णु
अनुष्
माओवादीमा
बाहिरिए
नछोड
फ्रेन्चाइज
##डिङमा
सदस्यहरूलाई
नैन
जान्थे
आपूर्तिको
##दरले
##लाइज
दिल्लीबाट
अर्चना
आगोले
दुरूपयोग
गाउपालिका
फलामे
झल्को
ठूली
थालिसकेका
चाहन्छौँ
तम्घास
##क्शन
सच्याउने
झरेका
हैदराबाद
बनाउँछन्
##ईं
बेइजिङमा
विद्यावारिधि
ओख
गाएको
##ागन
भन्नका
घोडाघो
भारती
आएकामा
वर्षभित्रमा
खरो
ओडि
##्र्यौ
नलगाउने
गाँस
नखुलेका
##लिप
पुनलाई
कार्कीका
त्रिपुरासु
फले
प्रयोजनको
हुनेबित्तिकै
भुव
एन्फाको
पुटिनले
केन्य
अबेरसम्म
शोमा
त्यतै
बाह्रै
प्लेका
रुपैयाँबराबरको
डिमा
समारोहलाई
डडेल्धुराका
राजतन्त्रको
दर्
खेमा
चैनपुर
स्वच्छता
उसैको
गर्नेहरुलाई
मुटुमा
छिचो
बारको
मङ्ग
विरोधको
शान्तिका
##ब्स
हिँडिरहेका
विष्टलाई
पराजुलीको
कनका
त्रुटी
मनोनयनमा
गलकोट
##िसियन
ब्रम्
थुन
१३३
भेड
निस्किए
संचारकर्मी
बगान
मट्ट
दिनै
सम्मानका
जन्ती
भिड्दै
म्याट
सरसफाइमा
मदर
शम्शेर
सवारीसाधनमा
महासन्धि
एकएक
एनएमबी
##राती
पाहुन
राजेन्द्रप्रसाद
सोमबारसम्म
##र्याए
श्रीलंकामा
अवकास
##श्चिक
राजकुमारी
प्रत्यारोप
नलगा
पार्वत
अरि
##क्लि
##रोले
राजीनामाको
बहिर्गमन
फ्रिक
जिज्ञासामा
रानामगर
बर्थ
साँगा
मस्त
घाइतेहरुको
सहयात्री
जोखिमबाट
लक्ष्मीप्रसाद
अहोरात्र
लागेमा
निर्माणपछि
डायल
##राख्ने
काण्डमा
##दन्ती
कोहि
मनोजकुमार
सङ्कल्प
परिवारजन
डाँगी
जनशक्तिलाई
सन्धिखर्क
खिमलाल
भूतपूर्व
रतन
महासेठले
अभ्यस्त
कानुनका
##वाणी
प्रतिनिधिहरु
##ारि
बनिसकेका
फल्ने
मन्त्रीपरिषद
महतोलाई
सङ्खुवासभा
बूढीगण्डकी
कार्पेट
कबड्डी
दिएपनि
क्यानको
##ियासँग
ढकालका
कम्पनीहरूको
आसपासको
बार्गेनिङ
बाबुले
शपथग्रहण
त्यत्रो
अर्बपति
दशैँको
##ारेर
बाँसको
थोमस
अछामको
अकाउन्ट
वृद्धिमा
निर्धक्क
साधारणसभाले
##फेरो
सानातिना
युगको
माध्यामिक
उनैले
रुखमा
रोकाया
लेख्दा
अभिन
##छो
साँझको
एम्पुल
४५०
रोनाल्डोको
ख्याति
उनीहरुमाथि
विज्ञले
सैनामै
डोल्पाको
लुकि
बालकोट
औरही
छानवि
##सम्मान
सम्बोधनमा
कतारी
सेक्टर
लिप
##ेन्सका
भीष्म
##एमए
अध्यादेशको
क्लबबाट
धर्मेन्द्र
##ँक
##िकमा
दलबहादुर
चिहान
वढ
भत्काइ
ज्याक
नेपालीहरूको
गोलाप्रथा
सयपत्री
सेक्रेट
रामबाबु
समानुपातिकतर्फ
जगदम्बा
##देनले
गृहसचिव
पप्पु
##थोल
राजकिशोर
रुचा
बिए
##्रोइड
यतिवेला
इन्भेस्ट
गाउँदै
बस्नुपर्छ
फैलियो
शाक्यलाई
मुस
साताबाट
जागिरे
शोभ
मान्नुपर्छ
गडबडी
##द्घि
सुरुका
##ंगर
तीजको
##स्ट्रो
##यरले
खेलाडीहरुको
नवरात्र
बहुविवाह
प्रचुर
अध्ययनअनुसार
कन्फ्र
मिर्चैया
##िसि
अन्यलाई
सल्लाहमा
१२६
अपेक्षाकृत
प्रमिला
निर्णयविरुद्ध
भविश्य
दुईजनाको
ल्याबमा
नेविसंघले
स्वेच्छिक
हत्याकाण्ड
सत्कार
स्यानिटाइज
गुठीको
##दाह
१२१
यथार्थमा
##बिधि
सिंचाई
छर्ल
सति
पात्रको
गू
घटनाप्रति
प्याकेट
अर्धशतकीय
तपाईंहरूले
तारेखमा
ग्रेट
चन्दको
जासु
उपत्यकासहित
तुल्याउने
क्वारेन्टाइनको
तपा
कसूर
काँचो
##रागी
बढिसकेको
ओलीविरुद्ध
रुद्रा
प्लेकार्ड
सर्वसुलभ
बाँधि
थिइनन्
१४५
चिन्ताजनक
रोल्पाका
प्रसन्न
पोल्ट
पवित्रा
अन्तर्क्रिया
##ामका
टिपेर
गृ
वासिङ्टन
निजामति
चाँदनी
रोजगारदाताले
अन्तिमसम्म
##गाउँका
बोल्ट
गभर्न
ह्वीप
बार्षिक
संयोजनमा
उडाउने
सकरात्मक
टेलिकमका
जोसुकै
ऐनलाई
टेक्निकल
अबै
समकालीन
बैंकक
पर्यटनलाई
अष्ट्रेलियन
रामहरि
उमे
##वु
दार्श
ट्राभ
जहाँसम्म
##रक
भोलिपल्टै
यसप्र
आउँथे
बजाएर
##सिपल
##तिरबाट
पुच्छ
पल्सर
सेता
सहजताका
म्याक
अधिकृतलाई
दिवसमा
राख्नुभयो
लज्जास्पद
अनशनमा
##फान
##ट्रा
मादी
छुट्याएर
ढाँचामा
बुढानिलक
उर्मिला
हार्ने
बनाइन्छ
अनेकन
निभाउन
एशो
##लाम्मे
सिता
फैसल
कन्फ
रम्
एआइजी
विजेतालाई
आलटाल
परिसकेको
बर्षिय
भीमप्रसाद
सङ्कटमा
ससुर
चुम
असमझदारी
दिनच
एपीएफका
नेपालसँगको
लगाउँछ
कृषिलाई
प्यूठ
सफलताका
ट्याब्
महँगा
नमस्ते
सांकेतिक
बरू
##रमार्फत
प्रतिस्पर्धाबाट
रसुवाको
अग्रगामी
घट्नु
इटली
किराँत
मुसिकोट
ब्याण्ड
गरिसकेकी
पद्द
पर्सि
मनास्
थरुहट
सक्त
##सरा
स्पाइ
विकल्पका
वर्षात्
ग्ले
गर्नेछौँ
जनचेतनामूलक
मान्नुपर्ने
##गिनी
जसकारण
आउनेलाई
हुनुहुन्न
सेन्टरका
गोसाइँ
पठा
बझाङको
##संग्रह
खड्गबहादुर
एमबाप्प
होहल्ला
मुद्र
चोटपटक
बिजयी
हिमपातका
##ण्ठमा
पठायो
नदेखिने
इन्स्टाग्राममा
कठायत
नहरमा
थन्किएको
सुबिधा
कड
भीमफेदी
ठाने
लगाव
सामान्यतः
फैलने
मलेसियाले
क्षेत्रहरुमा
हीरा
##ुके
तवरबाट
राउतलाई
साम्राज्ञ
अतुल
कव
गर्र
##कुश
अस्वभाविक
मार्टिन
सासु
संघारमा
थालेँ
##ार्जुन
सम्भवत
राखिनेछ
घरभाडा
स्पेनले
अवसरलाई
सिटिज
##फ्टी
विहिबार
##ियर्स
सिन्द
खानत
ठम्याइ
एकोहोरो
छाय
##पन्थ
##सम्मलाई
सुरुङको
हरिवंश
पाम
##ेपनि
सेकेन्डमा
१३७
सविन
फर्किनु
मल्टि
नन
भरपुर
गराइसकेको
बुढामगर
गर्नुपर्दा
महिलाहरूले
बस्नेछ
मिनेन्द्र
निस्किने
छुवाछूत
सर्वसत्ता
आफुहरु
नरहरि
सौराहामा
##हीले
पथरी
अभिन्न
##्युत
बहुप्र
विजयादश
##ङलाई
बढीभन्दा
थपलिया
पन्थीले
जाउ
ठीकै
उठेपछि
घुँ
##िरहेकी
##दामा
उहाँसँग
##नेस्को
##विपरित
##भिज्ञ
अजि
##याउने
##ियुक्त
नेवा
तालिमको
कानूनमन्त्री
एयरलाइन्सका
##जाका
ओठ
सिप्र
जाँचबुझ
700
कम्पनीहरू
मन्त्रीहरुको
सकोस्
पटकथा
शेयरधनीले
##्क
##क्लै
आइन्
मिश्रको
स्वार्थको
पारा
एअरलाइन्स
खानका
बच्चन
पहाडका
नुवाकोटमा
अर्जेन्टिनाले
इटहरीमा
##बहु
फुटाएर
प्रवृत्तिलाई
काठमाण्डौं
नख्
गिज
नक्षत्र
उन्मूल
नखो
अफगानिस्तानबाट
##२५
मांस
किर्ग
सीमास्तम्भ
इनिङ्स
खराबी
ब्याच
रित्तो
सिर्जनात्मक
गोर्खाली
सुरुको
पर्यटकीयस्थल
धरानस्थित
प्रदूषित
मुद्रास्फीति
गेड
उहाँहरूलाई
कोइरालाका
अस्ता
कोल्
##िएन्ट
बेलायतबाट
नाटकीय
दार्शनिक
आसन
एआई
##मिति
अनभिज्ञ
गराइन्
१८९
सुकै
तत्काललाई
कायस्थ
तामाकोसी
जमै
थ्रो
ओलीकै
दक्षिणमा
कन्फर
भगत
नागार्जुन
सक्थे
प्रशस्तै
सामानमा
##ीयू
##ाईमा
नराखेको
##मोड
सिद्धान्तलाई
निण
आग्रहसमेत
मालबाहक
##नुस्
साँध
प्रतिवि
भनिन
कोई
बगाएपछि
विचारलाई
चप
सिनाम
त्रासमा
सेभेन
ढल्केबर
पशुपंक्षी
##यास
निर्णयसँगै
देशभरबाट
पटेलले
र्फ
मलमा
##निर्धारित
##टाणु
अन्तमा
घरदैलोमा
मुछिएका
पूर्वउप
यात्रुबाहक
बगैँचा
आचार्यका
सिन्धुलीमा
एकमा
मनिषा
अल्टिमेटम
२०५५
उपक्षेत्रीय
खोज्छन्
किलोवाट
टार्ने
इटालीको
नवनिर्मित
अधिनायकवादी
ओखर
सामन्ती
गौरादह
##रोपण
कर्ना
फुटेर
चौंथो
हाजिरी
खोइ
आइपिए
वासिङ
##तापूर्ण
ढिक्का
##थौ
विलम्ब
##पुस्ता
चुनावपछि
बजेसम्मका
बिजु
सुनिएको
प्रशिक्षकमा
व्यवसायीसँग
##ज्यूले
सहानुभूति
खम्बा
झ्या
यतिका
बिहेको
तहसन
उत्प्रेरित
दर्ज
झट्ट
त्रासले
##खेरि
उदृत
##सम्बन्धि
हत्
भावनाको
आआफ्ना
पागल
रामदेव
योजनाहरू
मन्दी
सङ्क्रमितलाई
नरोकिने
ढुकुटी
इलेक्ट्रिक
निक्षेपको
गथ्र्यो
घडेरी
साँवा
सर्टिफिकेट
##ँन
सोड
जलाधार
मन्त्रालयमार्फत
छक्काको
खेलाउने
वैज्ञानिकहरुले
कटुवालले
फर्मा
##उन्मुख
मागका
##दरवार
लगाइदिने
ध्रुवी
नबन्ने
जन्मदिनको
अब्दुल्लाह
इसेवा
##थानका
व्यवसायका
जन्माएको
उपसभापतिमा
बढाउँदा
##न्धा
##ाैं
##िरि
गर्नेदेखि
##श्मि
नेप्सेको
खुलेआम
घरबास
##लागिरी
जाजरकोटमा
स्काउ
प्राविधिकले
तथ्यलाई
दुवैतर्फ
रिंग
संस्कृतिविद्
नेपथ्य
मण्डलामा
भग्नाव
तपार्इ
चरणबद्ध
अरुणा
एन्टिबडी
पूर्वसभामुख
समूहबीच
सैनिकले
मौकामा
श्रावण
साउँ
दुर्घटनाबाट
##गेट
क्षेत्रीको
पूर्वराज
शहरबाट
अचेत
पर्यटनका
म्
सुभाष
महाशिव
गर्थ्यो
नगरले
गराइन्छ
अस्तित्वमा
धर्मनिरपेक्षता
अविवाहित
कञ्चनज
निराशाजनक
बताईन्
निर्माणकार्य
लेखी
संसद्लाई
शिवम्
तोडेर
नमिल्दा
एप्लिक
बजेटमार्फत
नरि
वस्त
##टिप्पणी
##शान
भागव
रणबहादुर
पद्धतिको
##ल्फ
देखिँदा
अन्त्यको
तता
##र्जुन
आएनन्
पीर
##िनालाई
पद्धतिमा
नभनी
मुनिका
##प्रका
आक्रमणका
सहकारीका
बाढीमा
सनस
गरेजस्तो
पुर्वाधार
७५०
लगाइसकेका
अधिवेशनका
अरेबिया
सई
तलाको
मलाइ
##्द
खेल्नुपर्ने
एकपक्षीय
विज्ञहरु
न्यूरो
पुनःनिर्माणको
वनले
दुःखको
##सर्ग
देख्छु
गुमाइसकेका
मंगोल
कार्यक्रमबीच
##रूपण
बनाइन्
जानै
सौभाग्य
सल्यानमा
बेजो
पेचिलो
मायाको
शीतलहर
बचेको
आक्रम
खेलले
साटास
सम्मेलनलाई
छायांक
बेखबर
चाहीँ
विमानस्थललाई
संरचनागत
महँगी
##िमे
व्यवस्थापनलाई
सेरोफेरो
##पै
कोभिसिल्ड
एकजनालाई
अवमूल्य
विचारधारा
गर्दछौँ
हेत
गाएका
##खोज
अर्थव्यवस्था
साँढे
औंला
हत्यारालाई
सम्भाव्य
नरह
##वेको
मान्द
वर्गले
##पहि
##बाज
लीलाम
##ेताको
##वनारायण
उपमेयरमा
ट्रान्सफर्मर
नलगाड
गालीगल
जहिल्यै
बर्ग
फोक्सु
शरीरले
गुण्ड
##सेनाले
टेलिभिजनको
घोडाघोडी
रनमै
उद्देश्यसहित
सञ्चारमाध्यमहरुले
एम्बुलेन्समा
##नेले
घट्दा
हुम्लाका
बन्दका
तारबार
सम्हालेको
युभेन्टस
रत्
##मुताइ
मेरुदण्ड
नाटकको
गठनमा
पुलबाट
करीव
चाडपर्वमा
गुप
##भटे
एकरुप
व्यापारका
सरकारसमक्ष
राजपरिवार
२२५
एएफपी
लद्दा
##द्वी
स्टिभ
त्रिपुरासुन्दरी
वीरगञ्जको
ये
महिलाहरूको
##लाइसिस
यताउ
निवासको
एनआइसी
प्रस्तो
प्रतिशतलाई
रोजेका
धनाढ्य
खन्य
##कर्ण
कोरोनासँग
##ग्लै
मनास्लु
इंग्ल्यान्डले
##पती
##स्ड
अवलोकनका
जन्मस्थल
न्यायाधीशद्वय
बिग्रेको
खोटाङका
##द्दिन
कामु
मनग्य
धिमाल
परामर्शमा
खुशीको
सवारीसाधनलाई
उसकै
जर्मनीका
पाहुनालाई
इच्छाका
कृष्णा
किलोको
स्थिती
पोष्टमार्टम
ठाकुरको
गराउनुभएको
महारानी
असारसम्म
कमाए
स्क्रब
गंगालाल
साटासाट
अहिलेलाई
दिएसँगै
हुनैपर्छ
होडबाजी
छर्ने
एकअर्काको
##िकको
हटाउनुपर्ने
काल्
पार्टीभित्रै
बेचि
१२३
कलाको
चिकित्सकहरूले
गर्थिन्
बेंसी
पानीलाई
दुबैको
औँल्याए
सुरक्षण
मन्त्रीमा
तर्फका
वैशाखको
लन्च
##न्सको
लाभदायक
तहसनहस
रञ्जन
##सडक
##तेल
बलका
न्यायपरिषद्
हमि
यात्रुवा
पिकअप
चन्द्रागिरी
चाहँदैनन्
स्वीडेन
धुम्बाराहीमा
१२२
विज्ञहरू
ललितपुरले
एचआई
नियोजित
मान्दैनन्
संस्थाहरुलाई
बंगलादेशी
त्रिपक्षीय
मज्जा
नागढुंगा
##टिहानी
विधाका
धुमधाम
झाडापखाला
##फ्रु
विभ
निस्त
खहरे
आउनुभएका
इजिप्ट
होमिएका
साधनका
##ताङ
ग्राण्ड
दर्जी
झग
##ँमा
दिइएन
कोठाबाट
शौचालयको
भिल्ला
##ल्सको
खुम्बु
बनार
स्पोर्टस
चेन्
दिलेन्द्र
आइसीयू
बजेटलाई
##छौ
सर्रा
खुवाएर
##छेक
##शीको
गुजरात
आंक
खेतीका
यूएस
##भंग
बिबिस
आत्मीय
सञ्जालले
भग्नावशेष
स्रोतसाधन
सिनेमामा
भरिपूर्ण
सिकाएको
रेस्टुराँ
अभूत
डेल्टा
क्वार्टरफाइनलमा
जिल्लाले
निर्वाचनले
एकापसमा
क्षत्री
पूर्वनिर्धारित
आरएसआई
कार्यसमितिमा
०६४
भान्सामा
पस्ने
##भमेन्ट
##म्सले
इन्कार
खानलाई
पृथक
ढङ्गबाट
धमिलो
मुलुकहरुमा
जानुभयो
रुपैयाँसहित
सीटी
चित्
सञ्चालकलाई
अन्जन
जयराम
खानेपानीका
बयानका
इमर्जेन्सी
पेजमा
टर्कीको
महर्जनको
आवश्यकताको
बुझे
अवार्डको
सहमतिलाई
जनमोर्चाले
अभ्यासका
व्यहोर्नु
##दातालाई
प्रशन्न
बंगलादेशलाई
एपिएफले
हिल्सा
मनमुटाव
राजालाई
बच्चाले
निग
##राह
भइहाल्छ
कुकुरले
बढोत्त
चम्चा
छविलाल
पिठ
अमूल्य
कमसल
खुवाइ
मान्यतामा
##कृती
साउथह
दिपाय
##बिक्री
##पावरको
रोज्ने
एमडी
हड्ताल
##चर्च
देशहरु
बेहोर्ने
आदेशलाई
समुहको
##प्रेम
सर्वहारा
सोध्नु
फाल्न
नुहाउने
लग्यो
कार्यालयमै
हान्न
यात्रुवाहक
चिच
मधेशमा
##काएको
##र्जे
##बुख
प्लटिङ
चिरा
बुधबारसम्म
जोगिने
बेग्ला
न्यायाधीशहरु
कविताको
मायादेवी
प्रतिपदा
उत्रिने
पुडासैनी
प्रचण्डका
भित्रभित्रै
विमानबाट
रंगमञ्च
बालीन
भारतमै
न्यूरोड
रहको
हराइरहेका
दिउँसोको
रुपाकोट
बसु
##िकीकरण
नघट
सेमी
काठमाडौंमै
मेसिनको
अन्धा
कम्युनिक
सहचाल
समेतका
नगरा
##अन्तर
सुई
##आरपी
लक्ष्यको
बढ्नुको
संस्कृतिमा
सेलिब्रे
जन्मकैदको
चुम्ब
बढीलाई
##दिनुस्
कापी
जडानको
##क्षमता
##ल्याण्डमा
युद्धविराम
दृष्टिकोणबाट
कथालाई
प्याजको
मकैको
##बिधान
##करको
विश्वनाथ
हृदया
निर्बा
समारोहका
बर्षदेखि
##हिया
##बेली
शिथिल
१३८
##भूकम्प
गएमा
सख्
आकारमा
##टरले
भाइरसविरुद्ध
निधनपछि
##ालगत्तै
रुपेश
नलिन
पस्
रियो
घोषणाको
सचिवालयलाई
भूमा
सफाई
##कालमै
सर्वसम्मतिले
स्ट्यान्ड
##इबाट
हाहाकार
त्रिशु
बिक्रिदर
मूल्याङ्क
बझाङमा
मन्त्रालयद्वारा
छुट्ने
राज्यकोष
इण्डियन
ग्रो
पालेका
मसिनो
पोस्टमार्टम
##त्रीको
कार्यव्यवस्था
रोप्न
मौसमका
अले
इस
सहसचिवमा
सलमानले
क्वालाल
प्रतिस्पर्धाको
प्रवर्द्धनका
बाजुरामा
टेकुमा
समययता
इपिडिमियोलोजी
राष्ट्रसेवक
गन्तव्यका
नागरिकहरुको
जंगबहादुर
यत्तिकै
खर्चका
सुगन्ध
कानुनलाई
चिसोका
##रुपले
लुम्बिनीको
नमो
##संघर्ष
बैंकसँग
सुझावका
छतमा
खुल्
आर्मीको
बाजुराका
लोकेश
रिपोर्टका
मार्केटिङ
करमा
पसले
गर्दैै
विसंगति
अपि
कतारका
विघटित
तपाईंका
नख्खु
अमन
##नुले
कोला
राष्ट्रप्रमुख
केसीसँग
##पेच
नसा
बन्छन्
मेडिक
बेलौरी
लैनचौर
भेट्टा
संस्थाहरूको
काठमाण्डौमा
##न्जन
नआएका
धुँ
मार्गचित्र
डेङ्गु
भुपेन्द्र
निम्ता
बनाइसकेको
काग्रेस
पश्चिमतर्फ
जानुभएको
अपरेट
असमर्थ
मनीष
##प्सन
१८६
त्यसैगरि
नामावलीमा
चटार
बोरिस
##किङ्ग
कार्यक्र
चैते
##टिक्स
मानवअधिकारको
मझुवागढी
बँद
अभिव्यक्तिले
सङ्गठनका
डेरामा
लकडाउनपछि
काँडा
नरहेकाले
##÷०७
हेरिरहेको
३२०
बापतको
प्रिन्सिपल
एग्रो
वडास
##वासको
समुहका
##त्ला
पारिन्
भाटभटे
जनसेवा
सेन्
हङकङको
कोहलपुरमा
सन्ध्या
अनुहारको
##देनको
सेतोपाट
भत्र
विपक्षीको
समस्याहरू
##खोलाको
##स्सी
##ताबाट
पोका
एमालेभित्र
आमाबुबा
चिडियाखाना
##प्रो
##भारा
भाइको
गइन्
बनाउँ
युनेस्को
बीआरआई
दीक्षा
मितेरी
मट्टित
भगवानको
अधिनायकवाद
##्चा
नम्बरका
दशकपछि
कुर्नुपर्ने
पहेंलो
##संहार
फूलपाती
कत्ति
आजभन्दा
कानूनमा
अफ्ठ
केन्या
मानौं
एफए
निस्तेज
##बहाल
बिजय
##जेल
##बुझा
##यमावली
यूएईमा
अनपेक्षित
युरोपको
अपरेटर
अनुभूत
उमाकान्त
प्यानलबाट
गरिरहेकाले
##ल्याण्डका
नाउ
समाचारले
सामुन्ने
खुट्टाको
सर्जक
लेखमा
जिउँदो
बेंग
१२९
टिप्प
बुढीगण्डकी
प्रवर्धन
जिदान
फूलबारी
छालामा
नलेख
शालि
संबिधान
आइडल
छुट्टी
मिल्दोजु
बियर
##्याउँछ
उपगुट
स्ट्याण्ड
टाइब्रेक
रसाइ
देखेँ
क्षमतालाई
अप्टिकल
स्वाबको
हमलामा
थपिन्
स्तरबाट
##र्थीले
पार्टीकै
##कतै
निष्ठ
अधुरो
##वारले
कमैया
बसका
वास्तव
सम्प्रदाय
##र्डको
जुटाएर
बागी
जेलबाट
##स्पर
प्रधानको
बर्बाद
कुर्म
कालखण्डमा
थकान
देउखु
शुरुवा
महाराज
जगतमा
निवा
निन्द
##हरुप्रति
##लिज
पत्रकारहरुसँग
फिल्मी
##र्नुपर्छ
बुझ्दा
थुनछेक
आत्मक
प्रत्यक्षदर्श
जोनस
काेराेना
१२४
जेठको
घिमिरेका
##प्रेरित
वताए
गुरुङका
दनु
##ेजति
डेविड
इतिहासका
पोम्प
बोलेरो
प्रालिको
जिबी
रोजी
भेट्ट
पसलहरु
अन्धविश्वास
मुकाम
लिइन्
गोल्छा
मध्यपुरथिमि
सौहा
भन्छन
क्याल्
विद्वान
खडक
बैंकहरुको
दिइएका
नाकाको
द्वी
गर्नू
##पानीले
कर्फ्यु
अभूतपूर्व
खच्च
शिवको
कथाको
##छन
लिज
असई
२०५७
दृढता
जुगल
अधिराज्य
कुलबहादुर
घार
पुर्यायो
##खुट्टा
झन्झटिलो
मख
प्याट
कारखानामा
छुने
जलाउने
नक्कल
युगा
उपाधिको
नियमानुसार
लोकमानसिंह
जडित
##ाव
भर्दै
भत्ताको
दिन्थे
खड्क
चस्मा
गोपनि
अतिवादी
वुहानबाट
##द्धय
तारानाथ
सख
गतिविधिको
अर्जुननरसिंह
परियारको
जिउँदै
कीट
डन
स्याफ्रु
##लबन्दी
जानुको
अंग्रेजीमा
सुतेको
बोलेर
उद्योगधन्दा
डिप्
फिनि
##भाक
हुँने
##थियोप
महाग
नामसारी
दक्षि
पिउनु
बेलबारी
मौलाएको
कहि
नजो
विज्ञहरूको
पाण्डेका
##ौलालाई
पारिरहेको
बगैंचा
स्थलमार्ग
म्याराडो
बालुवाटारको
थोपा
सिग्देलले
##र्लिङ
बर्षका
धरानको
संखुवासभाको
##न्को
मार्त
लगाइयो
वर्षामा
क्यामर
आप्रवाह
##्वलन
समेतलाई
मन्त्रालयअन्तर्गत
समन्वयको
बनाउँछु
कुसुम
##लाएको
##स्तेदार
बाँडेर
हाँस्य
बाटै
जानेछन्
पेटको
परिसूच
सम्हाल्
भइसक्ने
प्याकुरेलले
कारणबारे
लिड
निकाल्नु
अस्विकार
कार्यसूचीमा
सेमिनार
एरिया
सुक्ष्म
भुल्क
##विक्री
दोलखाका
खाँण
मिल्दोजुल्दो
पुस्तामा
परिच्छेद
नारासहित
संयुक्तरुपमा
पाण्डेय
बिजोर
वरुण
खकुर
ब्रिज
फाइनान्सको
मिठाई
इथियोप
ठेला
भाडाको
खिचेका
एकभन्दा
##सम्मले
पत्रकारहरुको
आएँ
ज्यानको
म्युचुअल
##जाली
##बहा
देउवाका
७५३
जागरुक
मूर्ख
बच्नका
तिब्बतको
डिक
पुर्याउनुपर्ने
दुर्घटनाग्रस्त
बित्न
त्रिविका
जीवाणु
शनिबारसम्म
पेड
सन्त्र
विपत
१२७
हुँदासम्म
जन्माउन
##गर्ने
पुगेकाले
दानबहादुर
सातजना
साथीसँग
फिर्ताको
सकिँदै
नसर्ने
अडिट
दमा
टिचिङ
गुञ्ज
नाउँमा
##फूर्त
##१४
उत्रेका
जरिवानाको
उपत्यकाबाट
प्याब्सन
मृत्य
##खानी
कृष्णनगर
गुलरिया
आइरन
मोटरबाटो
आफुहरुले
प्रयोगकर्तालाई
मातहतको
पुज
बिथो
लेखकको
##सूची
गान्धीले
थुनुवा
आलेख
नृ
सन्ध
गरिँदा
मौसमको
परिस्थितिले
स्कुलले
वसन्तपुर
##म्यानले
झल्कने
उपनिवेश
भित्रने
सन्दी
अमिर
१८५
हुँनेछ
इन्द्रावती
प्याकेजको
पोर्न
व्यावसायमा
सावित्री
हाय
बाल्ने
भ्रष्टाचारका
फलस्वरूप
भर्सेस
##्सका
बाजे
जिल्लामध्ये
बोइङ
हलुका
नेकपाभित्रको
सभामुखमा
कागेश्वरी
दुर्भाग्यपूर्ण
कुद
बेटी
जुट्ने
सिद्धबाबा
फिफाले
विकाश
फोरमको
कन्ड
तना
##हाका
जानकारीमा
हुन्छिन्
कुवेतमा
लमजुङमा
सम्झन
##सग
##कालाई
वितृ
१९८०
पूर्ववत्
हिरोइन
लुकिछिपी
बढदै
परिस्थितिका
रअ
एकीकरणका
प्याकुरेल
रोक्नुपर्ने
कोभिश
##जेट
##न्नमा
उपायहरु
शासनका
हेलिकोप्टरबाट
मेडिसिटी
सक्कली
खेप्नु
कोशिश
राशी
नबुझेको
खल्ती
##रेट
##पूरक
गर्दिनँ
निर्णयप्रति
बाजागा
आक
अनुराग
##वर्तन
##आइपी
जंगी
कोरोनाकै
अवे
कमान्डर
बज्राचार्यले
##उपा
##पालनमा
सयले
भान्छ
दक्षिणा
पोको
स्वीस
मलंग
सिक्दै
लत
##रमण
केन्द्रसँग
##भेड
परको
चाङ
##जीका
किङ
आयुष
##तीन
शेर्
रिच
उत्साही
पसेका
हत्यापछि
रिटमाथि
हुस
भनेपनि
सरकारमाथि
##ुलर
##मारले
प्यास
पठाउँछ
विपद्को
सुझाएको
प्रतिको
भङ्ग
##विहिन
नील
फलफुल
रेवती
आहा
१५५
यूएन
जोगिएको
हिजोका
देखायो
अछामका
राष्ट्रवादको
कमीले
रावललाई
आफैँलाई
दशगजा
आक्रमक
आफैलाई
सम्हाल्दै
ओपो
##पृ
नेत्री
चितवनबाट
आजित
बहुसंख्यक
चिकित्सकहरु
##राख्नु
जनअधिकार
मन्त्रिपरिषद्का
##नियाको
सकिदैन
##चनमा
नापत
फ्रिक्व
खुल्छ
गरिएकी
काउन्सिलका
चौद
बंगालको
मोडलिङ
सम्झि
कुकुरलाई
हर्म
१४४
अभियानकर्मी
प्रतिक्रियावादी
टिकटको
टाइप
स्थानीयबासी
ज्ञवालीलाई
जर्मेन
सिर्जनशील
मिस्टर
नैतिकताको
गठवन्ध
सभामुखलाई
यसपालिको
झोलुंग
बारका
शिवकुमार
राइनोज
सौगात
१८७
जेनेभा
चल्दा
यान
लगि
विकेटकिपर
पृष्ठभू
उठिरहेको
##्नासाथ
स्वीकृतिका
बनाउनको
खानपानमा
अन्ज
विषालु
पूर्वप्रधानन्यायाधीश
आघात
रोजगारीबाट
डोम
##ेन्चर
स्ट्रो
सक्दैनौँ
बिग्रने
फेवाताल
टाइम्सले
गराउँ
दुनै
फोक्सोमा
##न्थिन्
अदालती
गृहको
सुनाइएको
लोकमार्गको
गणनामा
टेकुस्थित
लाग्ला
१०औं
छोप
लालबन्दी
##मार्क
नबनेको
विनियमावली
आवासको
फलानो
स्वाधीनता
लबिङ
##क्तामा
अध्यक्षद्व
प्रस्तावका
बृहत्तर
जलाशययुक्त
##ूक
लिजमा
##ेवल
##सभाको
क्यूआर
अन्तःशुल्क
##जीओ
अविनाश
नोटमा
##भै
गाउँलाई
पूर्णा
अवमूल्यन
##िती
पुर्याउँदै
##नियामा
समुन्नत
अनाथ
रफ्
टेलिफोनमा
टाढाबाट
कुना
विकेन्द्र
नातिनी
खानाका
भोलिदेखि
लेखाजो
जीवितै
पहर
अफगानिस्तानले
##गुराँ
क्याप
प्रत्यु
मुख्यमन्त्रीका
शिखरमा
सोचले
महाभूकम्प
निश्चल
गर्नेहरुले
भन्नुपर्दा
स्थितिको
कंक्रिट
मामलामा
पर्दछन्
पन्छि
सिमी
लिदै
आजकल
उच्चपद
##सियल
संवादको
##ञ्छित
सिटिजन्स
##विवाद
पिठो
भरिया
लुकाइ
रड
आउनसक्ने
हनन
चलाउ
दुखेको
बास्
भएजस्तो
तुल्याएको
जाजरकोटका
धर्ती
मारु
##काव्य
प्रसाईं
बैंकर
अवार्डमा
अनुशासनको
झेल्नु
कल्चर
##समय
अर्थविद्
इन्स्टाग्राम
स्य
सिह
##पुर्ति
मिलाउनु
##ोहित
प्रश्रय
##ेडाँडा
ट्रकको
नियुक्ती
सस्था
बलिदानी
१९९४
इङ्लिस
चट्याङसहित
लगानीलाई
दिनुस्
दफावार
आईओ
यूवा
क्षतिपूर्तिको
वीरगं
जीविका
आतंकित
##सेकम
रामेछापको
बर्खामा
भिक्टोर
चतुर
चैतको
##सीए
गर्नुहुनेछ
प्रभावलाई
प्रयासका
ज्ञानबहादुर
##थिको
स्रोतमा
पुटिन
अबस्थामा
धरातल
बादी
मन्त्रीस्तरीय
नाघेका
शोकमा
शिवाकोटी
भ्लाद
उसैले
उनकाे
भुइँचाल
पर्थ्यो
दीगो
जालो
बाँडेका
##पोखरीमा
नछाड्ने
विश्वभरी
विकलाई
ब्रिफिङमा
जेड
त्यसप्रति
नाश
##निने
##्याइँ
त्यत्ति
आउनुभयो
जबज
इतिहासले
फोहोरमैला
##ण्डामा
राष्ट्रघाती
पदस्थापन
आतंकवाद
आदिका
प्रतिघण्टा
सामग्रीहरू
आमूल
आवाजमा
##ग्नो
चुनौतीलाई
##िसक्दा
अहंकार
भरतराज
वृक्षरोपण
##काय
##राबाट
लिनुभएको
##उत्तर
पकाउन
जिवन
तारकेश्वर
##म्ती
कमसेकम
मागदा
दिएकोमा
##जफ्
##फेले
खोल्दा
फोहो
शेरचनले
एजेन्सीले
##्नाले
फुटको
वेल्स
ट्याब्लेट
नगरकोट
उद्योगहरु
आधिकारीक
##न्नुपर्ने
राष्ट्रपतिसमक्ष
##एपनि
प्रशिक्षणका
सङ्गठित
बुँद
लिखु
नक्साल
एलिजा
घाममा
खोल्नु
दुःखद्
फूलमा
##ब्रि
विन्दुले
सामरिक
सच्याएर
छानबिनको
शुरूमा
नाच्ने
##बैंक
ढुंगेल
अछाममा
सापेक्ष
बोक्सी
सुर्खेतबाट
सकियोस्
इनिङ्
लोकान्तरसँग
वास्तवमै
जलजला
काभ्रेमा
जातजाति
आदेशपछि
##लिङ्ग
बेडमा
फर्छ
उत्ति
पूर्वतर्फ
सभापतित्वमा
##बिन्द
मदिराको
इन्डोनेसिया
पुडासैनीले
हावाहुरीले
प्रिप
दाई
पत्रकारितामा
प्रयोगशालाले
धादिङमा
गंगामा
केकी
चाहनुहुन्छ
सहायतामा
वर्षिया
त्रासका
कर्फ्यू
कसो
भेटि
##साइट
स्याङ्जाका
फर्जी
अन्त्यसम्ममा
उद्धेश्य
युरोपा
##ताव
एनसीसी
लिभरपुलका
ड्युटीमा
जहाँबाट
सल्ले
कुन्दन
खड्काका
इलेक्ट्रोनिक्स
##र्भा
परिवर्तनमा
साथीहरूलाई
यौनिक
दीपेन्द्रसिंह
अक्सर
साबिकको
गोल्छाले
झरेर
दौडधुप
लेभ
प्रचारका
सन्त्रास
कार्यबाहक
##चिब
इश्वर
##ेन्डिङ
##क्सनको
आमाबाबु
प्रशिक्षकले
अम्बर
एम्ब
बाई
सन्नी
##न्टो
श्रेणीको
घ्यू
##रूपको
खेलकुदका
पसलको
आयातको
##पछी
##संँग
भूमिको
नोटिस
इन्स्योरेन्सको
रुवा
पोष्टमा
डिपोमा
करिडोरको
ट्रेज
खसेका
लगाइन्छ
भ्लादिमिर
पाटा
हातखुट्टा
चिनिया
स्काभेटर
सिलिङ
बिभाग
चुच्च
सुधारिएको
सिफारिसका
बुझाइमा
मिचेको
इँटाभ
आतिथ्य
##वासीका
अड्किएको
लाङटाङ
कोप
चाहिँदैन
##स्कीले
सिद्धान्तमा
दिनेशकुमार
सक्तैन
२४०
##योस्
##लिंग
यसैमा
##संगत
सल्यानका
हटाई
चुहि
देब्रे
नगराउने
एमालेमै
सुकुम्
नपरेका
क्वर
स्पोर्टस्
रौनियार
##अन्दा
##प्पी
मतदानका
परियोजनालाई
मुम्बईको
महिलासँग
टेक्सा
मूल्यमान्य
##खाद्य
दाइको
मांसप
##न्द्रराज
दोषीमाथि
नदिनका
यसक्रममा
मिलले
छाप्रो
##त्सना
एल्
भूउप
खानतलासी
कीर्ते
चित्तबुझ
रमणीय
##महिना
युक्त
देखिदैन
प्रयासरत
पत्रकारहरुलाई
भूल
वेश
सुपरी
उपाधी
जहाजबाट
मार्गबाट
विम्ब
##कोटालाई
बाँडिएको
थुनेर
एसोसिएसनले
दुलालले
सुँग
खादा
कारोना
पूर्णिमाका
कर्मचारीहरूले
साइकलमा
घाटमा
फ्लोरि
बुर्ति
कम्प्याक्ट
मनमो
अभिवृद्ध
महत्वाकांक्षी
इन्दु
हेरेपछि
##रत्
गर्दासमेत
जितपुर
किलोलिटर
प्लेइङ
चौदण्डी
##ुद
१६६
प्रमाणका
न्यायालयमा
भौग
दशकौं
बाबर
परिणाममा
##ताबास
छलफलले
खोज्यो
##बेलै
गोकुलप्रसाद
कोर्टमा
अनुसन्धानपछि
वुहानमा
विन्द
बेहोर
म्याचमा
गेडागु
मेघा
कमर्सियल
##गार
क्षती
##जिओ
नरसिंह
अल्ट्रा
खसा
सालबाट
महानिर्देश
आउनुअघि
वीरगन्जको
त्यतिमात्र
अनुपस्थितिमा
विशुद्ध
##वासहित
फुट्ने
काउली
दूरगामी
सस्तै
##बाख
कपी
किसानहरू
मध्येका
शिवराम
दलितको
इम्प
आइतबारबाट
रेस्पो
नआउ
##सुरक्षा
##लोन
लगतै
लाखले
मूल्यभन्दा
घोटाला
लीलामणि
##न्डिङ
खान्छ
परीक्षणलाई
स्तरोन्नतिको
आन्द्रे
बेँसी
राईका
##स्च
परिका
घरहरू
खान्छन्
खानुपर्छ
स्पस्ट
बालबच्चा
समाजवादीले
नेटवर्थ
केन्द्रकी
१५३
##हास
##िसम्बन्धी
##ङ्गत
##ग्रेड
विद्वान्
आसिफ
हैरानी
नक्शा
दण्डित
##्र्स
मुठ
##प्रधान
उपमहानिर्देशक
नलिए
टक्कर
बेका
आमसञ्चार
क्वालालम्पुर
भजनी
##जाम
##ंग्रा
भइरहन्छ
पूर्णतः
परिमार्जित
फैलिँदै
##जोर
##म्स्टेक
निर्देशकले
सीसीएम
महाशिवरात्र
सर्जन
तरकारीमा
भट्टर
विद्यार्थीहरूले
मध्यराति
बिब
सम्झिए
पाना
गर्नुहुन्थ्यो
करका
लक्ष्यअनुसार
पोल्यान्ड
लोभमा
एने
##टनले
अभियो
नगरिने
देशभरिका
सोलुखुम्बुको
उज्व
तिनीहरू
दमाई
##्युन
चोकबाट
रेग्मीलाई
डेबिट
कटु
हडताल
##झै
##त्त्व
उपाध
प्राविधिकको
खलङ्गा
थल
निरि
पहिलेकै
म्यानचेष्टर
बबरमहल
पूर्वअर्थमन्त्री
##अन्दाज
##िन्थे
नदिइएको
विज्ञापनमा
तलाउ
भएकोे
खरिदार
जस्ट
परिपूर्ति
बोर्डबाट
भेरिएन्ट
शङ्ख
योगा
गृहयुद्ध
च्यालेन्जर्स
ओपी
##बाफ
##ब्दा
उनीहरूबीच
पुनःनिर्माणका
फाल्गुनन्द
नेपालखबरसँग
वर्षसम्मको
आइट
जीवनरक्षा
कतिपयलाई
गर्मीमा
##रुद्व
स्टाइल
न्यायाधीशलाई
सँगको
अग्नी
##मिनी
गिलास
##र्याप्त
सुजल
##कुना
बीए
अड्कल
##वेले
विचौ
ब्याङ्क
अध्यादेशमार्फत
अनुबन्धित
##न्था
चारवटै
विद्यालयहरु
चिम
माली
डोर्य
एलर्जी
लेखाजोखा
डुव
लिम्बुले
एनसेलका
जनप्र
थाती
होटलले
कारागारका
दशैँमा
जाना
छाङ
बेहोर्नु
स्क्रिप्ट
उच्चपदस्थ
इत्या
##लार्ई
परिरहेका
##डीआई
पोल्
अनुभवले
धोनी
निवृत्त
फर्किएकी
बोलि
सापकोटाका
उपदेश
बेञ्च
ऋषिराम
ओत
अवस्थीले
एबी
वडालाई
नसोचेको
##ञ्चलमा
पर्फ
##पाटीमा
##पार्टी
युरोकप
गरेकोे
जनाइ
महल
अंकुश
नरसंहार
श्यया
अगस्टमा
केमिकल
जगाउन
##ज्जत
ज्याम
दिनसक्ने
बाहिनी
तोडेको
फैलिएका
नाम्खा
मत्थर
दिसाम
##न्द्रुक
पछ्याइ
सार्वभौमिकता
चाँहि
डिस्पोज
वृत्तचित्र
क्लस्टर
इलेक्ट्रोनिक
साइनो
दक्षिणकाली
पत्नीको
सूर्यास्त
##सन्स
##िजले
रकमलाई
प्रतीक्षामा
निहुँमा
##भरका
छुरा
फोहोरको
स्पेनका
अद्
डरा
##पढ
बिर्सि
गोता
व्यवसायीहरुलाई
अपनाएका
जगत्
पुनरुत्थान
मर्नु
##भवन
आगलागीका
संघसंस्थाले
स्टेजमा
सिद्धि
सर्वेक्षणले
माघको
मोबाई
सहभागिताका
व्यवधान
धान्ने
प्रत्यक्षदर्शी
लगाइन्
तिहाइको
लड्दै
पूर्वीय
प्रतिनिधिका
पेट्रोलको
संयमित
निधनले
त्रैमासको
तुलाधरले
प्रांग
एशोसिएस
लमजुङका
टकराव
##परक
यौनजन्य
माइक्रोस
कस्ट
वृहत
डिप्रेसन
सन्दीपको
ईश्व
थ्रि
दलहरूलाई
सहुलिय
##शको
पर्यवेक्षक
मुस्कुर
झमेला
आइपर्ने
सम्भावनाको
मिडियालाई
ध्वनि
विर्तामोड
ओडिआई
चालिसे
फिड
कीरा
मलेसियन
नजरअन्दाज
ढुङ्गानाले
दिसामुक्त
स्वरुपमा
किस्ताको
हरू
नपाउनु
क्यान्सरका
संग्रौलाले
सिन्हा
तुम्बाहाङ्
पार्थिव
खैरहनी
समस्त
सेले
बोसो
किनेका
ग्याल्
ऋचा
हुनुलाई
ऋणात्मक
निर्णयहरू
आयोजनाहरु
वृद्धाश्रम
घटबढ
उनकाअनुसार
बोलाउनु
##ि्र
समुचित
मर्निङ
आमनिर्वा
जागृत
बरिय
##रीतका
होउ
नदिएका
नराख्न
दुईपक्षीय
सामस
अल्ज
नहरको
उद्योगमन्त्री
प्रदर्शनलाई
कोलम्बिया
लामखुट्टे
इल
निदा
बाहिरियो
अभ्यासलाई
युनाइटेडलाई
नपुर्य
अभिव्यक्तिको
चौबीस
गज्ज
राजदूतले
व्यावसायी
हेर्दाहे
क्लाइ
दुईदेखि
##िरे
थपि
चन्द्रनि
जिनपिङ
श्रद्धालु
##ुकूल
कैफ
रानाको
फुप
##्सना
नबनाउने
##र्निङ
##क्रे
दीन
इन्टरप्राइज
रतुवा
नौवटा
महासभामा
नगरपालिकाभित्र
फिल्मबाट
एमबिबिएस
धप
लिच्छ
साहित्यका
थियौ
मजदुरले
बेचबिख
सुमि
##हीनता
भोजपुरको
##्रान
गाउँगाउँ
फिरौती
ह्यार
नाई
##दृष्टि
साेम
दिनबाट
##न्ट्र
हप्ताअघि
वेव
एकिन
##ग्रही
आन्दोलनबाट
मल्ललाई
उत्ते
फैलाएको
बझाङका
महावीर
कुरी
पहुँचको
पथ्र्यो
गराइनेछ
##राइड
दुु
भएकाहरुलाई
माथी
मिसिएको
छापावाला
इमानदारी
##र्समा
##ेपुल
बनाइनेछ
कुर्था
##नियत
पछ्याउने
मापसे
कलङ्की
किशोरीले
पाइसकेका
लुकाउने
हुनुहुँदैन
छुटाउन
डुम
तुलसीपुरमा
राजवंशीले
खाल
##द्धि
विकासे
##ुलाल
बिक्रीको
पोष्टमार्टमका
फैसलालाई
प्री
बिद्यालय
##न्तरले
फर्के
बंगला
आकर्षणको
विखण्डन
##21
कृपा
भावनामा
अनामन
जून
##मानसिंह
निर्माणाधिन
शसस्त्र
ठाउँलाई
जंगलको
श्रमदान
ठूलाठूला
मोहना
मुक्तक
कपूर
हामीमा
घट्छ
लुटेर
नश
##याल
हालसाल
काष्ठमण्डप
युके
##ुवाका
जनमानसमा
सस्तैमा
हिँड्दै
देऊ
सन्धी
बेठ
सम्झँदै
चलचित्रकर्मी
सिटामोल
गेटा
एस्ट्रा
क्रोएसिया
तन्त्र
वहन
इयू
पानामा
##र्था
अफिम
बिक्रीबाट
मठमन्दिर
निखिल
##१३
पुसको
भइराखेको
##िताका
दैनिकका
मंसी
##थुम
अकल्
##ौन
निरूपण
भइहाल्यो
इजलासको
##लायक
एकद्वार
मानक
सदस्यमध्ये
शिवालय
पदमबहादुर
##छिनमा
रहनुपर्छ
अनियमितताको
इजरायलको
नबढ्ने
ओपि
##ियोले
प्राध्या
सिंहदरवार
सोच्नुपर्ने
चिकित्सकीय
गन्तब्य
##रिने
मन्त्रीहरुलाई
स्तरोन्नतिका
पेप
क्राइ
डोनल्ड
ननिस्कन
योजनासहित
दरवार
नागढुङ्गा
प्रकाशक
त्रैमास
हुवावे
जात्राको
##ंज
बजगाई
योगदानमा
सेन्टरले
इक
चण्डी
##्याइने
भाग्यशाली
युनाइटेडका
संस्कृतिका
दन्त
माछाको
स्विट्जरल्यान्ड
##ाल्दा
##बुङ
##ामुढा
गान्धीको
यथे
नेइ
बोलक
एकरुपता
सुवाल
आवागमनमा
केन्दि
मानि
सुपारी
चयनको
गर्नलाई
तोलाको
अङ्कमा
प्रकरणको
##न्दार
अनिर्ण
फर्काएको
भ्याए
पासवर्ड
उमेरदेखि
२०३३
कृतज्ञ
मलामी
झुण्डिएको
बजाउन
दोर्दी
सकिनन्
निर्यातको
धवलागिरि
अनुसारका
मिश्रा
हानाह
खाल्डा
वजन
माग्नु
कर्मचारीहरूको
खाल्डोमा
सारी
रोहन
##आईपी
परम्पराअनुसार
काभ्रेपलाञ्चोकको
लिङ्देन
सती
आवरणमा
पुलिसलाई
बिताए
अफ्रिकाको
उत्तेजित
घटनाहरू
सोमबारबाट
गाडीका
इराकमा
दयाहाङ
जितिन्
फाट्ट
भोटेकोशी
##ंग्या
लेका
##¥या
सम्झौतापछि
##त्रि
जाओस्
रुँदै
१८३
केल
##िनेको
प्रवचन
गम्भीरता
##ौर
देवले
बेग्लाबे
ऐना
इतिहासलाई
सल्क
सेल्स
अधिकारीहरूको
कमाएर
फेसबुकको
जनकपुरधाममा
काफ्
बुधबारबाट
##पिक्स
भोगाइ
धेर
##ओस
##लिश
बिहीबारसम्म
सिसिएम
ओलि
निरिक्षक
##करी
##मालिका
खुम्चिएको
राधाकृष्ण
अडिग
हर्न
पुनम
भेटे
नहुन्जेल
स्टारले
दह्रो
कागजा
झस्क
मुछ
मन्त्रीहरूले
समर्थित
खाट
मय
स्थानीयहरु
##लिस्ट
सामर्थ
खरीदविक्री
तालिबानको
निन्दनीय
सरेर
केहीदिन
एनआरटी
नम्रता
सेफ्टी
यातायातमन्त्री
श्ययाको
सविता
परो
##67
गोलका
सन्चालन
बाहुल्यता
सालपछि
पाठकको
##म्रपान
अम्बा
डटकम
आइएको
पञ्चमी
कक्षको
दाजुभाई
साधान
दिनुको
क्षिति
##लमानको
कराँते
##हामु
आनन्दमोहन
सार्थकता
##गठ
##ुन्
##ाँै
##िकालाई
##छिरिङ
वाच
मनस्थितिमा
दरिलो
नाबालक
चकलेट
जगेर्ना
ओमन
बचन
जडीबु
लेदो
भ्यालु
खेलिसकेका
विरामीलाई
काबुलमा
रबि
आइपुग्यो
##िफिक
##रोज
सेयरमा
परीक्षणपछि
बनिन्
##जुको
खेल्छ
गणपति
आँबुख
इक्व
अबरुद्ध
विमानले
थिईन्
१९९३
खुमबहादुर
एसएसबीले
नथ
##किन्छ
बेग्लाबेग्लै
प्रतिबि
विज्ञानको
धरास
##क्षत
##पत्रको
माओवादीसँग
फेयर
डाक्टरलाई
समितिकी
बेलादेखि
निम्त्याउन
अबिर
प्रहारलाई
अडिसन
टिमुर
सिँचाइको
रकमसहित
भाँडो
पाठेघर
व्यङ्ग्य
ग्राण्डी
सञ्चारमाध्यमका
अपहरणकारी
क्वाटरफाइनल
बर्षीया
आश्चर्यजनक
##एसको
जिल्लाहरूमा
गाउँपालिकाकी
##हाना
कृष्णकुमार
निस्किन
पेटी
सुर्खेतले
मधेशको
परिषदमा
##याउन
##ृय
रोड्रि
डराउने
तुवा
ठिकै
##रीबाट
सुजु
##ोजिट
२०२५
असली
गर्लान्
१६७
यमन
मादल
##ेवर
##नुभएछ
कृष्णभक्त
##शिष्ट
फोक
परिधि
##हरूसँगको
##स्यक
मापदण्डका
इन्भेस्टमेन्ट
##ङ्मा
घरसम्म
मोर्ग
बाध्यताले
नोटको
निवेदनको
गुह्य
ईन्द्र
उनीसहित
देशहरूले
##डेलले
राजावादी
पाउडर
रहिरहने
भर्याङ
एग्र
पादु
चान्स
प्रक्रियाले
सिँचाइमन्त्री
स्वीकार्न
शिल्पा
लानु
##ँध
##ेनत
क्रिजमा
मिडियाका
युट्यु
मला
मिक्ला
रुन
##न्सा
##्याउँदा
प्रतिबन्धको
२०५३
वितृष्णा
##्चन
एक्सटेन्सन
एन्टोनियो
भत्र्सना
हेर्दाहेर्दै
पार्कको
सहमतिमै
आˆ
प्रधाना
डिग्र
महाशाखामा
आँखाबाट
विषादीको
सङ्गी
मागिएको
आएकालाई
छरछि
असंलग्न
खिन्न
##हाल्छन्
तरुल
छिरेको
नदेखिएका
अलराउन्डर
##ैल
प्रतिगम
पुरोहित
सीताको
पेसामा
लिभरपुलको
इच्छाकामना
बेन्ज
##रिन्हो
##ोलन
अनुसन्धानलाई
प्रयासपछि
विवाहका
यिनले
कनकाई
##ट्का
कटाएर
पदाधिकारीहरु
ट्रेडि
धोनीले
##्युरी
बाहिरै
साधनहरु
इमर
नियमनकारी
एक्स्ट
निर्देशनको
##मनै
निस्केर
जनकपुरका
सूचीकरण
रियलको
कल्भर्ट
अनेरास्ववियू
बीओपी
तपाईहरुले
पाठ्यक्रममा
दोधारा
अन्तर्राष्ट्रियस्तरको
लैजाँदा
एमएम
##िडेन्ट
गृहमन्त्रालयले
एनएमबि
अन्धाधु
भल
##ामो
चुनावलाई
ग्राफ
सनसनी
कुद्
धनकुटाका
राससलाई
मोरङले
##ेश्वरको
साट्न
कसम
##पालगायत
मोन
चरणबाटै
नदीबाट
##पिला
तानाशाह
##षिर्क
##कोले
सक्दा
उपाध्यक्षको
##ेसहित
महाधिवेशनपछि
गृहमन्त्रीले
रोमान्टिक
जयबहादुर
प्रभुत्व
अपमानित
कन्य
खोसेर
सिकेका
विचलन
उत्तरतर्फ
ल्याइयो
नलगाई
बन्दरगाहमा
##फुल
केबुल
##भए
##क्षेत्रको
रङ्गशालामा
भुषाल
उमेरमै
सदनलाई
विधिसम्म
##भन्दै
समाचारहरु
न्
नाल
दुल्लु
रिजन
अंग्रेज
उहाँकै
भवनलाई
२०३६
बेट
##सेट
##फेक्सन
##बलाई
बिक्रीवितरण
सदरमुकामबाट
##बराबर
नापतौल
##ूरी
सहजरुपमा
त्यसैअनुसार
१९९२
जाजरकोटको
अपवाद
ड्रि
सरेका
प्रविधिलाई
जित्नु
विश्वसनीयता
रात्रिका
##कायम
छोडे
विपद्का
माक्स
चन्दलाई
गरिएपनि
चक्रपा
झर्न
##च्छिक
मुद्दती
शालिग्राम
चित्तबुझ्दो
जुधि
##मकार्ड
उपनिर्वाचनका
मनलाई
हिँडि
गाडेको
##धारामा
युवाहरूको
भएकाहरु
##जोन
अगुवाइ
सञ्चारकर्मीलाई
भागबाट
अध्याय
सीसीएमसी
##प्रण
जेब्रा
नाप्ने
पाठेघरको
ज्यादती
हुनेहरुमा
व्यवसायीक
पहिलेका
नजिकैबाट
प्रहरीबीच
##ेदन
गैरेले
दिँदैनन्
##ियामै
जीवनबहादुर
हप्तापछि
कमलपोखरी
अक्षयकोष
भण्डारीसँग
मायाले
अनेकौँ
राशिका
##दीका
##ेकिस्तान
गोलकर्ता
अफ्रिकाले
उर्वर
झरी
##्यै
राता
##त्तामा
रूसी
डाकिएको
दूषित
भोटिङ
रुपैँया
##काहारी
१४७
बितेका
मन्थली
ज्वाल
बालमैत्री
मेगापिक्स
ठाकुरलाई
##हिवार
धेरैमा
आम्दानीमा
थुना
होइन्
##किच
##स्तरमै
दिनुहुन्छ
आउँदैछ
लिभरपुललाई
झोलुंगे
ओड
##बेस
विभागसँग
खरिदबिक्री
डायमन्ड
रीता
सित्
१७२
आर्मीलाई
बाख्रापालन
जस्तापाता
##िटर
रहनुभएको
केन्द्रदेखि
सीके
लुक्ला
मिसनमा
रोज्न
##वका
प्रवास
जन्मभूमि
भोग्नुपर्ने
नुर
नगेन्द्र
कलाकारहरुको
चौथाइ
यार्ड
दोहोर्याए
ब्याक्टेरिया
नरैनापुर
##व्
##भञ्ज्याङ
##म्पल
पार्टीहरु
आइसियुमा
अकल्पनीय
##सता
बोरु
चियाप
भोकमरी
टेम्पो
भला
पहुँचका
पूरक
बिताइरहेका
##थित
##आएका
बैं
##देवीले
च्याप्टर
मापदण्डलाई
रोजगारको
कर्न
ख्वा
तरीका
रिमा
मध्येबाट
सत्यको
अच्युत
दीपेश
भाउमा
व्यब
पुलिसको
मेस्सीको
व्याजदर
भयौँ
सराव
##र्तन
##लय
कमलामा
रोगसँग
सम्पत्तिमा
वृद्घि
किर्ति
देशभित्रै
पात्रो
दुलही
प्रिपेड
प्रजापतिले
##क्रि
प्रवेशा
शिवपुरी
प्रसाईंले
कर्नाटक
##ामुक्त
कुर्नु
धरानका
प्रभावको
##छाप
प्रान्तका
मन्त्रि
हालसालै
अलीले
माध्यमको
पाँचथरमा
कन्द
हुँदाको
रथयात्रा
गाडिएको
हप्त
स्काई
सरदार
आजकै
बडादश
दस्ताब
भनाइलाई
अबुधा
##पुस्तिका
रिजल्ट
बार्सिलोनामा
मकवानपुरले
##सागर
##धामन्त्री
क्षेत्रकै
कुटनीति
##बायोटिक
स्वास्थ्यलाभको
##मास
लागतको
मृत्युदण्डको
बुझाएपछि
१८४
मिलाउनुपर्ने
चतुर्द
##डिन
लिखत
सहभागीहरुले
मोहनबहादुर
झिक्न
गर्ल
प्रहरीबाट
प्रधानमन्त्रीसमेत
संसारभरि
मेयरका
चराउन
बिम्स्टेक
सोनी
स्वराज
गोंग
राजदूतको
जमीनमा
बोरामा
आँध
असारदेखि
सीडीओ
उब्जिएको
बारेकोट
इक्
ढलेको
##भरण
क्षेत्रगत
भनिरहँदा
हिमालमा
##टेरी
सुरूमा
अजरबै
उन्मूलन
उकास
पहिलेभन्दा
गुणराज
छाप्न
चिकित्सकका
सर्कुलर
ठोक्किएर
सार्ब
विरोधा
गोइ
मोडलको
ह्वाट्स
कन्ज
चुका
पाठकलाई
इस्लामा
हतारो
सुु
मान्यताका
रुद्राक्ष
बैंकहरूको
१६१
संस्म
##परिका
साँझदेखि
उनीहरूमध्ये
लगाइरहेका
ठकुरीले
दोहोरिने
लखनउ
वटाको
विलियम
सचेतनामूलक
##सापेक्ष
किन्नु
##बिहीन
विप्लवका
प्रसा
चिफ
सभापतिलाई
रेष्टुरे
कट्टेलले
##ौटे
##गाले
मरिच
दिइन
बिद्यार्थी
आमसभा
गाँठो
अश्रुग
120
विनायक
रेसियो
सभागृहमा
बोहराको
आएकोले
आफूविरुद्ध
मेलबर्न
खी
##ूपमा
भुसालको
नाड
डिल्लीराज
ट्वाइ
प्रणालीमार्फत
मसाल
आस्थाको
तहदेखि
लोकार्पण
वर्षअगाडि
जोगी
भन्नुहुन्थ्यो
अथक
ह्विल
##क्षीको
पाख
समात्न
निर्णया
बुझ्नुपर्ने
विधानले
युभेन्टसले
##तिहार
चालेका
फिल्डिङ
स्केलको
धरहराको
अबैध
##ुलाई
दिनभन्दा
प्रवृत्तिका
०६२
##ुकै
घरैमा
डिजाइनमा
बन्दैछ
मद्दतले
छेउको
मिचिएको
स्वभावका
यथेष्ट
केन्द्रीकृत
भएरै
अन्तरिक्षमा
##फुट्ट
अनुदार
बिच्छ
##सुरी
गैरे
मालसामान
कहिलेकाहीं
पीएसजीले
तुवाचुङ
मतियार
##ेहात
##ियास
प्रतिशतबाट
आउँछु
श्रीमानलाई
देख्दै
पाइसकेको
समझदारीमा
##त्साहन
सरासर
पुस्तकले
बाइपास
एसएसबी
सेन्चु
##बाँ
##ृष्ट
निन्द्रा
विकासोन्मुख
उडानबाट
गैह्र
बानेश्वरस्थित
धकेल्ने
सीजी
दशकभन्दा
सम्पादकीय
गोसाइँकुण्ड
नछुट
शाली
##ाउँन
सवारीका
किमले
बालबच्च
वना
परिप्र
हतो
निर्भ
बैद्य
तपाईंहरुले
कालान्तरमा
जीवनराम
आलुको
उक्सा
वर्षअघिसम्म
रामग्राम
धु्र
घुमेर
प्रतिष्ठानलाई
खानपिन
गजुरी
##ुल्स
भन्नुपर्छ
सिद्धान्तका
विद्रोहको
दिन्छौँ
देशैभरि
पने
##शङ्कर
मिलाई
जावत
##वालालाई
लेखाईमा
प्रतिनिधिमा
निधनप्रति
आईसीसीले
अर्जेन्टिनी
याउने
बन्नका
नराम्रोसँग
जात्रामा
##बाना
चलाउनुपर्ने
पराउने
##लाइनको
घुमफिर
बसाइँसर
घे
जिस्क
गोरे
सामाग्रीहरु
लगानि
समानुपातिकमा
संग्रौला
##चल्
##कुलै
ट्याङ्क
19
त्यसवेला
पुगि
गतेलाई
नराम्रा
जिन्दगीमा
##क्पा
प्रतिस्पर्ध
औलो
फ्ले
खोली
१८२
अनिश्चितकालका
असिस्टेन्ट
डङ्ग
विला
सिद्धार्थनगर
चक्की
गर्दिन
देखाउ
हिज
अदृ
भोजपुरमा
भुटानको
थप्छन्
झम्
##तिनो
खायो
समुदायसँग
सारे
टिकाउन
##लोजिस्ट
ज्यु
हिस
नेटो
चिर्न
मनमनै
रिटको
सैनामैना
सोमनाथ
तिम्रा
ठानेको
प्रोफाइल
समुहमा
##धर्म
पोष
##न्टे
खेलाडीहरू
प्रतियोगितालाई
त्रिपुरा
कम्प्लेक्समा
##गरेको
देख्छन्
मिलाएका
बेन्च
नबुझा
हता
गराउनेछ
विराटनगरबाट
दीर्घकालिन
कनेक्टिभिटी
३७०
डाँगीले
बिर्सेर
जले
१३९
उदेश्यले
जरी
सेवक
वडाध्यक्षको
विक्रि
जग्गालाई
लिइएका
नुहाउन
गर्नुपूर्व
पत्रकारहरु
कार्लो
दिनुहोस्
महाराष्ट्रमा
राँ
आलोचनात्मक
तनावग्रस्त
ब्रेन
अध्यागम
कोभिशिल्ड
##ाखोला
सहयोगबाट
औपचारिकता
मदनकृष्ण
नलाग्न
गाडीहरु
नचाहिने
रिपोर्टअनुसार
रजिस्ट्रार
हेतुले
क्षेत्रिय
घराना
अध्यादेशमा
मर्चेन्ट
मुह
पाइएकाले
१४२
सिद्धिच
१९६०
##र्नको
##म्भर
व्यवसायीहरूको
फापर
सम्भ
एवम
सालतिर
एन्फाका
##नुमा
बैकल्पिक
आइएम
१०औँ
कमाण्डमा
विनास
जिन्दगीको
झेलि
राजबहादुर
याक
इरानका
##पृथ
खेल्यो
घटिरहेको
नगराएको
लम्बाई
उल्लंघ
सहभागिताको
बदमासी
##ेलिज
कृष्णराज
न्युरो
##चिक
##नुहोस्
बोलाई
अध्ययनबाट
दक्षिणतर्फ
करिम
प्रदूषणको
वाइन
सिन्ह
अन्यले
सर्पको
अफ्रिकन
किलोमिटरमा
बहिर
जरुर
दाम्प
असजिलो
लम्ब्याउने
तीर्थस्थल
बस्थे
प्राथमिकताको
भ्यालेन्ट
भुर्तेल
##ेटी
##्यायो
##फ्टिङ
हृदयघात
भिल्
स्वास्
जाँचको
राठौरले
आनी
##ंमा
पुत्ला
अधिकांशको
महाधिवेशनलाई
मान्यताको
##गढीमा
धूम
सुविधाबाट
घटनास्थलबाट
भिरालो
तौलि
रोशनी
पिपुल्स
दिनचर्या
बसुन्ध
जबाफ
दाङले
नआएसम्म
मेयरको
कन्चन
##नाला
घरै
विदेशको
नआएकाले
रोबिन
##बाको
साथीहरुको
सघाएको
उपाध्यायको
क्यामरुन
परिप्रेक्ष
जियो
जडे
##झौता
धर्मगुरु
भोगचलन
मनोरम
गैंडाको
सिङ्गापुर
##वटी
समूदाय
अण्डर
मध्येको
मरासिनीले
लेवा
चीनबीचको
राख्दैन
फेक
पूर्णिमाको
लडि
हाउसले
##मण्डलमा
जनसंख्यालाई
गगनकुमार
फेद
हल्ल
##िलाई
नेपालभित्र
कार्यालयसँग
बैठकमै
##ालिरहेका
सुवेदीलाई
एशियन
रहेपछि
बन्नेछन्
विपक्षीले
संवेदनशीलता
युनिभर्सल
वरीयता
##ढीमा
दोह
पाँचतारे
सनम
श्रेणीका
लालीगुराँ
मगा
ठूल्ठूला
गरिसकेकाले
गुजरा
निषेधाज्ञामा
०४६
प्रवर्द्धनमा
फहर
##ेक्
##कबाट
त्रिविको
चिली
सर्पद
बेचवि
स्टेफ
##मुनी
##बिरमा
कैलालीले
नेपालगञ्जका
बढोत्तरी
ज्यानै
प्रावधानलाई
फलफूलको
विश्वकर्माको
रेफ्रीले
पुर्ख
##ड्का
पछाडिबाट
बसोबासको
मुलुकभरका
##ओभर
प्रसु
सुरक्षार्थ
औषत
नतिजाले
फाउण्डेशन
काढ
सोधेँ
##नाशक
##मुख्य
उद्द
पुनर्नि
देखाएपछि
सजगता
भीरबाट
अपू
केजरी
एचआईभी
योसहित
नियतले
कार्यादेश
नपाइ
अमलेखगञ्ज
आंकलन
बत्ति
राखिन्
व्यवस्थासमेत
रुपैयाँसम्मको
उद्योगहरू
१३१
मुम्बईले
उडाएको
##टबाट
कोर्ष
त्यससँगै
तीनजनाको
खेप
मातृभाषा
##ः१५
सभाहल
प्रतिस्पर्धाका
##मिने
हिड्ने
समाचारलाई
##पक्षको
सलाम
##ायौँ
भित्रबाट
लगियो
आफूसँगै
मध्यपश्च
##संगठन
पृतना
सेक्रेटरी
दुखाई
##स्टो
सञ्जालका
प्रतिपक्षले
भासिएको
महाकवि
अध्ययनपछि
काँग्रेसलाई
शेखले
फ्याक्ट
अनशनरत
पायौं
गाउँपाल
जान्छौं
लडिरहेका
जोनमा
विकृत
टुटेको
महाप्रसाद
साथीहरुसँग
##रूपले
पोलिसी
नियोगका
##ुकर
इन्जिनियरि
समाजसेवामा
##न्नी
सहेर
प्रश्नहरु
कोटाबाट
काश्म
तीनदेखि
आउँदैनन्
क्यान्ट
माघी
कलाकारहरुले
रोपेको
घण्टौं
##वाँ
सुपु
अफ्रि
बलदेव
उनीहरूकै
राजधानीबाट
सोनु
बाल्न
प्रभावितलाई
धोबी
कीर्तिपुरमा
अशु
लाउन
माध्यमहरुले
किस्तामा
भ्याइन
रेस्पोन्स
राँग
उत्पादनशील
संरचनाका
५५०
पश्चा
फस्टाएर
##ैला
##म्वन
प्रश्
पुगेँ
कट्टा
##पक्षले
अनुदानका
##जानी
ढुंगे
##भेरी
##मुनिको
नबुझ्ने
खानुपर्ने
##रबाट
मानिसहरुमा
देउडा
अप्रत्यासित
विषयहरू
अघिल्
विरलै
उताबाट
कंगना
छटपट
त्रिशुली
बाँचेका
##आउटमा
झालाई
पपुल
##विन्द्र
उपमहानगरले
मिश्रण
एमालेकी
तत्कालको
गर्भमा
लेट
##ियनको
महात्मा
रकममध्ये
नगराई
भाँडाकु
##ुभाव
##क्नुभएको
जानकारीका
आइपिओ
बतास
ऐलानी
मेलौली
##दिएँ
कोअ
उठाउँदा
फलस्वरुप
क्लिनिकमा
##भोकै
नअपना
थारुले
##गले
यसैकारण
ऋतिक
समाचारदाता
आलिया
##िमु
##ेकमा
महालेखाले
पोषक
##जाद
१४३
छुटकारा
पूर्वप्रमुख
चन्द्रनिगाह
##थेरापी
##जिपी
मान्दा
नदेखिए
मौनता
कित्तामा
लेटर
जुद्ध
दाहालबीच
उरुग्वे
पाँचदेखि
चौबिस
बाह्रखरी
पाव
परिपाट
##ल्याउने
देवताको
प्रतिनिधिसँग
केशवकुमार
गैँडाको
तन्ने
बिमल
वातावरणमैत्री
##चुनाव
ब्राजिलियन
ढाँट
कम्पनि
साइक्ल
पुरस्कारबाट
गराइयो
सल्यानको
बञ्च
##ब्यूरो
##छाड
व्यू
##टीभी
ट्याङ्कर
फेसबुकमार्फत
माछापालन
प्रविधियुक्त
उत्तराधिकारी
ओप
रुसका
विदेशस्थित
रातभरि
देखिएकोले
पत्रिकाको
बस्नुपरेको
सिसिटिभ
वीरेन्द्रनगरमा
##वित्तिकै
हिउँले
संस्कारको
छेउमै
डेमोक्र्या
##दबा
मुलुकहरूमा
हतियारसहित
मधेशका
दाम्पत्य
छट्
रद्ध
भाइलाई
सिरिजका
इमान्दारी
ब्यवसायी
कहाली
चराको
लप्
##डीसी
शवदाह
डंगोलले
अहिंसा
उत्तेजना
ठानिएको
##हरूप्रति
हिँडिरहेको
चन्द्रमाको
अट्ने
धौलागिरी
बेन्चमा
रघुजी
हुरी
तीतो
पर्नेहरुमा
आमासँग
रैछ
गर्नेलगायतका
१५१
दरबन्दीमा
रक्तश्रा
एकेडेमीमा
विश्वस
पहिलोपोस्ट
प्रयोगशालाको
खत्रीलाई
अनावरण
प्रयाप्त
##ष्कृत
इन्काउ
काठमाण्डौको
नश्
##भीर
##न्का
##ाँती
##िसनमा
आइटी
युवाहरूले
नारायणगोपाल
दर्शकमा
युएईको
सग
वृद्धिले
सतहबाट
घटाइएको
मतसहित
अरुभन्दा
व्यवहारको
राजस्वको
खोटाङमा
ओम्नी
रामनगर
चारपा
खनालका
कोईर
दाहालसँग
झुटा
सुधीर
बिप
आदरणीय
बिज्ञ
कारागारको
कन्काई
##थ्यौँ
सुधार्ने
##ल्सका
गरिरहेकै
बुढाको
फ्रिक्वेन्सी
##ाइन्छ
##प्ति
१२औं
##ालेर
छोराछोरीले
प्लेअफमा
राष्ट्रकवि
विरेन्द्र
सामर्थ्य
हुबे
##ामले
##लोले
प्रस्तावक
नेताहरूबीच
सानेपा
हुँदोरहेछ
टेड
दर्शनको
बाराक
घरपरिवारलाई
हृदयेश
कही
##िसकेकाले
प्रकृतिले
हाउजिङ
जोकोही
क्यालोरी
##बन्धन
नसकिए
बनाइसकेका
पढ्नुस्
निह
##प्रित
हाने
उपत्यकाबाहिर
टहरामा
सित्तै
##फाइड
##सञ्चालन
मखम
चोरीका
पैदलयात्री
##तेन
दुईदिने
##ब्दी
देवानी
शिवप्रसाद
गतिविधिका
##विदेश
निरास
बढाएपछि
चन्द्रप्रसाद
##प्लान्ट
##िजको
मुलुकबीच
वृश्चिक
जोडीको
क्रिश्च
व्
भागरथी
अनलाइनकाठमाडौं
प्रयत्
जलमग्न
मेसु
दीर्घाय
अञ्ज
स्रे
##लबाट
##डेका
एटला
र्यालीमा
जिविस
जुल
भिजि
बेलाबखत
अधिकारीहरुका
रक्षात्मक
चिसोबाट
खडे
क्षत
हालिएको
रसुवामा
शोधकर्ता
ढाल्ने
भाइले
उनीहरुकै
कार्यकर्ताहरुलाई
ढाल्न
निधनमा
##ेन्ट्स
बारपाक
खड्गी
धनगढीस्थित
टेलिभिजनबाट
परापूर्व
स्पर्श
जलमार्ग
सकेनौँ
भोकभोकै
प्रस्तोता
कहीं
पोटा
कतिबेला
बालिकाले
शारि
एरो
##ाल्दै
इन्टरपोल
गर्याे
कार्यहरू
##ेलगायत
भूपू
भोकले
रोहितले
गालीगलौज
##चर्चित
गरिदिएपछि
१७४
अग्रप
लगाइसकेको
अरबमा
गौरीफ
##ाखा
दुवैतिर
स्टोरमा
महिमा
चोरीमा
डेली
पाख्र
सुशिल
१५४
##किताब
गरिदिन्छ
इजलासबाट
विष्फोटक
मटिहानी
अर्थमन्त्रीको
न्यौपानेलाई
भक्का
बस्नका
लक्ष्यभन्दा
समन्वयात्मक
लम्बिएको
वहाँ
##ेस्
बढायो
संविधानविद्
स्पर्धा
आरुघाट
शिवनाथ
सैनिकलाई
चमक
निणर्य
एब
गाग
सिण्ड
नियममा
यूट
फिटनेस
एकअर्कासँग
चाडै
धिताल
कुहिने
कक्षाका
भगिनी
रोकथामको
निराजन
बिजनेश
दलहरूबीच
निक्षेपमा
ठट्टा
पेन्स
वाङ्
निभाउने
किमाथा
##घरका
उत्तरपूर्वी
लाइक
मतान्तरले
अभिनयमा
सुतेका
जिल्लाभित्र
##न्डेस
पदस्थ
निकोलस
केशवराज
##ेलीमा
लुम्
चिकित्स
ताप्लेजुङका
क्रिसमस
निर्णयार्थ
प्रतियोगिताअन्तर्गत
आतिथ
##क्समा
संरचनाअनुसार
उतार्ने
आर्यघाटमा
तेस्रोमा
हदैसम्मको
उड्ययन
सिद्धिचरण
##६३
व्यवसायबाट
पाउनका
तापक्रममा
घेराबन्दी
##गको
गाभि
##आईले
भत्किँदा
शासनमा
नपुग्दा
नपर्न
अपारदर्शी
पन्थी
सहमतिपछि
लुकाएको
रञ्जना
उपलब्धिको
मुस्ताङका
पन्छाउन
विकाससँगै
चिढ
उत्तरपुस्तिका
धर्ममा
शंकाको
एन्ड्रोइड
सुकेको
मोहित
काठमाडौँः
गजेन्द्रनारायण
जालझ
फाईदा
घुससहित
क्वालिटी
प्रथ
विथ
बाच
##वारा
##पेक्षा
उपन्यासमा
गणतन्त्रलाई
ओबामाले
सुरक्षासम्बन्धी
प्रशोधित
सर्पदंश
##ुरै
देशमै
थपियो
##कर्मीका
फागुनको
हाली
गाडीबाट
अनुभवको
परिणाममुखी
देशभक्ति
कविराज
खोलि
##गोर
औंल्याएको
सेवाप्रदायक
कोसेली
एमिक
लाइनबाट
भोल्ट
मेघराज
बिनियोजन
गिफ्ट
इन्सपेक्टर
अनुयायी
वार्न
##नियाले
नरहे
पाउनेमा
सुविधाहरु
विभेदकारी
##ँडी
निधारमा
लामै
##थानमा
##ईका
##बृद्धि
होडमा
अधिकारीहरुलाई
जुझ
दिलाएको
चावहिल
##ौंला
गर्दैमा
२१०
संघर्षरत
हरी
##उल
भेटिएकी
प्यो
वस्त्र
दुर्घ
संकटबाट
तस्वी
बग्दा
महानुभाव
करन
प्रकोपका
सार्बजनिक
पिएर
प्रमुखसँग
बस्तीलाई
नर्वे
विधिसम्मत
देख्छ
मुख्यालयमा
सूचीबाट
राशिमा
माहामारी
सयसम्म
काँध
अरबको
जुवातास
##स्रा
##्छिन्
##धेरै
##ाइयो
एकदेखि
महादेश
ग्राउण्ड
अवधारणामा
##गेज
२३०
##फू
##वाजी
##वेशी
सोचको
सिन्धुलीका
एयरपोर्टमा
मज्जाले
जेसी
##चीले
शिक्षाविद्
धनरा
दुखद
मण्डला
##प्रश्न
रासन
पाक
निजीकरण
##फार
गर्नेलगायत
धेरैभन्दा
सीमाभित्र
स्थानलाई
पैर
सातायता
मानेन
एक्काइस
नमोबुद्ध
अञ्जन
ढुंगेलले
फर्काएर
पिताको
फेस्टिभल
बेलिब्रिज
बीचैमा
दर्शनार्थी
दृश्यावलोकन
##ेह
केएल
घुमाउने
स्क्वायर
डढेल
चेप
ट्याग
सुस
##ेकको
##ल्याहा
ज्ञापनपत्रमा
अशान्ति
तोप
समाजवादीमा
ब्यस्त
भुषालले
##िमेन्ट
श्रमको
लिगाको
उक्लेको
टच
थिमि
समायोजनमा
भारतलगायत
जनसह
घरी
टिमसँग
घण्टामै
सेतोपाटीलाई
प्रधामन्त्री
चिनिएका
चराच
गर्नुलाई
उद्योगपति
बताइसकेका
ठग्ने
भक्तजनले
कार्यकर्तामा
##पोष्ट
पथलैया
गोंगबु
बिमला
बान्ता
##होम
मिलाइने
ड्राइभ
कुल्च
सुभ
लिलामी
मारिए
स्वागतयोग्य
स्कुले
अमरबहादुर
काङ्ग्रेसले
तामझ
जीर्णो
ग्लेन
केटो
स्वाथ्य
मेसिनले
नभेटिएको
मतगणनामा
##दराज
शब्दले
पोशाकमा
युभेन्ट्स
देशहरू
सिस्टममा
बली
रबर
विवादबारे
थालिने
डाक्टरहरुले
गुणाले
नरु
प्रवासमा
वाण
१६४
उत्रिए
बिडारीले
##चिकित्
राजिव
उत्सुक
जर्नल
पंक
विता
##विहार
टिसर्ट
जनस्तरमा
उठे
##ोत्तर
##डिए
युवाहरूलाई
ताल्चा
साइटमा
विघटनपछि
चेल्सीलाई
इम्
कुमारको
भीमा
कामबाहेक
लाखसम्मको
सक्कल
आउनै
चिकित्साशास्त्र
प्रकोपको
कछ
कण्ड
चिल्ड
समातेको
गीतहरू
कमजोरीका
धाराको
इण्डिया
राखेपले
उचाईमा
फाट्टफुट्ट
हुन्छौँ
बिरामीहरु
महामारीपछि
बोर्डलाई
संसारलाई
क्लासिक
नगरेमा
विश्वम्भर
आईएस
कुप्र
##जेक्सन
##म्दी
अट्या
दिनेगरी
सामसुङ
चार्
स्विस
च्यार
उमेदवारी
ब्यूरोले
सुमित्रा
अकर्म
पार्नुपर्ने
पाण्डव
०६८
बोरुसिया
प्रस्ता
पाइन्ट
लुकीछिपी
अक्षम
##पदक
ईन्टर
सीमाका
धनजनको
धितालले
गर्नुभएन
सोच्दै
गृहमन्त्रीको
आरोहणको
स्वस्थानी
चुच
लाद्
रमाई
थापासँग
चेम्जोङ
सलामी
##जुल
राणालाई
टोर
##सपा
सहयोगीको
उपनिर्वाचनको
गाउँसम्म
१५७
पुनर्बहाली
महत्त्
मीनेन्द्र
##इन्चार्ज
सानोतिनो
दौडा
पोर्चुगलका
खाम
##म्पिङ
महामारीसँग
समुद्रमा
खट्
वेड
निर्माणसँगै
सोमप्रसाद
क्षमताले
मोतिहारी
कृष्णपुर
फुका
फर्काइएको
##ुरुस्त
परिसकेका
अभिया
पञ्जाब
प्रविण
आग्रहलाई
शैय्या
पेसागत
मणिपाल
अढाइ
सुरुवाल
बेनि
१६९
दोलखामा
गन्धर्व
सेलिब्रेटी
अकु
नागरिकहरू
रकमका
घण्टे
सुनुवाइमा
##ारत
लक्ष्मीको
तोड्दै
रिजालको
क्षेत्रहरु
सल्
रहेमा
सिको
चौधरीका
जनयुद्धका
नेदरल्याण्ड्स
तदारुकता
शेर्पालाई
प्रत्याभूत
जिम्बाब
कक्षाकोठा
निकाली
बालीको
तानिएको
टोकाइबाट
उसु
योगदानलाई
द्वन्द्वकालमा
##ारोहण
वरिपरिका
जोगाउनु
जगतबहादुर
काले
पुनर्गठ
##च्यू
मुला
##्राे
चेल्सीका
सिताराम
##याका
क्रान्तिका
जिवित
प्रदेशसभाले
बधाइ
ताम्राकार
पार्टीकी
एमएस
आत्मसाथ
घनमिटर
चुरा
माइला
उत्प्रेरणा
आइओएम
उतार्न
सक्नुभएन
पारेकी
पाकिस्तानसँग
प्रोडक्ट
शिवसता
पृष्ठमा
म्यान्मार
पिछडिएका
सौहार्द
कचन
सुनौली
रामेछापका
गिल
असन
अनुसरण
पुँजीवाद
तोडेका
डच
रुग्
उठ्नु
दृष्टिकोणमा
लथ
सशर्त
भोटे
बिश्वास
##न्डे
##पुट
##वासि
जोखीम
प्रेमकुमार
डिजाइनर
भुजेलले
इत्यादि
डिभो
गाईजात्रा
##भुति
माओवादीबीच
युवामा
साँफे
पर्वले
पशुपतिनाथको
टिप्पण
डाट
किंव
हिर
क्लिय
डम्बरबहादुर
थिचेर
किड्
पासलाई
भन्नुको
लण्डनमा
बुबालाई
एकैचोटि
वैज्ञानिकले
हेटौडा
सम्बन्धले
१५६
##होल्ड
नीतिअनुसार
ठेक्काको
परकम्प
दौडि
द्विविधा
राग
##पट्टा
दिनहरूमा
##ालीस
रुघा
मुलुकभित्र
बजेसम्मको
##वादन
संविधानमै
तस्बिरमा
डायमण्ड
##क्को
##अघिको
यसैगरि
अधिकारवादी
अन्तक्र्रिया
##्याप
अझैपनि
रात्री
बग्न
एकजनाले
##म्बित
सूचित
युवापुस्ता
पुग्यौं
वरदान
सदाचार
आतङ्ककारी
हाटबजार
असुविधा
घटनाक्रमले
चुनिए
##क्याम्प
कमिशन
स्वस्तिमा
ग्व
##खर्च
##ारोमा
##लबजार
भागी
सुविधालाई
स्याङ्जामा
श्वेता
साेमबार
इन्टरनेसन
इसार
भूमी
पूर्वबाट
हेभी
किसानहरूले
कलह
चौकीको
सिँग
मागेपछि
तपाईंहरूको
संलग्नतामा
##घु
मार्को
##ङ्कुश
##प्रधानमन्त्री
सुनियो
रोकथाममा
गुटका
संयन्त्रले
श्रीमान्को
सन्धिको
##बाहिरका
भ्याइनभ
प्रदर्शनले
सिरियाको
राइफल
बास्कोटा
अथा
प्रक
हुबहु
##र्जि
राहतमा
दुबईबाट
कह
चान
नेपालगञ्जबाट
लाश
मापदण्डविपरीत
तेहर
तिहाईको
जिसस
भाँचिएको
##डेन्ट
भन्दाबढी
यूके
##लेटमा
आइडिया
आउनुस्
सेमेस्टर
##न्यू
केन्द्रसम्म
एकताले
इङ्ग्
झपट
तलको
##्की
##डेले
सोसि
समाजशास्त्र
विघटनसम्बन्धी
बिताएको
##निस्ट
भ्याग
##ेकले
अनमी
माइतीघरमा
##ौद्ध
बस्नै
कर्मचारीहरूलाई
सकिएलगत्तै
होलि
हुनेवाला
##प्पा
बोरिङ
सूचिमा
600
प्रतिनिधिहरुले
प्रशंसनीय
सम्बोधनको
अर्म
पित्त
##साँ
भेट्दा
समीक्षक
केभिन
एचडी
धरप
गाडि
पश्चिमबाट
##मेन्टको
अमूर्त
इराकी
कुष्ठरोग
भौगर्भिक
##एसले
फर्कियो
अल्को
भुवनेश्वर
टाइब्रेकरमा
लगाउनका
भावमा
अप्रेशन
सायदै
सुविधायुक्त
लिम्बुवान
दुवा
अपद
सन्तानले
अवधारणालाई
फत्ते
##च्य
खेलेपछि
डिल्लीराम
कमिटि
नगरिए
महोत्सवका
प्रोसेस
##समेट
१४८
चाडपर्वका
१९७०
अर्जेन्टिनाका
बदलिँदो
विभूषण
संक्रमणमा
पोर्चुगलले
मोबाईल
रिफ
ग्राहकका
आपूर्तिका
सेरोफेरोमा
लेवान्डो
उर्ज
श्रीलंकालाई
भेरियन्टको
प्रतिनिधिमण्डलले
धरासायी
डीएनए
अमु
विवि
एकरूप
हराउँदा
पाँचथरका
फलेको
##माद
गर्नुपर
सीपमूलक
थन्किएका
लामखुट्टेको
नाडा
तान्त्रिक
द्रो
भवनका
सोध्यो
इम्ब
बम्
##िसो
लिङ
मिसिल
मलजल
युएईका
अर्घाखाँचीको
##न्डि
##लाएर
भावनाले
स्मरणीय
अप्ठ्यारा
रेडियोमा
गण्डकीका
मजाक
द्धन्द
90
एड्स
##तानुसार
प्रतिपाद
किनारको
पुग्नका
राजेन्द्रकुमार
##बहिनी
पोल्ट्री
इमो
##ंडा
बाटामा
यसैक्रममा
गार्हस्थ
हानेका
ट्रेन्ड
प्लेन
खाँडले
भारोत्त
स्वर्गद्वारी
लागिसमेत
देखाउनुपर्ने
बनाउनेछ
व्यवस्थापनसम्बन्धी
अंगमा
पुग्नै
रहदै
शक्तिपीठ
डुबानको
भैरहवाको
##सनका
पुर्च
संस्थापनइतर
हेटौँडामा
##ष्टम
पुनर्ज
हारेका
अहम्
सुल्झाउन
सचिवस्तरीय
सिलिन्ड
फाँसी
वैधता
##ेसँगै
सहइन्चार्ज
खेलवाड
##समेतलाई
सहमतिबाट
सकिँदैछ
मोफ
अगाडिदेखि
तिवारीको
##र्मेन्ट
१७७
जागेको
खिल्ली
##राइ
##धनीको
##तीलाई
रूस
सत्यमोहन
रोपिएको
श्रमिकका
डायलाइसिस
हँुदा
इफेक्ट
रुपैयाँदेखि
मुलुकहरु
##ेजलाई
१७६
पाहुनाको
कमलामाई
##नुभन्दा
##ण्टमा
ट्याक्स
साधारणसभामा
झरि
##शो
नीलकण्ठ
फुटबलर
वडाध्यक्षले
पोखरालाई
वित
सुकी
##ंगको
रोकी
##हुँदा
भूराजनीतिक
बेलका
सिलसिला
स्नेह
सित्तैमा
प्रड
##पावरले
चलनचल्
घोराहीमा
आदर
स्पेश
मधेसकेन्द्रित
आएकै
विचारधार
बुढेस
##शंक
नतिर्ने
अप्रा
निर्माताले
प्रसं
समर
पुर्ने
भूपरि
बुझि
सुवेदीका
शतकीय
मच्चाएको
बाल्यकाल
##पनिक
नेपाललगायत
दबाबका
विश्वकपका
०६९
##बिलिटी
क्याफे
कसैका
भाउजू
अभिभावकत्व
सम्वन्धमा
मागदाबी
खोरमा
बिमाको
जुवाडे
अन्तरसम्बन्ध
मुठभेड
नासो
सुर्न
१५२
समाजवादीको
स्कटल्याण्ड
खच
चीर
चतरा
टुह
इटालीले
तपाईँलाई
तलेजु
जनाउ
आशाको
संघीयतालाई
भक्तबहादुर
छोडेपछि
माछामा
रमन
वष
शाकाहारी
मारेका
कास्कीले
तेन्
साँठ
हुनुभएका
प्रदेशकै
बहिनीको
पाइन्थ्यो
टिपरले
##सम्बद्ध
##डन
यान्त्रिक
दशै
उपासना
धि
##आवश्यक
स्किम
##किशोरी
##ेवा
##ृत्त
संब
च्याट
मान्छेका
##सङ्ख्यक
खसेपछि
सल्ट
##दिलो
कपन
##इल
पर्शुराम
##नुभएकी
विद्यार्थीसँग
सशंकित
नवीकरणीय
इजरायलमा
बटम
फोटोक
महत्त्वका
पन्छाएर
उदासिन
मार्सी
##बिहान
रात्रिकालीन
१७९
फ्रेन्ड्स
प्रयासबाट
औषधिले
बाहेकको
गोग
##हेका
रोकाले
प्रावधानले
हेलिप
हिलारी
##ल्डो
नाकाबन्दीले
नपुगी
ट्व
##विशेष
गर्नेहरूको
रामले
जुनी
जन्मदर्ता
##ानीका
बावजुद
इक्वेड
हस्ती
##िंदै
प्रशासनमन्त्री
उनीहरूमाथि
भरतपुरको
इजरायलले
पुर्याएपछि
बिलियन
ठिक्क
फन
प्रमुखहरु
मंगलबारसम्म
ब्राण्डको
##नगरपालिका
हेलो
मातृभाष
लागुऔषधसहित
##हम्मे
नेत
दुई÷
टमाटर
दावेदार
वालेट
आधारभुत
लिनेको
कुँवरको
रुखको
राहुलले
एकेडेमीका
अनुष्का
आत्मकथा
बुलब
सर्दै
आलोक
खेतीबाट
विपक्षीलाई
वृक्षारोपण
दधि
##जुदा
कारोबारलाई
चैत्य
गैरसं
इनार
सरकारसँगको
सेढ
ठाउँहरुमा
निस्कन्छ
हाँगा
टरेको
##एक्स
विशेषाधिकार
डिप्रेस
नारद
भेटपछि
भूमिकाका
##ज्ड
##हरूकै
सांसदका
उपमा
छुट्
हजुरबुबा
रीति
प्यालेसमा
अप्रत्याशित
##ानालाई
समायोजनका
मकाउ
साकेला
बुबाआमा
तारिखसम्म
##कडी
पत्रकारहरुले
एमिकस
नशा
भर्त्सना
कर्नर
धारमा
बट्टा
##लेसनमा
बरालको
राजविराजमा
प्रिन्टर
यशो
बताईएको
ट्रेन
कोहीले
क्यानका
जनतामाझ
समस्याग्रस्त
आफूनिकट
रुस्
बेहुली
मरण
प्रयोजनमा
भइन
गर्दथ्यो
घटन
विद्यार्थीहरूलाई
प्रतिनिधिसभाबाट
तिलाठी
##उथ
अधुरै
##िसकेकी
अगस्त
ढक
असत्य
सम्झौताबाट
च्यापेर
भैसकेका
हेलिकप्टरमार्फत
स्याउको
थै
पर्स
संरचनाले
जनाएअनुसार
भोजपुरी
माइक्रोसफ्ट
एअ
ब्वा
कृषिका
साँझमा
पाइनँ
रुग्ण
मिट
##फार्म
विश्वविद्यालयलाई
आश्चर्यमा
##चरी
##ङ्गमा
[...]
